TOKEN	WEIGHT
.	-5.882960657802788
the	-4.621025962311212
of	-2.4085065168527455
to	-2.078012166301135
and	-1.49911966718678
in	-1.1373927391200773
that	-1.1271639624745184
I	-0.999420066145684
a	-0.9932039317937229
is	-0.8471000819968671
for	-0.5835077036746092
it	-0.544679636959077
be	-0.534103287884648
this	-0.5334780098903833
not	-0.5184275927329282
have	-0.4414552029542736
from	-0.4349504442436869
on	-0.42006167344590595
as	-0.4004256090595033
The	-0.37301202853341214
by	-0.36232203964499243
will	-0.3387246451172285
are	-0.323599481317308
we	-0.32178165829182737
was	-0.31711883371883165
with	-0.2945327844209486
Mr.	-0.2911321105641177
which	-0.2900045639828669
has	-0.26750471693570826
or	-0.25101709311195153
bill	-0.2409426504111739
would	-0.22850269193005895
--	-0.21924618450036865
at	-0.20691318096501643
?	-0.20603580460414278
Senator	-0.20421099547640642
an	-0.19932384873458492
they	-0.18650615860362293
been	-0.18631673900202816
our	-0.17497767871595035
he	-0.17401590348944518
gentleman	-0.1705657956638233
there	-0.16894520040463218
all	-0.16613064726096224
do	-0.16538769022479854
It	-0.16443940905725551
his	-0.15703695394100609
...	-0.15555897340697072
President	-0.15099870357677916
but	-0.15080113497731934
who	-0.14900706900881236
my	-0.14846687535128977
can	-0.14825028608654092
any	-0.14523895605153583
their	-0.1420396086139958
$	-0.14060896187489735
time	-0.13900210526535695
amendment	-0.13704343691077947
if	-0.13125266188112078
States	-0.12541442639911765
no	-0.1244989067988494
``	-0.12316546611261855
one	-0.12247756485670894
other	-0.12185208588976655
so	-0.11778736982280738
In	-0.11232519033407404
''	-0.11176342273340853
were	-0.11082514238369774
had	-0.11062641771209801
should	-0.11009083887930847
these	-0.11005638822911946
House	-0.10890221249646974
what	-0.10530124548094372
:	-0.10508294628770792
Senate	-0.1033973519267547
people	-0.10041358236614015
out	-0.09872359149947886
United	-0.0971518263025431
more	-0.09683997091831943
you	-0.09677791559847555
its	-0.09415773023845199
them	-0.09308316137766581
now	-0.0930079928035291
am	-0.09295112005481565
when	-0.09247345545748988
upon	-0.09191029147543257
may	-0.09148934135243292
made	-0.0909536206119075
than	-0.09031935063081227
Congress	-0.08964451432171956
about	-0.08960222464949687
We	-0.08877507534817929
under	-0.08816169416332677
some	-0.08632381278125956
such	-0.08613607346964587
committee	-0.08419353297043107
Speaker	-0.08333531312877542
question	-0.08310749865133275
think	-0.08307611376407144
say	-0.08128814396623163
me	-0.08105597508398582
very	-0.08101957969279425
only	-0.07968653434844168
those	-0.07966676337758864
yield	-0.0783410559254034
country	-0.07733895593634803
Government	-0.07627409785386792
years	-0.07597579277945042
That	-0.0754219813035462
State	-0.07514366283253332
ask	-0.0745882438750033
make	-0.07382694681348537
Committee	-0.07236320248446353
shall	-0.07217517249855036
us	-0.07165459836841924
because	-0.07143006298283379
This	-0.0703859963216493
up	-0.06879646366495946
law	-0.06812203865372878
before	-0.06780371071698542
into	-0.06701343445849346
If	-0.06665617562198366
year	-0.06607010646313055
over	-0.06192212939741646
order	-0.06160824404404536
know	-0.0604905879605363
Is	-0.05978616335620774
said	-0.05929321972597111
could	-0.05780955695748772
great	-0.05773439809542782
Chairman	-0.05733591149448364
here	-0.05653940155445779
many	-0.056424790534182305
American	-0.0561095203786626
him	-0.05486713251062229
vote	-0.053750503342723126
take	-0.053227677123143115
But	-0.05315721579039645
want	-0.05306917966671506
does	-0.052578347442112525
report	-0.05168684908243015
New	-0.05101608793080869
(	-0.049250007307546056
must	-0.04908594843393505
right	-0.049023060648619804
)	-0.048849478867008765
did	-0.048804264140002884
legislation	-0.04875296130236377
same	-0.04842629369175781
like	-0.048333824076394916
Federal	-0.04833052257158015
There	-0.04812314861562061
also	-0.0479334725072279
present	-0.04762052986391283
just	-0.04746298438202073
then	-0.046930519778412644
money	-0.046368155815896164
point	-0.045708304938697125
They	-0.04561524472987031
going	-0.04530489934157136
two	-0.045009399559596305
He	-0.04488597479609578
go	-0.044882752195528196
get	-0.04479825126128536
every	-0.044700192896460676
objection	-0.044633350722908485
much	-0.04445735937098137
first	-0.04436821944191478
fact	-0.044359108329944864
believe	-0.044048281625633984
being	-0.043758036091763035
public	-0.043734540100008594
way	-0.04334832465639792
after	-0.04325700874823746
work	-0.04308072684382464
matter	-0.04284838898710511
last	-0.04248952421284315
consent	-0.04221915270454899
today	-0.042093807178082365
read	-0.0420373640951669
against	-0.04175551705561169
where	-0.041383154122389715
resolution	-0.04042693444542663
most	-0.04030733477602866
without	-0.039389299360512504
part	-0.03920966915626708
power	-0.03873846514905429
business	-0.0386517438775431
unanimous	-0.03820147061470944
act	-0.037837022301451646
well	-0.037780654351241436
program	-0.03761049004317522
new	-0.03740294848496742
men	-0.0371972360326674
through	-0.03660340804898041
come	-0.03617139089959553
And	-0.0360806802370314
pay	-0.035730418474324684
whether	-0.03558107810263212
consideration	-0.03528158817535558
Department	-0.03520492294435884
own	-0.035137507230208614
case	-0.035085812458584754
Secretary	-0.03445190456331756
good	-0.03438389308023667
man	-0.03432916272368521
support	-0.03430376671318986
war	-0.03380429656121409
give	-0.03371876559020612
per	-0.033532432518914565
tax	-0.03325260480641674
No	-0.032010964212024526
service	-0.03186310464311931
put	-0.03151340115768139
percent	-0.031465509471730255
done	-0.03133261146199072
passed	-0.0312168389371748
As	-0.030966363238153074
see	-0.030814694681626863
purpose	-0.030649847959833738
York	-0.030605412511075864
section	-0.030593044208997326
1	-0.030573714719402265
call	-0.030281001958239146
might	-0.029969302172956076
further	-0.029879808101212137
how	-0.02981510063408959
day	-0.02980261362631382
amount	-0.029099372059751067
million	-0.029089755319809375
use	-0.029015601489746565
world	-0.02900447306845062
need	-0.028231921301259472
important	-0.02820790175834405
Chair	-0.028104930893072803
between	-0.028045680284574156
even	-0.028026426175983575
during	-0.027939800587283126
statement	-0.027705081483203498
Now	-0.027559398535600584
A	-0.027533038092079173
understand	-0.027505878799441812
back	-0.027357439089328712
hope	-0.027323786157096238
minutes	-0.027200096733727728
course	-0.02714438200512552
necessary	-0.027133791372204074
Senators	-0.027036734271037036
subject	-0.026969007674205934
number	-0.026953580010010414
cost	-0.02691069017783409
ought	-0.0268384742966417
system	-0.02658653588777581
taken	-0.026471414846297336
down	-0.026439213643557363
both	-0.026301830990119415
national	-0.02613803721584046
Act	-0.026129304921449874
until	-0.02597926789243656
another	-0.0258549933315877
interest	-0.025715521829370896
proposed	-0.025557064530795457
appropriation	-0.025325434886739332
increase	-0.025116707386192486
far	-0.025096100070261678
each	-0.02486118550153285
action	-0.02479849201246764
provide	-0.024645427050556792
provision	-0.024590109531475664
So	-0.02433122402007465
move	-0.02429737228864864
2	-0.024031181446803093
given	-0.02388564399993041
motion	-0.02385143981042595
attention	-0.023845400882994132
never	-0.023726663224825847
certain	-0.02358702427260186
long	-0.0235715844324873
What	-0.023504482040534392
place	-0.023477742416474816
reason	-0.023324595481310093
line	-0.023238140454462677
policy	-0.023069805004331215
within	-0.02301230160285968
amendments	-0.022860397039737898
floor	-0.02270387050087799
request	-0.02259142439445688
few	-0.022503136665662206
while	-0.022459350367129507
find	-0.02242832826054757
wish	-0.02223464682897571
desire	-0.021889561670453334
ago	-0.021792606035085094
your	-0.021754823837846004
Washington	-0.02160778226464802
members	-0.021600745462889738
having	-0.021547674784012216
able	-0.021536785697183123
rule	-0.021518395754294543
state	-0.021512618584907262
again	-0.021362461062960067
general	-0.021199453701337558
care	-0.021120408143082636
foreign	-0.0210626406614035
little	-0.021049370096950865
Members	-0.020931663249322524
RECORD	-0.02087286580630082
debate	-0.020812755039953158
land	-0.0207676860335725
her	-0.020712209482679357
next	-0.020707225962836133
distinguished	-0.020574567508491057
used	-0.02052503768369422
why	-0.020475209421611594
let	-0.02045240407555378
three	-0.020406496104767226
chairman	-0.020403386453294026
making	-0.020009461472225633
colleagues	-0.02000288943796172
offered	-0.019872143897736835
since	-0.019784313416554095
words	-0.019688060856276224
paid	-0.019614863113353375
less	-0.019560301898251423
5	-0.019554917409958617
America	-0.01946985428903729
10	-0.019443943161375793
conference	-0.019349939975240475
provided	-0.019337975969980364
better	-0.019274518048855455
stated	-0.019175654517760193
already	-0.019157002682513358
issue	-0.019149733340055316
government	-0.019125961454289672
large	-0.019089415249631682
information	-0.019035546150222845
duty	-0.018928501039856185
side	-0.01887254173746356
administration	-0.01875113386184131
provisions	-0.018728892429048766
effect	-0.018728300799281932
life	-0.018670620395618235
too	-0.01849571462992516
control	-0.01846229852028166
price	-0.01845696724322643
3	-0.018439467447672126
simply	-0.018383923342076735
authority	-0.018285211698896877
military	-0.018274537408299672
For	-0.018272805852348556
called	-0.01826538771341272
member	-0.018260008237374163
thing	-0.018200584203964504
Treasury	-0.018109068943779838
kind	-0.018080275473406154
cent	-0.018055542222237122
remarks	-0.018041552095723657
opportunity	-0.018035450659302447
body	-0.017960553699780165
Let	-0.017938940262152377
situation	-0.01793666620454855
true	-0.017881237123054075
industry	-0.01785908014024818
rights	-0.01779653387405619
reported	-0.017793507397287866
result	-0.01773223732546926
majority	-0.017732053349225712
On	-0.017689875009965016
days	-0.01764033160280296
National	-0.0176121961336674
South	-0.01760997239218676
following	-0.017531327140614113
says	-0.0175127083413083
word	-0.01747419730869534
measure	-0.017370023751860714
court	-0.01731059177027042
help	-0.017306046137840026
ever	-0.017274461259454425
whole	-0.017261065657616283
billion	-0.017215998186891613
still	-0.017211916044789805
best	-0.01717315180737562
When	-0.01715304357712524
additional	-0.017145376461589888
seems	-0.01704504067632218
programs	-0.017019138854359465
funds	-0.01697821257077473
possible	-0.01688163961581773
bills	-0.016828831469293475
friend	-0.016799934160818986
budget	-0.016785181745889333
laws	-0.016775375113525066
small	-0.016671631594054135
free	-0.016582988581246377
position	-0.01656527329188957
respect	-0.016541017592692785
problem	-0.016484755868541107
ordered	-0.01645654039833955
nothing	-0.016405668866525155
referred	-0.016395970566744984
future	-0.01639199314467329
something	-0.016378660345405575
private	-0.016315020352927208
Nation	-0.01627460683971022
rate	-0.01619387125768557
agree	-0.016186260332650713
object	-0.016178735064751454
health	-0.01615210989732521
considered	-0.01615060882135691
things	-0.016125486169563042
offer	-0.016068238226312623
political	-0.016012561057727095
least	-0.015936509366240623
means	-0.015910551528784296
pass	-0.01582895296258451
received	-0.01582214984456009
end	-0.015811057833507662
high	-0.01578816765939058
opinion	-0.015765926168423226
children	-0.015741177565978818
U.S.	-0.015735098165547485
citizens	-0.01573057414877429
printed	-0.01572717720863731
Does	-0.015704924032954686
War	-0.015680243531365125
language	-0.015631444156786772
home	-0.015626586951575955
General	-0.015605826695889622
page	-0.015565522945869863
came	-0.01556285470560684
asked	-0.015456905988289612
full	-0.015450041486399996
Will	-0.015443525530189666
continue	-0.015425970740646864
Commission	-0.015362929775291958
found	-0.015257172456218548
economic	-0.01524444288891977
These	-0.01523168313300412
yet	-0.015201853488219182
District	-0.015195745458589949
dollars	-0.015184296363686135
California	-0.015169823065232959
city	-0.015119776296248758
thank	-0.015067967672365528
past	-0.015052913790424059
Constitution	-0.015013044110003666
property	-0.015008608220605674
cases	-0.014967436427183784
Army	-0.014967030499244782
bring	-0.014930572195856195
anything	-0.014892537239611882
session	-0.014807802478054003
particular	-0.014776843855689689
change	-0.014769384514305539
agreed	-0.014762530482652216
labor	-0.014762041563283061
[	-0.014715353305569088
regard	-0.014667429513389639
rise	-0.014641609400705002
Texas	-0.014543902750426427
office	-0.014540837650597086
period	-0.014524921748180616
either	-0.01451645877163561
letter	-0.014499737580317943
You	-0.01448294689312462
Illinois	-0.014466548637195376
district	-0.014464628313723077
provides	-0.014430614487595377
Ohio	-0.014406297105100361
doing	-0.014360812254293349
special	-0.014201964890918671
several	-0.014200566031682443
Republican	-0.014144582169548047
correct	-0.014108628988137615
party	-0.014096672680064665
-	-0.014088808122134847
proper	-0.013999016575433865
held	-0.013985185057361656
strike	-0.013981159701079743
pending	-0.013978805045122758
trade	-0.013945256369360032
always	-0.013942424257235466
view	-0.013934304449261956
itself	-0.013904586288554033
purposes	-0.013854545066940041
second	-0.013829219332665017
plan	-0.013805924251592518
proposition	-0.013802968998825523
become	-0.013787557953634143
local	-0.013768603286217145
answer	-0.013746698109201915
brought	-0.013728809660782708
North	-0.013713776263586651
4	-0.013690629106562342
others	-0.013685088117618397
My	-0.013614602285338059
therefore	-0.013495803644888693
construction	-0.013482387162503728
colleague	-0.013479965728430597
To	-0.013465197254410855
officers	-0.013434711147153245
thought	-0.013418735067206736
follows	-0.013404550861320554
adopted	-0.013375166516874015
agreement	-0.01335656663849049
favor	-0.013308171230226732
rules	-0.013302306230423066
countries	-0.01327588422422713
fiscal	-0.013273105976255169
months	-0.013238810148573971
different	-0.013236360369127417
concerned	-0.013166256818099565
history	-0.01311159787719175
however	-0.013102810217639614
heard	-0.01310106720421476
Union	-0.013041272295313844
set	-0.013021332893144026
record	-0.012979186832823807
area	-0.012968766913126692
enough	-0.012954013543445896
Then	-0.012929823832316948
times	-0.012924778417078864
certainly	-0.012907666238262675
Americans	-0.01284816336515937
]	-0.012822529735721665
Court	-0.012765034090107737
meet	-0.01273421920102194
appropriations	-0.012734146818338296
water	-0.012711680988878812
reference	-0.012686958946916124
voted	-0.01267314081624619
myself	-0.012643070417331918
allow	-0.012630788142017093
off	-0.01253597642344874
deal	-0.012512933006208964
except	-0.012496084017432204
value	-0.012479768937725344
taxes	-0.012456817056499843
Under	-0.012433098094850098
force	-0.012406196303382607
required	-0.012398441390155246
total	-0.012383808555534372
development	-0.012360178805200803
increased	-0.012337050959593079
available	-0.012314601575585728
30	-0.01231342628271374
clear	-0.012311045705687319
production	-0.012297934540788867
lands	-0.012295546453909512
judgment	-0.012292452929867786
consider	-0.012288252524447794
Without	-0.012246443952570667
problems	-0.012218434065374739
look	-0.012186245556146565
benefit	-0.012181819359176112
defense	-0.012151882389184037
S.	-0.012151665013924874
At	-0.012124143966331649
rather	-0.012106956535043673
Pennsylvania	-0.012083643957251257
education	-0.012058827417839403
article	-0.012054564345230993
facts	-0.01204967482071338
community	-0.0120096531629328
farmers	-0.011981322303444722
school	-0.011969808484327892
Representatives	-0.01193568143852732
lie	-0.011899364143522762
Virginia	-0.011875944460447263
Yes	-0.011855758462046428
conditions	-0.011853213886121322
entitled	-0.011848786927910557
moment	-0.011844458364930305
sure	-0.011839764205776012
away	-0.011781647577322057
nations	-0.011770275848145759
fair	-0.011757736594846946
services	-0.011751606750490334
effort	-0.011747240590514959
security	-0.011704836993962991
needs	-0.011694403336549647
known	-0.011693687567885705
legislative	-0.011651701711150214
20	-0.011638902866140763
oil	-0.011610107743890282
unless	-0.011606922042072898
basis	-0.011591604120805878
economy	-0.011550442656062136
employees	-0.011487541510130006
recognized	-0.011481684044569408
extend	-0.01147801982304745
aid	-0.011463040262462408
cut	-0.011458998862682448
comes	-0.01145857631896719
five	-0.011444733373842697
feel	-0.0114416064931572
existing	-0.011439994470137205
title	-0.01141710961231913
Navy	-0.011412514367431832
Massachusetts	-0.011399871285628988
authorized	-0.011393955794328506
she	-0.011391909720444715
keep	-0.01138084895825415
market	-0.011355647926478038
Carolina	-0.011351024177432696
among	-0.011345500348020508
show	-0.011322725006958625
person	-0.01131214694290405
themselves	-0.011307417888563053
cents	-0.011299442250213343
entire	-0.011282485288281779
H.R	-0.011239698506069647
gentlemen	-0.011227633222242765
including	-0.011215203232216194
building	-0.011185117435419445
process	-0.011158642432148435
income	-0.011132184523908854
rates	-0.011102558620964266
tell	-0.011088397386882904
Why	-0.011085361936740992
real	-0.011068722588660013
almost	-0.011061908533030494
interests	-0.011053275441162079
receive	-0.011036773174405755
went	-0.01103252493709424
makes	-0.011027740375353923
whom	-0.011005021281234447
stand	-0.0109975583473409
6	-0.010965985483313349
decision	-0.010865404001169015
form	-0.010826370347077308
*	-0.010814986899702353
efforts	-0.010814976789264463
relief	-0.010800098324893339
treaty	-0.010779328075859084
charge	-0.010776091562626709
One	-0.010701929800318088
willing	-0.010658487397068303
passage	-0.010634650219415717
proceed	-0.010590018979574763
include	-0.01058283275650514
persons	-0.010572538740088977
Of	-0.010515618709616953
hearings	-0.010512898003938962
permit	-0.01048230502248863
trying	-0.010481801035162419
old	-0.010475615347153626
companies	-0.010472366391256704
May	-0.010470560213578728
four	-0.010463721305183004
perhaps	-0.010447456949557876
third	-0.010446942289044957
tariff	-0.01043694318106832
leave	-0.01041692962576024
mind	-0.010412000058202106
protection	-0.010365596125327947
morning	-0.010309642626039813
terms	-0.010305477639125156
areas	-0.010295109473496789
speak	-0.010286643612103056
family	-0.010281068121300956
company	-0.010279837419883477
working	-0.010268470709316071
All	-0.010255948694984732
West	-0.010237111032177754
mean	-0.01023031668243872
introduced	-0.01022156187663006
Democratic	-0.010215998666436991
whose	-0.010211142090202872
really	-0.010210031566960164
benefits	-0.010174879486063453
reading	-0.01016142769241812
addition	-0.010125485698995337
needed	-0.010095431711197062
election	-0.010085208351603878
together	-0.010082486622693171
left	-0.010081984817081122
himself	-0.010069907450289208
farm	-0.010069810173845967
taking	-0.010044205118861277
individual	-0.0100374744230096
along	-0.010032602869654345
various	-0.009999948646550365
quorum	-0.009992956443697737
once	-0.009992124345330694
Missouri	-0.009986017894374996
doubt	-0.009975814497355469
suggest	-0.009968730891242823
costs	-0.00996222645584571
previous	-0.009943383557116723
discussion	-0.009928473997050064
peace	-0.009927281375722012
products	-0.00990689731726375
sent	-0.009885939385827307
Nations	-0.009877445089119846
involved	-0.00987731272307678
whatever	-0.00987247821515367
served	-0.009839560870158118
Michigan	-0.009827697120293735
took	-0.009807129533651354
half	-0.00976918060875946
address	-0.009765438471449542
15	-0.00973388620819601
protect	-0.00968548015950565
connection	-0.00967793253013603
send	-0.009675842011959047
questions	-0.009673933806910137
claim	-0.009657096062521537
condition	-0.009640564860877518
board	-0.009619264811746955
name	-0.009614801521331522
greater	-0.00960992073807825
Indian	-0.009601288455021584
table	-0.009600883250604332
prices	-0.009588689365442474
evidence	-0.009579745165454038
leader	-0.00956271950865512
Service	-0.009559758020067803
However	-0.009544714144239451
responsibility	-0.00952868820334342
told	-0.009511220954391872
demand	-0.009456669326162192
Office	-0.00945621479253516
assistance	-0.009433765316636419
credit	-0.009405949321372689
insert	-0.00940390297978709
June	-0.009377042901517283
week	-0.009354030231207962
entirely	-0.009316755389774015
around	-0.00930540856846921
fund	-0.009304100823716698
hour	-0.00928172908258185
got	-0.009277632146295447
project	-0.009240927206743615
proposal	-0.0092056296105625
throughout	-0.009190278745671228
providing	-0.009176897567855823
hold	-0.009172351720481696
carry	-0.009121983310301573
nation	-0.009114417950856771
goes	-0.009112512216829504
open	-0.009094726312277734
joint	-0.009090844325990263
50	-0.00907106252996844
knows	-0.00906767704855587
contract	-0.009064858934615254
submit	-0.009061388856292962
presented	-0.009060618100188255
require	-0.009059996792141208
Appropriations	-0.009054636934328607
sense	-0.009013351621538964
hand	-0.008995898677646195
study	-0.008986703599022676
women	-0.008983022298935297
Mississippi	-0.008973834058752345
Our	-0.008949637777835905
urge	-0.008948673168525618
testimony	-0.008948039849133047
strong	-0.008937630971493683
commission	-0.008937147645796995
banks	-0.008930741171818853
spending	-0.008925766374833024
saying	-0.008916360736786493
appropriate	-0.008903527815813932
energy	-0.00886609687590199
example	-0.008839039867528346
Iowa	-0.008834819581052778
H.	-0.008815503208458276
Commerce	-0.00881293953906643
single	-0.008804599725994445
current	-0.008790806878038395
Columbia	-0.008789500127434487
millions	-0.008787491523256509
major	-0.008776155740838563
Member	-0.008765686217457542
minority	-0.00876318094633405
character	-0.008726602940717327
due	-0.008707645594318723
substitute	-0.008704766496105812
job	-0.008700891333367058
serious	-0.008648981720756841
probably	-0.008642685883558774
coming	-0.008641427335088067
executive	-0.008616125543473347
quite	-0.00859018908695396
nor	-0.008549772237347575
prevent	-0.008537682871918792
personal	-0.008533271248208038
difference	-0.00852343322417236
later	-0.008520326825206238
leadership	-0.00850846119773979
allowed	-0.008506947465936388
established	-0.008501719744631982
else	-0.008492989610199267
claims	-0.008485729342794611
argument	-0.008482610129456482
Soviet	-0.008469034205185848
international	-0.00846837539584044
debt	-0.008451814158255697
Indiana	-0.008444103498517846
month	-0.008437517803839794
courts	-0.008422806864771997
families	-0.008420269953352355
speech	-0.008416766148106693
friends	-0.008387785183049999
extent	-0.008385211118480085
By	-0.008376627083318105
matters	-0.00836632810184933
toward	-0.00836043130355845
schools	-0.008353059131495208
hundred	-0.00835122309694169
sufficient	-0.008330186108974949
recent	-0.008328807589634618
balance	-0.008314120763589214
date	-0.008313936390428078
pension	-0.008299445247713868
Tennessee	-0.008297302594439488
human	-0.008294039591718275
committees	-0.008291375269983093
How	-0.008277881226823436
bonds	-0.008251479628973964
Agriculture	-0.008249900174971007
close	-0.00824759824263869
agencies	-0.008246559746924132
amended	-0.008242055242931527
original	-0.008233133802501564
12	-0.008217755378329942
votes	-0.008209995053409823
merely	-0.008186607866669793
cause	-0.008183219527897283
hear	-0.008174973200595114
reduction	-0.00817330401928902
giving	-0.008164372983247993
cotton	-0.008158775255572697
understanding	-0.008158763202238848
Board	-0.008153908436772089
Supreme	-0.008153284677429512
civil	-0.008137689871246778
officer	-0.008128946090648676
With	-0.008118066269628226
particularly	-0.008109665723709572
revenue	-0.008106753979237073
Affairs	-0.008104562911976625
River	-0.008093876235487341
clerk	-0.008091338187956139
constitutional	-0.008078313602100587
interested	-0.008075651388048164
similar	-0.008062577965590925
gold	-0.008060843747458132
instead	-0.008058273847077208
silver	-0.008057333995295521
class	-0.008054498114471285
Bureau	-0.008044716832800149
experience	-0.008033177877857733
young	-0.008006883739091494
average	-0.007990944092631135
higher	-0.007974138297158397
placed	-0.007973065190068681
trust	-0.007962697268050134
Florida	-0.007953900946069485
live	-0.007950358820117577
duties	-0.007948944173903672
level	-0.007936907558723968
March	-0.007923711337884125
Georgia	-0.007911923902453825
8	-0.007907786685211476
investigation	-0.007904706099677125
based	-0.007878902053641184
Wisconsin	-0.007875781566853611
Public	-0.007872746054658493
capital	-0.007861504937813294
carried	-0.007856207590627358
financial	-0.007847944887978865
legal	-0.007842787711591203
research	-0.00782756751656468
nearly	-0.007823510227218396
operation	-0.007819435058039328
resources	-0.007795124299506061
transportation	-0.007795070015806048
commerce	-0.007790720591806346
opposed	-0.007777681134761052
face	-0.007774692902061124
reduce	-0.007770042172130805
glad	-0.0077671331362961305
seen	-0.007756683855362627
workers	-0.007755426352033524
January	-0.007739006537153575
reasons	-0.007736181269442911
approved	-0.007729175307061288
organization	-0.007722896653659359
account	-0.007695518416557261
insurance	-0.007688420750960769
While	-0.007669323120205246
though	-0.007667469575454058
food	-0.007657529499653996
honor	-0.007641427196623687
R.	-0.007638716843736156
raised	-0.007620490089897903
direct	-0.007618647164092677
gone	-0.007609089882857776
7	-0.007605598689970409
Mexico	-0.007600227176178887
manner	-0.007582966643193728
getting	-0.007579995288561497
projects	-0.007565131355078523
Certainly	-0.007564596603535051
payment	-0.0075642947089731545
yesterday	-0.007552215669367792
serve	-0.007535003871372723
sum	-0.007527382243760373
tile	-0.007526916603177781
hours	-0.007523976410210865
Administration	-0.007522222272761096
short	-0.007520287604048703
return	-0.007514039776947367
railroad	-0.007489700069183176
25	-0.0074875258024397606
effective	-0.007485608421068447
July	-0.007479897227768506
population	-0.007459948625073021
Alabama	-0.0074589205540153535
Clerk	-0.007457919118962275
living	-0.007456116747571123
intended	-0.007440842708305066
field	-0.007434942032384784
ships	-0.007427322756227776
submitted	-0.007426391429627167
opposition	-0.007424598462654768
..	-0.0074240565845111895
add	-0.007422680064644455
veterans	-0.007420724959072462
beginning	-0.007412948593219067
subcommittee	-0.0074109674929667465
Presidents	-0.007408919088432535
complete	-0.007404799626454706
reasonable	-0.0073974889745701145
reports	-0.007384935538859646
idea	-0.007384899036146379
lines	-0.007379922736864155
freedom	-0.0073788619858081396
importance	-0.007371473434709643
activities	-0.007365625340729696
wanted	-0.0073605304006822405
join	-0.007346051055441468
jobs	-0.007342007525230529
wrong	-0.007312800234963056
First	-0.0072959027274595075
above	-0.007282251867553706
recognize	-0.007279295644208921
absolutely	-0.0072649010237855315
lives	-0.007262919424062237
try	-0.007260766074176988
dollar	-0.0072581080509888304
fully	-0.007255605249636427
jurisdiction	-0.007253671741037076
facilities	-0.007242229857483673
hands	-0.0072380331062330905
His	-0.00723676808265738
loss	-0.007219421734083266
justice	-0.007213399444415434
beyond	-0.007183914042591163
farmer	-0.0071823437970566185
paragraph	-0.007172191777310025
agricultural	-0.007165166656455985
roll	-0.007131283300265606
accept	-0.007129392485777913
Kansas	-0.007128708633447802
raise	-0.007127861937780822
Kentucky	-0.007117131218333249
figures	-0.007113677858315509
although	-0.007095371447806403
late	-0.007095044152864837
limited	-0.007093562732350917
gave	-0.007088249661365079
100	-0.007083331735507213
issues	-0.007074474871464822
included	-0.007061138733469683
worked	-0.0070537562742584445
especially	-0.007044624675223367
funding	-0.007038306532837977
apply	-0.0070232220957072294
lost	-0.007022803879067805
nature	-0.007021138090543815
powers	-0.007015360894108314
propose	-0.0070150187923153345
recently	-0.007014462331396934
World	-0.007006283496164184
tomorrow	-0.006993762623882455
expenses	-0.006989737267515696
list	-0.0069843131567634345
individuals	-0.006974728834332219
longer	-0.006969053509338957
alone	-0.006968313541234132
age	-0.006967044409265771
lot	-0.006964093455682364
employment	-0.006963478162963791
Minnesota	-0.006963024739902871
spent	-0.006944259894558969
former	-0.0069433922314047596
appropriated	-0.0069317257769137075
remember	-0.006928485578464415
understood	-0.00691916172718324
prepared	-0.006917614207851147
difficult	-0.006911814089417478
Interior	-0.006896338359665844
Well	-0.006893919651373698
agency	-0.006887305540182811
group	-0.006877823536193311
ground	-0.006873269049694141
common	-0.006872330979150477
Not	-0.006859869428939968
talk	-0.00685940085822139
department	-0.00685874221273411
thus	-0.006836186088875996
supply	-0.006835679543934669
none	-0.006822631571754173
thousands	-0.006821971214076816
forward	-0.0068210645655681895
instance	-0.006818539960576761
talking	-0.006810421727864796
appointed	-0.0068081365197517054
Indians	-0.006808070311628532
across	-0.006806856388818762
ability	-0.0067519470840637945
clearly	-0.0067463232954525715
Dakota	-0.006731333002204042
death	-0.006731010954167228
limit	-0.006726148696221917
concern	-0.006714828369101037
notice	-0.006714813675921573
wants	-0.006702794754279568
Therefore	-0.006701329421072488
domestic	-0.006700572713546736
reserve	-0.006700188524597241
build	-0.006694488783363613
equal	-0.00669410283116806
sir	-0.006693491247750055
compensation	-0.006688073734210756
hard	-0.006675053738279621
statute	-0.006672168533415742
suggested	-0.006665339439148734
principle	-0.006650068804947581
exactly	-0.0066365536301333855
often	-0.006629883881060442
changes	-0.0066215982161276455
written	-0.006621005332234284
miles	-0.00661510829413934
determine	-0.0066036848727563085
official	-0.0065862931157895325
Colorado	-0.006584399073582802
circumstances	-0.006571085314543909
!	-0.006539104595542346
according	-0.0065354524857983735
officials	-0.0065339184971051675
portion	-0.006531345656368816
responsible	-0.006516821127874652
Louisiana	-0.006510875476964984
training	-0.0065068996042680245
actually	-0.006503799263123738
asking	-0.006496345395395809
forces	-0.006495168654276462
final	-0.006483463247405054
Chamber	-0.006471859485716822
expired	-0.006469340911235729
necessity	-0.006463742286923178
share	-0.006449875019612376
Jersey	-0.006429411947247247
early	-0.006425555515853071
Dr.	-0.0064101889913338655
practice	-0.00640598088815274
Europe	-0.006404197885369345
amend	-0.006400599213146268
conclusion	-0.00639896034393944
After	-0.006394296059516207
voting	-0.006384714045673367
otherwise	-0.006383594262959223
knowledge	-0.006383294249993385
housing	-0.006370820973417521
buy	-0.006368069064498508
views	-0.006362810759521767
parties	-0.006335903107539334
bank	-0.00630862235628223
inquiry	-0.006290347408197118
expense	-0.006288438151809623
Some	-0.006281033382149017
hearing	-0.006280457900288609
desk	-0.006277093906027562
attempt	-0.006274253634212689
soon	-0.006255880172248825
behalf	-0.006253728804488248
permitted	-0.006249284533997551
gentlemans	-0.00624364449020247
laid	-0.006228873603450283
enacted	-0.006217231513926178
Foreign	-0.006216622571531852
emergency	-0.006214912495895851
regulations	-0.006214384177553842
paying	-0.006213960794830724
establish	-0.006210712153232216
Association	-0.006208877240234244
worth	-0.006191035855971199
11	-0.006190335149340262
senior	-0.006183125463795023
step	-0.006182246121630012
created	-0.00615246035997348
run	-0.006151440061821674
meeting	-0.006129540950579746
suggestion	-0.006128187703889653
direction	-0.006116620487769551
maintain	-0.006114401322704479
citizen	-0.006102015602962909
privilege	-0.006098105088217302
&	-0.006092221385469444
Oregon	-0.006078348760729022
John	-0.006077010465413352
Whole	-0.0060738416337513005
loan	-0.006070958790330306
Labor	-0.0060626639051795045
forth	-0.006059472746224545
granted	-0.006055391341128527
greatest	-0.006055146710723837
reduced	-0.006047456597641611
grant	-0.0060404964866074135
A.	-0.0060358089985067375
item	-0.006020652638699605
engaged	-0.005999924458458115
Defense	-0.005997165912905931
thereof	-0.005992671209891
remain	-0.005991658348328275
cities	-0.0059818346485995605
purchase	-0.00598166535841983
continued	-0.005981317865199214
clause	-0.0059777668251349515
soldiers	-0.005968014093266588
Do	-0.005963111734870545
social	-0.00596294238622794
coal	-0.005949606088365954
regular	-0.005943226969165731
immediately	-0.0059307425072319085
withdraw	-0.005922948695560129
stop	-0.005911144515466849
expenditures	-0.00590931104826514
loans	-0.0059069470351007436
express	-0.005899796812568749
reform	-0.005898890240318047
organizations	-0.0058855871859201875
Arkansas	-0.005855279544165681
annual	-0.005846190570769214
term	-0.005843629875348923
weeks	-0.0058433558602355665
produce	-0.005834921891494803
turn	-0.005831393503934196
Security	-0.005829164569844096
goods	-0.005824185382187493
competition	-0.0058197327868080104
students	-0.005818722889061571
Great	-0.005816846698283327
seem	-0.005803295305370033
six	-0.005802913535977329
immediate	-0.00578602799318848
built	-0.00577955873161493
Those	-0.005778419360701964
anyone	-0.005772093052210895
specific	-0.005764990044107296
Justice	-0.0057636656217589025
40	-0.005762465050333969
follow	-0.005751544997387835
medical	-0.005747961762912627
9	-0.005745529192677806
staff	-0.0057362489525336294
standard	-0.005722156949403075
progress	-0.005718704908901771
gives	-0.0057074177407109
County	-0.005697084643824741
create	-0.005690247058864501
save	-0.00568596915924046
became	-0.005684048319023414
material	-0.005674531725096723
City	-0.005668504900923937
poor	-0.0056673107816025145
communities	-0.005662958307837505
thousand	-0.005660973949416498
leaders	-0.005658122287685924
reached	-0.005658091876106455
minute	-0.005653172729405705
Madam	-0.0056508935102866364
basic	-0.005648956901240593
sale	-0.005638179659505258
April	-0.00563177775931463
added	-0.005631668774412563
ready	-0.0056287873165007584
Here	-0.005610281722889994
corporation	-0.005605126795888122
safety	-0.005595346243448667
everything	-0.005586331627704153
secure	-0.00558359703345182
February	-0.00558036137848266
points	-0.005576662943724594
sell	-0.005568929278895956
judge	-0.0055687380472511944
pro	-0.005568158059920085
shows	-0.005557651879141105
issued	-0.005557597811089034
Budget	-0.0055517276420423735
sold	-0.005550507445349932
nuclear	-0.005549610732092394
discuss	-0.005543713636209002
takes	-0.005535433557199567
Nebraska	-0.005528957478997691
Maine	-0.005527265641467469
taxpayers	-0.005521736698634562
requires	-0.005515351880505993
absence	-0.005513665524826471
elected	-0.005512191569302829
Maryland	-0.005500879482373593
welfare	-0.005493843657088924
air	-0.005490478122486988
reach	-0.0054901351217359435
oclock	-0.0054834919049464095
wheat	-0.005482374677013864
conferees	-0.0054717875886426725
natural	-0.005468311112064474
directly	-0.005461874286859243
represent	-0.00545856795673316
institutions	-0.005452114381486613
An	-0.005440031540915367
contracts	-0.005433630952300936
agreeing	-0.005427105998102379
fight	-0.0054184004264148065
expect	-0.005418234923441696
England	-0.005416051198202149
prior	-0.005410091427054375
acres	-0.005408719351968665
approval	-0.005408504922831652
message	-0.00540759355807451
deficit	-0.00540495907656915
sugar	-0.005403297387513211
Its	-0.0053974912709740305
December	-0.005394679001411443
increasing	-0.005392561228472174
decided	-0.005391296179733362
states	-0.005373131513113842
paper	-0.0053683271151323125
Calendar	-0.005361456154337615
suppose	-0.005355281352748236
spend	-0.005354898182495923
From	-0.00535020714027027
outside	-0.005340915061509959
road	-0.005332576139645311
essential	-0.005320643225871875
Connecticut	-0.005307029464594565
big	-0.00530547663735503
Judiciary	-0.005305202866786783
refer	-0.005303565068945993
shown	-0.005296860708996115
child	-0.005296564983068208
knew	-0.005284472706423257
salary	-0.005283598839097147
bad	-0.005275174112049476
places	-0.005273058003131967
properly	-0.0052681877013400075
dont	-0.00526298885624653
significant	-0.005243817066838101
lay	-0.005242482057862464
faith	-0.005241965316620671
stock	-0.005238383337423214
items	-0.005223146259536264
statements	-0.005219219662706182
plans	-0.0052151489747513735
nays	-0.005212641903824971
contained	-0.005202984212553755
socalled	-0.005202575850502118
fixed	-0.005198039084754633
conduct	-0.005157518621148987
ourselves	-0.005156387152365204
congressional	-0.005155542381192642
industries	-0.00515298049998343
branch	-0.005150616139893465
fine	-0.005146995104895298
changed	-0.005140674531809419
adequate	-0.0051380132374180135
Since	-0.005131547218335192
Oklahoma	-0.005129432143406395
lead	-0.005127321205497831
lower	-0.00512576971612876
head	-0.005119611623439092
practically	-0.005115545589121373
commercial	-0.005113793382248514
press	-0.005111507971589801
rest	-0.005104741905590554
spirit	-0.0050899016607276965
railroads	-0.005089871468399508
pleased	-0.005088035979807946
September	-0.005082811130091815
product	-0.005071420990804693
Utah	-0.005061157471971536
asks	-0.005060247475990443
crime	-0.005055390130331648
recommended	-0.005049865254776245
exercise	-0.00504186826029513
During	-0.00504006530489249
commend	-0.005033282540955031
burden	-0.0050316982466495335
tried	-0.005028059222130327
Yet	-0.0050132772697811
Post	-0.005007041231617371
Republicans	-0.005004371465546577
met	-0.005003741249849264
impossible	-0.0049876780252980394
vessels	-0.004984492578284133
chance	-0.004983818095561866
yeas	-0.0049733278066570645
results	-0.004964473074541033
operations	-0.004961868390519345
Island	-0.0049606764928428
estimated	-0.004959078289739063
Pacific	-0.0049560974933102265
produced	-0.004935381477756591
happen	-0.004931654503733748
Air	-0.0049296565685469865
growth	-0.004928552466650997
permanent	-0.004923545562239817
limitation	-0.004920917047309476
light	-0.004918398450123864
surplus	-0.004917875771253748
measures	-0.00491168410956617
policies	-0.0049107166904975895
troops	-0.0049095397340748114
sort	-0.004901362928512838
finally	-0.00489392436112991
appeal	-0.004893393741326807
mentioned	-0.004890465829665465
actual	-0.00489018984499068
sections	-0.004889707929397976
mail	-0.004879789782855626
advantage	-0.004874638540494657
Many	-0.004869503097272695
independent	-0.004864227931732867
highest	-0.004861193886570858
expressed	-0.004854007220216274
felt	-0.004850295315788126
appears	-0.0048443390188241345
gas	-0.004841782649356809
Alaska	-0.004839697131523262
simple	-0.004838601299939915
corporations	-0.004834050465974359
tie	-0.004832843630064958
18	-0.004832621792616543
plant	-0.004831754005498202
aside	-0.004825019835447212
occasion	-0.00482392477210044
China	-0.004820003248637587
directed	-0.004817700086879975
approximately	-0.004814813099515264
dealing	-0.004814792318028178
anybody	-0.004813051409439725
carrying	-0.00480999654143492
standards	-0.004807428368496291
Finance	-0.00479548797177303
charged	-0.004794735567524609
salaries	-0.004782892989413543
Democrats	-0.004776279192998345
obtain	-0.004775497043248931
generally	-0.004773854138050894
payments	-0.004773704406202603
authorization	-0.004771306521784914
estimate	-0.004770819795687922
adoption	-0.004767914584675807
informed	-0.0047667836994462025
groups	-0.004753348617398457
decisions	-0.004744568050147003
campaign	-0.0047428469401017345
begin	-0.004739074413121969
determined	-0.0047374181744449136
degree	-0.004732069184816736
requirements	-0.004724824527288059
employed	-0.004719205418092556
outstanding	-0.004718137656776179
Because	-0.0047157146996846195
sound	-0.004715452604579246
river	-0.004714656009026563
enter	-0.004713695747068195
investment	-0.004712397777769437
enforcement	-0.004706148349308254
increases	-0.004701498742803125
representatives	-0.004700265498856138
absent	-0.004697977008377398
speaking	-0.004697872510152121
articles	-0.0046968127370771
quality	-0.0046959771318218005
feet	-0.0046948930190396886
C.	-0.0046941416272596875
indeed	-0.004689786551016968
University	-0.004686219980849544
proud	-0.004683385405731621
approach	-0.004682713173487723
appreciate	-0.0046787166020521975
affairs	-0.004673947578012085
principles	-0.004666741642405918
acts	-0.004662843669177839
review	-0.004661670537897461
success	-0.004657992438027184
Chicago	-0.004652647644175431
rural	-0.004647327760253318
developed	-0.00464584444218176
I.	-0.004642560079346036
names	-0.004629910066620156
wages	-0.004627322395027112
appear	-0.004626934214092547
entered	-0.004617274894156371
type	-0.0046148397964068015
realize	-0.004610759981710378
treatment	-0.004606541926194911
14	-0.004603782200111268
Republic	-0.004601554791635709
vital	-0.004600802161938224
indicated	-0.004588917200409843
editorial	-0.004586268642950788
appeared	-0.004584364173818145
Executive	-0.004577711899837664
naval	-0.00457479525094624
governments	-0.004572895906354298
low	-0.004556988939679406
designed	-0.004554395938225698
Just	-0.004553099427835155
October	-0.0045401851620703116
unemployment	-0.004513169850283941
parliamentary	-0.004510310596760115
industrial	-0.004507520195319001
night	-0.004505442420758101
commitment	-0.004505201250041191
relating	-0.004500344982545972
separate	-0.004499838279404861
earlier	-0.004490831651974078
discussed	-0.004482562240442587
assume	-0.004480012426098449
W.	-0.004476724508152401
16	-0.004475977644411599
expenditure	-0.004475723902347135
proceedings	-0.0044717575425932575
capacity	-0.004471733034829227
Communist	-0.004469130399579164
proposes	-0.004468950341914049
Subcommittee	-0.0044658608460616065
Germany	-0.00446522395537572
possibly	-0.004458176381164402
Education	-0.004456135586645434
buildings	-0.004456092500668084
personnel	-0.004452104348630755
critical	-0.004451793435068855
management	-0.004451366707862643
failed	-0.004450313398261151
larger	-0.0044452571070263775
role	-0.0044432479339420496
Montana	-0.004438875212029278
improve	-0.004430170348228002
develop	-0.004427000311454923
seek	-0.004421521026345479
homes	-0.004419061871933308
afford	-0.004416964442696644
agriculture	-0.0044081578711333055
equipment	-0.00440733861175269
Arizona	-0.004406000117239989
amounts	-0.0044044185698929785
behind	-0.004402421991151749
method	-0.004401246676731203
extended	-0.004389091644798555
supported	-0.004382088926611741
aware	-0.004369967415391343
White	-0.004364131901464767
president	-0.0043638780855210675
county	-0.004359695347015576
successful	-0.004359624276096718
passing	-0.004357395200691372
insist	-0.004351851635743634
II	-0.004349451248973977
charges	-0.004347566265614305
near	-0.004341613703215356
recall	-0.004340522308514989
Resolution	-0.004340055224445152
August	-0.004340030419743882
minimum	-0.0043366553713624165
truth	-0.004331899322909927
parts	-0.004329098784621798
13	-0.004324999609887734
exist	-0.004324293604866528
Oh	-0.004324078000340876
requested	-0.004322366414524427
Chief	-0.0043187363331900356
start	-0.004317364694563095
substantial	-0.004317215813978394
saw	-0.004309786262405163
She	-0.0043081339012545515
application	-0.004306972559244335
perfectly	-0.004306190185670366
note	-0.004292511960837722
authorize	-0.004290126538541232
60	-0.004279620741206428
improvement	-0.004276460637919573
announced	-0.004275069792915886
Territory	-0.004263047553802599
taxation	-0.004259710835588479
society	-0.0042596370451643845
necessarily	-0.0042536129491406935
growing	-0.004249203197838101
weapons	-0.004246501397358313
happened	-0.0042449732444615265
figure	-0.004244652574309288
confidence	-0.004241431668635201
honest	-0.004227448555039044
signed	-0.004216074785992555
works	-0.004214630501323527
ten	-0.004212744620906727
desires	-0.004204935556681956
Vermont	-0.004204829239802591
concerning	-0.004196537711480687
Judge	-0.004192239292339565
using	-0.004189899658026494
adopt	-0.004188544858972878
Corps	-0.0041854450964554524
active	-0.004178982469657619
began	-0.004178467460313784
Idaho	-0.0041775334766381116
Health	-0.004176098237640961
procedure	-0.004174816374065381
Vietnam	-0.004173689031423857
drug	-0.004171225758647877
concerns	-0.004170938853422584
November	-0.004164722981485074
St.	-0.0041620031270258265
remaining	-0.004148903862242283
explain	-0.004148331945680621
abroad	-0.00414687891824652
East	-0.0041426000881876965
pound	-0.004142531938618481
President-	-0.004141459659311905
fear	-0.004139717829201635
delay	-0.004134823230007346
enable	-0.00412845900560951
unable	-0.004126349637165774
fall	-0.004109995034149768
sides	-0.004109504615800952
British	-0.004108110644526001
influence	-0.0041045423737648455
estimates	-0.004104284551288784
Today	-0.004100052152702073
stands	-0.004099807837184818
wage	-0.00409643265753653
consumer	-0.004095587315935648
putting	-0.004090656913582162
recognition	-0.004087472715232461
bringing	-0.004085247884740971
completed	-0.004074695772138009
intend	-0.004072136233344775
liberty	-0.004070439618019013
heretofore	-0.004070318148668438
event	-0.004070035638901654
considering	-0.0040662485960704904
oppose	-0.004066168142299986
Britain	-0.004061534160123708
intention	-0.004054679759902194
followed	-0.004053141283685049
considerable	-0.004052864744430083
carefully	-0.00404767241865978
impact	-0.004044304022831048
educational	-0.0040414473974448644
ship	-0.0040395073123547605
attack	-0.004039208693630258
forced	-0.004031853518504542
continuing	-0.004024842800950742
failure	-0.004018122698515199
happy	-0.004007371695806362
transfer	-0.00400387680168272
ways	-0.004000803528142685
test	-0.0040000266660408955
lack	-0.003996331581531797
pointed	-0.00399282111347695
expended	-0.003989004936461873
J.	-0.003988084835973094
markets	-0.003982952487318064
committed	-0.0039821756388594
largely	-0.003970433137366723
arms	-0.003968157879318128
offices	-0.003958692721219714
applied	-0.00395373216183723
trouble	-0.003947892964633967
brief	-0.003943749603336758
regarding	-0.003943217448337814
vast	-0.003941387964228319
recommendation	-0.003933435414483765
cover	-0.003931271992976726
judicial	-0.003925086195704433
declared	-0.003911871887778168
obligation	-0.003911850473907655
retirement	-0.003906599287308888
strongly	-0.0039054875828519664
likely	-0.003902418985103533
repeal	-0.0039008198408723937
judges	-0.0038998086078825857
encourage	-0.0038969771317583527
cuts	-0.0038951724174907196
savings	-0.0038933878557237326
kept	-0.0038922220167672285
practical	-0.003885896203617963
sought	-0.0038810678745741104
recommendations	-0.0038804815159339608
France	-0.0038792031915272814
Second	-0.0038779492587985584
profit	-0.0038693293576124695
constituents	-0.0038683278711656773
Every	-0.0038657992781794444
Civil	-0.0038649977886334647
below	-0.00386322747532401
relations	-0.003861506391618536
heart	-0.0038556636586290255
contrary	-0.00385131163311891
Rules	-0.003843009980540937
front	-0.0038410838236046115
looking	-0.00384029238018459
existence	-0.0038394718574418034
extension	-0.0038341184576631154
chief	-0.0038331919607959824
Services	-0.0038328060426209144
businesses	-0.0038262059795506854
receiving	-0.0038254134745598907
establishment	-0.0038244667276910835
operating	-0.0038240759213758724
accepted	-0.00382315581406239
status	-0.0038226381773997366
lose	-0.0038222665509483602
largest	-0.003816551871752385
Commissioner	-0.003816411409397525
Reserve	-0.003816095246260343
greatly	-0.0038103769947650007
danger	-0.0038086192838476755
occurred	-0.003804947505388088
access	-0.003801034963196609
junior	-0.003794373227085056
wise	-0.003790955587303643
hundreds	-0.003790374743160505
Such	-0.0037902090601136555
systems	-0.003786672172985382
strength	-0.003785571178997962
San	-0.0037823774998334034
criminal	-0.0037807745070632115
roads	-0.003773054337516682
papers	-0.0037659845170026044
response	-0.0037658221850729204
published	-0.0037565152738486896
valuable	-0.0037536780603201524
enactment	-0.0037531067872870394
expected	-0.003748791672942916
becomes	-0.0037446842486634764
Hampshire	-0.003744150363938518
actions	-0.003738023961909364
bear	-0.0037374371474307292
Governor	-0.00373590271719943
Social	-0.0037338979832320495
covered	-0.0037316963014249107
equally	-0.003726587234279171
adjourn	-0.0037241490880365736
International	-0.0037224167436972176
Claims	-0.0037200696971987964
waste	-0.003719941330619484
affect	-0.003718414591232014
Party	-0.003718114596070513
holding	-0.003716793079328633
Nevada	-0.003709288909130124
producers	-0.0037081198483148686
contributions	-0.003707091960448602
17	-0.0037056143209752254
Monday	-0.0037038122125135978
Congressional	-0.0036976477603287766
excess	-0.003686277690618732
Military	-0.0036861287443821786
principal	-0.003685912947821877
examination	-0.00368156454307157
D.	-0.0036786344688830557
Corporation	-0.0036758070969917867
tribute	-0.0036658216654573117
organized	-0.0036642758080354123
affected	-0.0036613887110418116
decide	-0.0036602400392222764
districts	-0.00366011744868789
consumers	-0.0036531431599158906
showing	-0.0036527373508394904
gets	-0.0036504330020694455
house	-0.0036449255469332155
books	-0.0036422277197238357
violation	-0.003640041604308617
currency	-0.0036383395917700644
exists	-0.0036358204322773867
resolutions	-0.0036332863001382557
source	-0.0036315145735282945
numbers	-0.0036296623681576915
ahead	-0.0036277851994358096
standing	-0.003627559669781057
announce	-0.003627040973243028
operate	-0.0036232835491343527
white	-0.0036232087303405876
Mrs.	-0.0036226203065316616
regulation	-0.0036168820711678447
Council	-0.003614541021490137
tremendous	-0.0036138319341673486
nomination	-0.0036022140155391813
space	-0.003599673284593314
supposed	-0.003599343761659243
imposed	-0.0035979452992483804
battle	-0.0035969505418590145
letters	-0.0035965892408524056
division	-0.003594085945228695
seeking	-0.0035939391038857954
Company	-0.003592692648765175
explanation	-0.0035857547920610535
Russia	-0.003577567725183375
difficulty	-0.0035771252211941546
contribution	-0.0035723724112153047
located	-0.0035679652383204786
granting	-0.0035672915368928503
mere	-0.00356648198313964
cooperation	-0.003566144687144257
crisis	-0.0035649149830689806
Medicare	-0.003561429626169184
Joint	-0.003560635271635577
manufacturers	-0.0035591994204525923
Interstate	-0.003543085763933693
believed	-0.0035425398345336604
Are	-0.003541209929151287
destroy	-0.003540811907300428
steel	-0.0035393776231413057
0	-0.003532084933159343
police	-0.0035294133545804855
advance	-0.0035284547106802424
democracy	-0.003527166311167808
town	-0.003526308725910628
instances	-0.0035219409082119244
grants	-0.0035209899754929928
net	-0.0035177153583169944
led	-0.003514156814953123
started	-0.0035123886282285846
highly	-0.003509175516207101
afternoon	-0.0035090277513272986
canal	-0.0035029060279330154
careful	-0.00350242806445184
departments	-0.0035011940996755872
demands	-0.003499055213930547
calendar	-0.003497413250228222
Would	-0.003495921650686727
discretion	-0.0034950283824685094
Veterans	-0.003483254111675133
intent	-0.003483163374218369
obligations	-0.003478261890536439
materials	-0.0034724079534618054
obtained	-0.0034710391743472627
divided	-0.003467510278412082
yielding	-0.003466743860434846
Canada	-0.003463263498416754
admit	-0.003459896947456677
technical	-0.0034559237111003198
clerks	-0.0034533725105811448
represents	-0.003448714547912213
coast	-0.0034469625087065947
repeat	-0.0034456737252440838
denied	-0.0034436615194671305
thinks	-0.0034433918937217447
bipartisan	-0.0034408845587497977
petition	-0.0034379603219367324
reconsider	-0.0034372654884221674
base	-0.0034358062053781017
inflation	-0.003432922312623973
race	-0.0034322279271880533
Japan	-0.0034273768387597095
soldier	-0.0034271601805475407
ones	-0.0034197049584026385
profits	-0.0034141417793100014
familiar	-0.0034112692492067236
appointment	-0.0034110125849228885
sales	-0.0034104220941830795
assure	-0.0034092208952119602
closed	-0.0034080615694059785
theory	-0.0034030801295664493
hereby	-0.003399493321674762
aisle	-0.003397077160365194
Who	-0.003394144105166431
compelled	-0.0033935722071279342
paired	-0.0033927364154130884
length	-0.003392634844942305
fighting	-0.0033889513212010816
authorities	-0.003386349588516352
notes	-0.003383661526391779
disposed	-0.0033817732729583883
21	-0.0033778796404098158
agreements	-0.0033763754999022746
Ways	-0.003375429544433731
Means	-0.003372428546761862
God	-0.0033628763471338333
somewhat	-0.0033614278109077894
independence	-0.00336012353865181
potential	-0.0033541486322817286
Wyoming	-0.0033532219932660553
deny	-0.003352361776192587
George	-0.0033455132037177983
records	-0.003344323357172402
exceed	-0.00334423100311614
trial	-0.003338409572356962
Delaware	-0.0033364338429342968
includes	-0.003335978567919512
Energy	-0.0033344708466452595
fit	-0.003333717522798957
completely	-0.0033329280288808077
School	-0.003331819216915097
story	-0.003330456710492724
accordance	-0.003330066377854088
conflict	-0.0033290217969876535
risk	-0.0033276329185748304
Representative	-0.0033234874137732786
relation	-0.00332241520085791
refused	-0.003321222433591335
24	-0.003320858607899499
tons	-0.0033204188944127018
E.	-0.003318755012941528
distribution	-0.003318134551404357
room	-0.003316779044126666
admitted	-0.0033130168661861517
territory	-0.0033088289363660925
revenues	-0.003308531843903489
addressed	-0.0033032278582138318
calls	-0.003301225149045912
threat	-0.0032997024736515874
politics	-0.0032982509677067615
safe	-0.0032978072752010285
contains	-0.0032977965168365943
sometimes	-0.0032949124172125415
career	-0.0032897682806678624
technology	-0.0032871312009912597
turned	-0.003283909465487087
Attorney	-0.003282971118501738
methods	-0.003277927986926812
administrative	-0.0032768656295432616
specifically	-0.003276563022587926
hears	-0.0032764205628319667
serving	-0.003274529936109112
acted	-0.0032742547605707616
gentlewoman	-0.0032735115467353013
t	-0.003271629520928325
commodities	-0.0032693676921022063
fundamental	-0.003269315365675671
Rhode	-0.0032685719741769826
Cuba	-0.0032668017741558746
Armed	-0.0032656084224251545
yes	-0.0032645255936368483
dangerous	-0.003264375560573303
mistake	-0.003261865344132328
everybody	-0.0032612407905051734
Even	-0.003255777726063873
satisfied	-0.0032535975702930662
truly	-0.0032511560041739874
piece	-0.0032492641353595616
settlement	-0.0032488348763895546
wishes	-0.003242202636822274
ensure	-0.0032416932973131445
accomplish	-0.0032416401824749115
hospital	-0.00324044938814753
neither	-0.003237581888298283
institution	-0.0032368039793567063
caused	-0.0032354629573061095
Mr	-0.0032350168278695293
seven	-0.0032333431081400096
calling	-0.0032291033053799055
William	-0.0032272817296427033
imports	-0.0032263983931708367
prosperity	-0.0032245960220388687
representative	-0.003223715340348924
running	-0.0032203672016619307
pleasure	-0.0032188493002616976
Relations	-0.00321853860687484
Iraq	-0.0032153063798957865
named	-0.003213386530794279
ordinary	-0.0032125148741838495
solution	-0.003209614077923543
levels	-0.0032072245901820285
plants	-0.0032070712312160265
onehalf	-0.0032043926305481128
reservation	-0.0032031152229492306
Houses	-0.0032004624622281558
represented	-0.0031999333519603878
eight	-0.00319560555203996
voice	-0.0031955505595649037
supplies	-0.003194474702717548
remains	-0.003194414369230793
veto	-0.0031898265717536104
broad	-0.0031871153949073108
concluded	-0.0031858811574828885
mine	-0.0031816517439220175
college	-0.003177148054032444
leading	-0.003171922922610284
authorizing	-0.003171358808749121
moved	-0.003162750254914701
Congressman	-0.00315818799096549
exception	-0.0031540104314439275
desired	-0.0031531630423389874
22	-0.0031486916926406817
century	-0.003145305409052951
filed	-0.0031441785746763387
protected	-0.00314247279984447
reply	-0.0031303536094220165
maintenance	-0.0031289168545550025
copy	-0.003128033105688806
manufacture	-0.003127772371798661
limits	-0.003122029500338814
recess	-0.003113073262425262
learned	-0.0031101744443981817
exchange	-0.0030977920672080788
discrimination	-0.0030975281314643806
discharge	-0.003095747064932709
disease	-0.003093820674436799
fix	-0.0030905602706004245
seat	-0.0030873423048229545
inquire	-0.0030842124733942147
rejected	-0.0030816479541223647
wrote	-0.0030811113488623866
union	-0.003080600463007381
everyone	-0.003078957539202639
honorable	-0.003076690299661614
determination	-0.003072422415306858
twice	-0.0030687858753216746
delivered	-0.003067265448198224
region	-0.003064014712314524
undertake	-0.0030638383529759078
Force	-0.003061636114468573
wealth	-0.0030569959617580606
enterprise	-0.0030560259813176166
Americas	-0.0030535282777137663
prove	-0.0030501783788762496
answered	-0.0030487559372442577
Western	-0.003047752265564825
convention	-0.0030457323623412197
attitude	-0.0030421938815865224
19	-0.0030409616389405433
activity	-0.0030386628141117035
interesting	-0.003036437120590257
tobacco	-0.0030313061406185868
Director	-0.0030257352653431024
Guard	-0.0030255664947506514
avoid	-0.0030237911757252114
peoples	-0.003023782579985841
wife	-0.003023441018495836
proposals	-0.003022152283679897
pair	-0.0030185223494566607
elections	-0.0030170937074703824
merits	-0.00301475451629144
pounds	-0.0030141737429348193
000	-0.003012798301210144
continues	-0.0030125084637674586
machinery	-0.0030102394797931545
democratic	-0.0030072247930263336
orders	-0.003006830533716985
Section	-0.0030029188543073218
choice	-0.003002702916044263
improvements	-0.003002466001635081
eliminate	-0.0030023827796632364
compromise	-0.002996187586299808
returned	-0.002996162990033601
agents	-0.002991733798585428
10.000	-0.0029912674784075433
Their	-0.002989518659179244
unfair	-0.002989278663589961
steps	-0.002987465585074514
Although	-0.0029837503712672243
Law	-0.0029834726966079853
consume	-0.00298260412153865
employee	-0.0029825649614946834
lieu	-0.0029824931625378405
main	-0.0029792360831402743
text	-0.0029769526334018797
quote	-0.0029762527997689377
b	-0.002972530421535189
percentage	-0.0029674909547494086
related	-0.0029657235500506426
newspaper	-0.0029591284138576943
conducted	-0.00295900943344887
200	-0.002957793259406894
Journal	-0.0029573030257811473
enormous	-0.0029568083962051715
temporary	-0.0029550652352415834
parents	-0.0029545726164404216
i	-0.002939020076665448
substantially	-0.0029371786591434164
comprehensive	-0.0029336905643286178
feeling	-0.0029333601496953116
criticism	-0.0029333385403744936
army	-0.0029294427131355623
500	-0.0029278270793429567
Before	-0.0029258281777269964
export	-0.002921781891165503
opportunities	-0.0029148080773929805
thereby	-0.0029131403368718163
newspapers	-0.0029111511233237317
witnesses	-0.002910603499324651
striking	-0.0029058140405477054
originally	-0.0029035920052800576
owned	-0.0028996842357095006
Chinese	-0.0028976724325808435
supporting	-0.002897306736680843
Program	-0.002896492815517305
accomplished	-0.0028952227460226436
top	-0.0028936797113747826
introduce	-0.002893243929912655
recognizes	-0.0028930808307518065
wonder	-0.0028924441231093297
document	-0.0028906492850380044
inserted	-0.002890223606276106
acting	-0.00288764944772787
maximum	-0.002885344022898795
wait	-0.0028833560396230276
membership	-0.002879498017219949
preserve	-0.002874791963681813
interstate	-0.0028695704305276735
crop	-0.002866665388914459
primary	-0.0028607744015611263
promote	-0.002860667916143285
European	-0.0028589117917376112
numerous	-0.0028539881505551235
fire	-0.0028512061993522784
efficient	-0.002848465699290051
offering	-0.002847282570865952
perform	-0.0028453717208176623
personally	-0.0028440153038824197
Capitol	-0.00284365228858617
excellent	-0.002842506068248546
ranking	-0.0028411184036726904
90	-0.0028405361890963617
100.000	-0.002840357677956587
fellow	-0.0028398580347851576
intelligence	-0.0028364223812483453
owners	-0.002836155332281582
fraud	-0.002835187431206368
previously	-0.002833669496966769
counsel	-0.0028317568208831023
indicate	-0.002825968388437644
postal	-0.0028228584441696374
assist	-0.0028223342838251016
1.000	-0.0028217282346642216
practices	-0.002821026639397958
love	-0.002819557410660144
precedent	-0.0028187701422323326
regret	-0.002813245679370934
goal	-0.0028130749945217536
requirement	-0.0028115034886353205
tonight	-0.002805595765107036
Where	-0.0028017689234046796
raising	-0.0028003178190926033
seriously	-0.0027992458766578944
earth	-0.0027991742906251877
learn	-0.0027959878109898285
flag	-0.0027957211449497945
deep	-0.0027930790176107613
Panama	-0.002790341803042093
possession	-0.0027861943232408886
abuse	-0.0027849501996103296
somebody	-0.002784356636144381
manufacturing	-0.002783879917012867
Very	-0.002782364789845786
stood	-0.002781894402498109
boys	-0.0027810608346359026
Again	-0.00277507679676348
furnish	-0.002773162382214778
stay	-0.0027715097786473047
sources	-0.0027714604535597877
please	-0.0027701931421511314
functions	-0.0027678971856468105
evening	-0.0027662166855872694
Thus	-0.0027612272729659413
keeping	-0.0027589608353061723
Co.	-0.0027568605036245764
discussing	-0.0027567600560767097
retired	-0.002755793788734058
site	-0.002753785046629001
immigration	-0.0027525503360241606
advised	-0.002750957211108041
moving	-0.002750175155469842
Last	-0.0027500636595774878
attorney	-0.0027495745100663037
currently	-0.0027454992148376804
task	-0.0027392329711771854
examine	-0.002737435638938842
cast	-0.0027363587998941123
annually	-0.0027350831134893604
proceeding	-0.0027350806151869704
stricken	-0.002733714222663382
highway	-0.0027320463681410304
applies	-0.0027315684377472327
courage	-0.002730953157174141
planning	-0.0027308240553428594
extremely	-0.0027305443053836486
Trade	-0.002730408404689373
spoke	-0.002729031024098035
Did	-0.002728978683554884
suspend	-0.0027282277465744235
helped	-0.0027245802344737675
data	-0.002723461106825524
unnecessary	-0.002721687460264217
fuel	-0.0027190612877247586
news	-0.0027169985523819787
Central	-0.002716674853873647
possibility	-0.0027149281853121846
fail	-0.00271361282659249
occur	-0.002712142318067106
controversy	-0.0027106755391299725
Canal	-0.0027080842833753552
controlled	-0.0027054946846660826
defeat	-0.0027035327085999606
P.	-0.002696159545284761
estate	-0.0026935023386270925
disposition	-0.002693314858176775
talked	-0.00269325882122364
advanced	-0.0026907519767296133
settled	-0.002690671086648682
31	-0.0026906518559988695
James	-0.002688456685679702
introducing	-0.002687418302897356
legitimate	-0.0026872394180886936
Street	-0.002685873735002373
armed	-0.0026854939508040494
Can	-0.0026838748003949362
challenge	-0.0026818734533933406
English	-0.002681189054198064
compared	-0.00268092400017839
size	-0.002679363985223215
remove	-0.0026780425814079325
representing	-0.0026777754706048718
movement	-0.0026765155182532424
5.000	-0.0026749041619371808
violence	-0.002674420577881631
yea	-0.0026737502741693907
easy	-0.00267299829494934
perfect	-0.0026718300485141923
described	-0.0026716982029712246
alternative	-0.0026702840464552886
achieve	-0.0026675290152574837
N.	-0.002667520467162645
dedicated	-0.00266459448974385
F.	-0.00266348405934316
23	-0.002659419186944658
advice	-0.0026579709737428042
sit	-0.0026543907497165293
drawn	-0.002654161540914526
meaning	-0.002654099162901552
died	-0.00265361384283836
reducing	-0.0026533775034484337
wisdom	-0.002652722166460174
briefly	-0.002652475370035399
fought	-0.00265126356568075
bond	-0.002650570576892024
wool	-0.0026499441111867707
recommend	-0.0026482535669881853
bridge	-0.002647070967205489
moral	-0.002646380647694796
belief	-0.002646030623925208
leaving	-0.002642319981791849
pretty	-0.0026413429126921598
firm	-0.0026393017966973914
suffering	-0.0026390252345521526
absolute	-0.002637813826180013
B.	-0.002636081622685741
destruction	-0.0026357790033249982
conservation	-0.0026323973984188937
whenever	-0.002630518054787968
destroyed	-0.002629553853338138
environmental	-0.002626492614265116
removed	-0.0026261057496548904
rendered	-0.002626009335767276
anywhere	-0.0026237280738585496
corn	-0.0026236543659607127
28	-0.0026222864713511384
Islands	-0.0026219846725404534
bound	-0.002621952038931982
woman	-0.002620731435508907
1.	-0.0026169798147418722
defend	-0.002616872059013697
Bank	-0.0026165492428017897
Perhaps	-0.002616381366904572
remedy	-0.0026162945725871907
events	-0.002610755667719103
classes	-0.0026099782885695296
function	-0.0026099252392438603
taxpayer	-0.0026094631799378023
arguments	-0.0026084818967016202
daily	-0.0026069798526912745
integrity	-0.0026054051856731673
sea	-0.002603331658527271
quickly	-0.002603117037675523
positions	-0.0025982208343913733
requiring	-0.0025916970053899363
drugs	-0.0025889659622848698
religious	-0.002588918926796347
freight	-0.002587443069250793
satisfactory	-0.0025833750295261183
kinds	-0.0025817766299488787
M.	-0.0025776376633126694
plain	-0.0025769410802943945
banking	-0.0025757407387266345
survey	-0.002575355572631814
participate	-0.0025719102929862327
legislature	-0.0025689872499407543
Another	-0.002561189147308661
traffic	-0.0025562916173852306
hereafter	-0.0025542633527923437
Departments	-0.002552221376455107
witness	-0.0025521638770232753
someone	-0.002551934353805937
Israel	-0.0025514188008619607
approve	-0.0025489387984994837
thoroughly	-0.002547576136968924
aircraft	-0.0025462346631973235
waters	-0.0025455365180962956
competitive	-0.0025450149225295137
file	-0.002544972153570433
subsidy	-0.0025425619553389226
Also	-0.002541248306585393
relative	-0.0025412240680425836
package	-0.002541028706940203
favorable	-0.002540057601250681
teachers	-0.0025379366295672913
negotiations	-0.002535991817709433
doctrine	-0.002535143180199451
minds	-0.002533577598191273
promise	-0.0025299095351502808
qualified	-0.00252949504736842
proportion	-0.0025213734236592764
developing	-0.0025207267361813746
harbor	-0.002519758673529528
helping	-0.0025189871910477105
analysis	-0.0025188621730197537
unanimously	-0.002517159842165313
fairly	-0.0025158662912170386
eligible	-0.002514177493600631
Legislature	-0.002513223489102012
coverage	-0.002511560839914215
exports	-0.002510845109953425
e	-0.0025094681010827476
ad	-0.0025090995636343804
Hawaii	-0.0025077958632949795
distinction	-0.002506701824800032
flood	-0.0025061751500020913
anniversary	-0.002505579483346527
requests	-0.002505562502700634
volume	-0.0025055247467232933
meant	-0.0025046660591122585
80	-0.002502986607362857
Smith	-0.0024998669827152294
selected	-0.0024992856954925563
75	-0.0024987263431828165
Thomas	-0.002497619281858118
imported	-0.0024971741590955974
furnished	-0.00249641228013528
Naval	-0.002495581695275469
devoted	-0.0024955793287131977
maintained	-0.0024910312047615275
proceeded	-0.002489203703467564
thereto	-0.0024859630717172097
post	-0.0024856754786618455
fees	-0.00248434877422375
German	-0.0024823139994400944
bit	-0.0024820497632092233
restore	-0.002480105683422179
illegal	-0.002479015286379123
book	-0.0024758806420189065
penalty	-0.0024738369462158414
spoken	-0.00247349763425646
scientific	-0.002473483109812177
Times	-0.002472380131945625
schedule	-0.002471633836168116
35	-0.002471430170443554
apparently	-0.00246986106134331
believes	-0.002469607690550283
constructed	-0.00246360309876869
carriers	-0.002463513155440977
pages	-0.0024632068456387143
ending	-0.002463151536342373
convinced	-0.0024609715283111463
experts	-0.0024603707388312305
efficiency	-0.002459122847831703
station	-0.0024557513175616605
born	-0.0024556941931733814
27	-0.002454648653241078
travel	-0.002454045510884998
26	-0.0024529458782847563
regulate	-0.002449928725382548
student	-0.0024492017910843237
selling	-0.0024488349946784633
jury	-0.00244854321738154
communication	-0.002448538185369011
Has	-0.00244808665540997
agent	-0.0024476845445783667
association	-0.002447365105672592
responsibilities	-0.0024471433668552646
proof	-0.0024448663594172962
soil	-0.0024441562506165313
rich	-0.0024431807493032164
therein	-0.0024428370429061584
comments	-0.0024422822250578036
balanced	-0.0024408225584052297
concur	-0.0024407652265957085
favorably	-0.0024398911786994368
Philippine	-0.002438117099197374
claimed	-0.0024379798933516672
creating	-0.0024370370310657944
happens	-0.0024361998228965183
cattle	-0.0024272130106033946
refers	-0.002426418934391096
remainder	-0.002424285795420275
Most	-0.002421592672199022
2.	-0.002419866400374655
modern	-0.002419180908199863
connected	-0.002417971487862773
treated	-0.002416208980432211
offers	-0.0024150914953357115
seemed	-0.0024104950997304916
justified	-0.002408602250049675
usual	-0.0024037780386956596
write	-0.0024037280265065083
dependent	-0.0024036929846363306
demonstrated	-0.0024022053578423024
play	-0.002402121881093194
range	-0.0024009127899619247
Finally	-0.002400361941617452
cash	-0.0024000491453016596
L.	-0.002399125464462997
Valley	-0.002399021745800383
impose	-0.0023980665366186505
extraordinary	-0.002397124330930326
o	-0.002396640713506307
effects	-0.0023961265563033447
regardless	-0.002395802348037471
saving	-0.002392536085458608
accounts	-0.0023922779723011944
statistics	-0.00238938560520655
detail	-0.002388683864118917
allowing	-0.0023883541210208787
demanded	-0.002387366740352663
Southern	-0.0023868754787138647
administrations	-0.002385981803557459
improved	-0.0023856537187435314
nay	-0.0023847817528338225
Q	-0.0023847807294993797
normal	-0.0023842246975323586
performance	-0.002384010485895127
damage	-0.0023831806012823567
positive	-0.0023819054826959337
reads	-0.00238121659391608
participation	-0.002378675958673732
governor	-0.002378479292104011
modified	-0.002376549365421742
killed	-0.0023764712716188145
refuse	-0.002375540131243511
worthy	-0.0023738560719992093
looked	-0.002373838872838192
Center	-0.0023733584093008197
disaster	-0.002369048726157235
coin	-0.0023670352415166946
structure	-0.0023649327975673413
Unfortunately	-0.002363015593216512
governmental	-0.0023565831945109995
joined	-0.0023548904316400376
investigate	-0.0023533243452954927
presence	-0.0023525920239062374
sustained	-0.0023493345614611838
printing	-0.002347467944602788
bureau	-0.002345540341594313
vessel	-0.0023426472990678094
thinking	-0.0023425689629062415
assistant	-0.0023422084530702945
science	-0.0023420834699445676
treaties	-0.0023393231225352757
error	-0.0023390488344624183
farms	-0.002336792910416888
resolve	-0.002335654136371357
limitations	-0.0023346001856191794
lawyer	-0.002333339264281311
Atlantic	-0.0023328259029422923
timber	-0.0023317120042862936
attempted	-0.0023307246074635093
Johnson	-0.002330078582766709
justify	-0.002327899225797483
mention	-0.002326279539678972
draw	-0.002323645268774
declaration	-0.0023207517365336824
revise	-0.0023204275064094984
civilian	-0.002318631899407847
grain	-0.0023180657580874693
extra	-0.002314650131755172
environment	-0.0023140296200601074
comment	-0.002313435034520773
grow	-0.0023129256512480303
protest	-0.002312898295197854
Democrat	-0.002312401243462172
rapidly	-0.002309043872488026
Day	-0.0023090403848059615
deficiency	-0.002306938697727354
expression	-0.0023042819327598846
grade	-0.0023026684500137605
namely	-0.0023011683539168894
controls	-0.0022998701428903843
pressure	-0.002299674188213846
street	-0.0022993366971206077
count	-0.0022981666218675786
examined	-0.002294698436825162
physical	-0.0022943966151336833
exact	-0.0022938026605131526
Third	-0.0022932158836145716
relationship	-0.00229087631699646
permission	-0.0022880077977255517
heavy	-0.002287472325947592
ruling	-0.0022871501395799534
pensions	-0.0022865207351614497
confirmed	-0.002286386922676556
enforce	-0.0022844693452447485
Japanese	-0.002284095886153781
Friday	-0.002284038095370563
director	-0.002283089410934362
hospitals	-0.0022815058102153953
southern	-0.002280269401393505
worse	-0.002279735186550446
apparent	-0.002279599815467074
effectively	-0.0022792891406611475
deeply	-0.0022758775340453257
involving	-0.002275630141429882
prohibition	-0.0022733368159696637
picture	-0.00227244861596267
Business	-0.0022712711737115244
interfere	-0.002271245203475852
consistent	-0.0022672066259889372
collected	-0.0022671825470654454
impression	-0.002266874500756382
gross	-0.002266350575154097
struggle	-0.00226412341289833
performed	-0.0022633883690709455
Park	-0.0022633534406849413
Provided	-0.002263024184348688
choose	-0.0022594480671512527
summer	-0.0022582449793225367
suit	-0.0022582290532120295
guarantee	-0.0022561471128109143
constitution	-0.002255481427063614
capable	-0.0022542851566768004
enemy	-0.0022538908634769494
youth	-0.002252822475151452
pays	-0.00225266916410639
counties	-0.002252508423973342
Railroad	-0.0022512916137582073
twenty	-0.002250067901460682
Instead	-0.002245211401528488
grown	-0.0022426691452545437
wide	-0.0022410188025705252
producing	-0.002240700022114069
protecting	-0.0022400701079039386
mining	-0.002238424123709294
elsewhere	-0.002237596305318851
restrictions	-0.0022375313862100193
creation	-0.002237409714818522
obvious	-0.0022364179717408606
precisely	-0.002235910297286826
procedures	-0.002235559907302637
appoint	-0.0022355502968853455
desirable	-0.002234299706203151
sympathy	-0.0022342509540253827
break	-0.002232528692304622
securities	-0.002231608258375596
engineers	-0.0022296679484707684
unfortunate	-0.002229624683153679
contribute	-0.0022294357187709057
hardly	-0.0022287850629730123
finance	-0.0022284908105200244
Only	-0.0022284649754510575
black	-0.0022254254291779146
urged	-0.0022249631401786325
Res	-0.002223025660896063
units	-0.0022223180493064067
testified	-0.002221032024047539
foundation	-0.0022199887692423287
withhold	-0.00221984200048562
center	-0.0022196301839336584
causes	-0.002218544552006189
false	-0.0022177378922014113
frequently	-0.002217489074752407
overall	-0.002216984429598805
lived	-0.0022157866996731163
Philadelphia	-0.002215780229571557
returns	-0.0022134990727142767
seeks	-0.0022131175193120956
Co..	-0.0022117723545350292
disagreement	-0.0022109660499098653
Marine	-0.002207696593076295
candidate	-0.0022069823086349845
differences	-0.002205898876278801
values	-0.00220578225414404
professional	-0.002205652013875043
expansion	-0.002202303536772688
circulation	-0.002201772147593457
billions	-0.0022011339736129603
wholly	-0.002200868464379671
quarter	-0.0022005682070739383
guilty	-0.00220008221473277
withdrawn	-0.0021995088190533097
respond	-0.002198831103118651
substance	-0.002196839521968616
series	-0.002195786517537209
finding	-0.0021955735131656898
draft	-0.0021952873723233707
losses	-0.00219493058187832
noted	-0.002193988089905247
port	-0.0021920580841940512
memory	-0.002191108562713248
command	-0.002185268682524041
writing	-0.0021788265436298755
mass	-0.002176381750542081
Any	-0.0021762381553576955
poverty	-0.002174198006534997
privileged	-0.0021738053178923856
According	-0.002172307877326029
50.000	-0.0021706452170360225
disabled	-0.0021683712620538674
iron	-0.0021665579988453133
forget	-0.0021655197673821065
arrangement	-0.0021649532687156264
resulted	-0.002160149203326141
documents	-0.002159677062413909
Development	-0.002155747221612303
lawyers	-0.0021555152331295697
uses	-0.002155396426254358
ill	-0.002155281058783603
mistaken	-0.002152788899958788
gain	-0.002152096871365206
fields	-0.0021520315322485096
authorizes	-0.0021491193463086117
easily	-0.002147512229748632
notwithstanding	-0.0021468876518184704
cars	-0.002146643129997253
insure	-0.0021428837061927167
knowing	-0.0021425590692815467
closing	-0.0021390803786646246
proviso	-0.002138428468021898
Bush	-0.002137605225933227
Territories	-0.0021374434814021973
Assistant	-0.002136131568661441
father	-0.0021337013342933274
check	-0.0021324117870904083
decline	-0.002130990296648633
defeated	-0.002130048402460899
Pensions	-0.002129506999106776
guns	-0.0021279684466067013
reserving	-0.0021253953686666215
copies	-0.002125186340040486
dead	-0.002125135920976329
leaves	-0.002123612801552057
70	-0.0021232861792246736
300	-0.0021211428353467535
purchased	-0.002120294810814659
ports	-0.0021198545383892017
commissioners	-0.002119274077377923
generation	-0.0021191094635942373
key	-0.0021159770714020976
establishing	-0.0021156823507480806
objections	-0.002114254515168145
twothirds	-0.0021131047401589517
understands	-0.0021107974424188795
employers	-0.0021090047107606394
Was	-0.002105106719987926
maybe	-0.002104022169614983
certificates	-0.002103138657243104
enact	-0.002102946713505591
radio	-0.0021005570463209387
merchant	-0.0021004929796334263
Vice	-0.0021004648504253953
powerful	-0.002098608083377529
Boston	-0.0020957808752151935
statutes	-0.0020948955658081072
sentiment	-0.0020948144718498894
victims	-0.0020926541906064592
bankruptcy	-0.002090828311463673
Tuesday	-0.0020894915177706035
useful	-0.0020891265956471876
priority	-0.0020883961681936623
anxious	-0.002086014714024438
uniform	-0.0020842024582039343
couple	-0.002083829728948762
suffered	-0.0020836079880771027
interpretation	-0.0020820203864128127
extending	-0.002081128630625094
Louis	-0.002080788548864981
correctly	-0.0020807732768317595
sector	-0.0020796638030945503
studies	-0.0020777813852609957
disability	-0.002077733831326818
financing	-0.002077715405864058
manufactured	-0.0020774016952912915
sending	-0.002076767920208766
nobody	-0.0020739375072997613
attempting	-0.002073034687812789
reserves	-0.0020701497437345577
centers	-0.0020676446448309694
objective	-0.002067268793735145
afraid	-0.0020648863867814044
Rights	-0.002062664620192625
congratulate	-0.0020621245939444234
relates	-0.00206189861258227
route	-0.002061368075276937
liability	-0.002058532860268529
discharged	-0.0020583889421709033
rose	-0.0020583409310560483
Administrator	-0.0020576592105933677
ton	-0.0020561471511295407
French	-0.0020557455295518545
prefer	-0.002055320335000358
smaller	-0.0020550727646686277
consumption	-0.0020541805778749936
Indeed	-0.0020521583036081426
Roosevelt	-0.0020514507307796814
2.000	-0.002050515379614012
mission	-0.002049949793133199
employ	-0.002049689183048181
western	-0.002046547433104631
popular	-0.002045905757522045
existed	-0.0020458104993699073
remarkable	-0.002044874643159413
ideas	-0.0020444847384116695
Two	-0.0020420285533144598
cutting	-0.002041009130369272
enjoy	-0.002038476943767296
difficulties	-0.0020377353682820053
Middle	-0.0020371427557266376
opening	-0.0020353473194860095
fairness	-0.00203510629216987
unfinished	-0.0020338105947159436
longterm	-0.0020289764449389633
compete	-0.0020272766654589685
concurrent	-0.0020267427327907883
Over	-0.0020266533039968336
historic	-0.0020261901100114693
allies	-0.0020248776734520897
becoming	-0.002024850930178975
referring	-0.002023073234602457
faced	-0.0020217386795300597
Banking	-0.002021682300094672
forest	-0.002021286354585802
voters	-0.002020218091673682
Governments	-0.0020188044425116583
designated	-0.002018371890149453
solve	-0.002017813005188336
occasions	-0.0020177932933573986
facing	-0.0020177698577176447
details	-0.0020177549589811385
double	-0.0020154850703566645
partisan	-0.002013076965576945
occupied	-0.002012011356758376
sums	-0.002011529743178848
Conference	-0.002010764183697562
border	-0.002009094984646976
delivery	-0.002006031874037171
commodity	-0.0020047077236939265
Agency	-0.002004360119736393
residents	-0.002004199741930612
Fort	-0.002003900955101591
reductions	-0.002003813734778764
setting	-0.002002692466211151
privileges	-0.0020013618180099485
won	-0.001999331699876525
liberal	-0.0019981967886368167
injury	-0.0019981312420116995
moves	-0.0019970903454465216
latter	-0.001996968143383002
contributed	-0.0019969632553883767
More	-0.0019967135581463453
ownership	-0.0019952773839613082
dedication	-0.0019949432414257512
changing	-0.001994695426559903
federal	-0.001994581493023674
fourth	-0.001994488630178892
dispute	-0.0019941959890250813
enlisted	-0.001994123433730237
recorded	-0.0019937453631798494
reserved	-0.001993564562707855
competent	-0.0019922410262987974
Wilson	-0.0019916415663889546
alleged	-0.0019910871685567713
weight	-0.0019887370744401433
29	-0.0019886153675997905
circuit	-0.001987971392724496
visit	-0.001986317586879784
employer	-0.0019849862795801
standpoint	-0.001982060210531439
applicable	-0.001980088943693492
concept	-0.0019794046623340038
fill	-0.001979259236118592
chair	-0.001978820589789111
subsequent	-0.0019773679079024883
grave	-0.0019752230576325605
navigation	-0.0019751593572904964
Rico	-0.0019726874946413508
assurance	-0.001971910160411968
grounds	-0.00196870044887894
College	-0.0019681709655955766
Saturday	-0.0019673868752645256
certificate	-0.0019670849609139804
print	-0.001966524245369076
consequences	-0.001965000910760855
Africa	-0.0019634229935682652
debts	-0.0019625855879179207
goals	-0.001962565634416113
usually	-0.0019607666225798966
milk	-0.0019603845698162948
earned	-0.001959135410457214
rank	-0.0019589833170638436
proposing	-0.001958718437444832
sentence	-0.0019584831272653155
conclude	-0.0019548448274842394
owner	-0.001954217422018621
marine	-0.0019541025704636152
objected	-0.001953631547291116
crops	-0.001952652771731857
moments	-0.0019516036397802987
expensive	-0.0019496260315092916
Wednesday	-0.0019488509652894434
pride	-0.001946472412029903
Robert	-0.0019441966789381902
expand	-0.0019441073195150295
deserve	-0.0019433256067692994
injustice	-0.0019431326710997218
ascertain	-0.0019406855251840934
nine	-0.001940145718626761
finish	-0.0019388053768781854
patriotic	-0.0019384048905856353
urban	-0.0019376720763341173
select	-0.0019369577407759061
sign	-0.001936418593981237
declare	-0.0019349633335776664
saved	-0.0019345894843564655
ultimately	-0.0019344524904763448
45	-0.001934384224614713
Whereas	-0.0019341465903022896
Lake	-0.0019327741818121343
bought	-0.001932555821136528
strategic	-0.0019313932794436696
parity	-0.0019311532915974336
affecting	-0.0019306678035709384
voluntary	-0.0019286908248070656
depend	-0.001928212436873949
subjects	-0.0019263472498852756
sorry	-0.0019257684191467178
unanimousconsent	-0.0019252136698654182
honored	-0.001923865912148534
undoubtedly	-0.001923413745750429
-the	-0.001923239656868324
secured	-0.0019227922438870594
speeches	-0.001920501882141301
Bill	-0.001918939550984214
contemplated	-0.0019155546105946333
car	-0.0019141306947311576
constantly	-0.0019131536208855924
fee	-0.0019115274356299372
dispose	-0.0019111449323838475
rivers	-0.0019102480108060713
central	-0.0019091881811692502
definition	-0.001908301443458248
import	-0.001905835417924514
assumed	-0.0019042349826506795
Mexican	-0.0019040008986967434
presume	-0.0019029434165670983
ours	-0.0019028517223299323
facility	-0.0019026514219000483
streets	-0.0019019709229079892
Francisco	-0.0019006267092481059
Coast	-0.0019005526885171589
suffer	-0.0019002519763542515
reality	-0.0018979955236992766
exemption	-0.0018961215996025694
mother	-0.0018954797108823138
engage	-0.0018951559635101637
yielded	-0.0018948735088249243
census	-0.001893938036779034
excuse	-0.0018935148400694175
manufacturer	-0.0018932544347639339
formula	-0.0018930460640763792
reporting	-0.0018918731295465689
supplemental	-0.0018916943651000684
assigned	-0.0018916702294472947
combat	-0.0018910075246608125
shipping	-0.0018882142710751084
adding	-0.001888122790512535
closely	-0.0018876481376785494
relieve	-0.0018875892623675717
despite	-0.0018869860080660392
waiting	-0.0018869378218929714
attend	-0.0018839364992429253
allows	-0.001883394885109266
attorneys	-0.001883350912059204
prohibit	-0.001882186611332063
maintaining	-0.0018817488683947386
constitute	-0.0018811928122081064
award	-0.001880949478244099
remind	-0.0018807268265535438
monopoly	-0.001880722927215465
disagree	-0.001879218831596854
inserting	-0.0018789078006826155
raw	-0.0018780498751279808
recovery	-0.0018770542226836952
retain	-0.0018754885122836487
showed	-0.0018742269433186885
Transportation	-0.0018731130181059322
Russian	-0.001873005902325503
patent	-0.0018718659316604735
virtually	-0.0018712510221344906
listen	-0.0018678360066493077
platform	-0.0018677402978136317
blood	-0.0018671162920029436
door	-0.0018664346983006716
mortgage	-0.001865945968864386
feed	-0.0018653736898256747
clean	-0.001865220640441204
reflect	-0.001863092749163484
mines	-0.0018613881669415186
scope	-0.0018608487636799407
arrived	-0.001860574101953249
islands	-0.0018596682562615429
wonderful	-0.0018589439969171435
carrier	-0.0018569969520524667
nominations	-0.0018565498307303156
definite	-0.0018564847300238994
stating	-0.0018550449129751544
advocate	-0.0018526900479431312
extensive	-0.0018503688991436595
B	-0.0018503570018317068
Into	-0.0018479651498893436
dairy	-0.001847065680511874
son	-0.0018430727756032206
Furthermore	-0.0018430390404416
brings	-0.0018429475497141951
earnings	-0.0018394061957643444
arise	-0.0018387234007104113
Each	-0.0018379994036739939
fell	-0.0018374822908444092
Suppose	-0.0018371042900140557
Korea	-0.0018365431901857549
branches	-0.0018364193586991478
respective	-0.0018345240101793668
assets	-0.0018337729729778118
drive	-0.0018329852539761206
win	-0.0018320709986724248
occupy	-0.0018308565718377391
ample	-0.0018306043387397843
prejudice	-0.0018301056440370978
delegation	-0.0018267381606904853
citizenship	-0.0018264930832592086
forms	-0.0018262184985935778
3.	-0.0018261802396540724
feature	-0.0018256144802215174
argue	-0.0018246919850579447
engrossed	-0.0018239430035430601
stations	-0.0018234642392676026
oath	-0.001821762036353454
Thursday	-0.0018193999864086748
fault	-0.001819041389943018
primarily	-0.0018180696127573011
unemployed	-0.0018177408447026242
Code	-0.0018173226313783848
associated	-0.001816392231166783
features	-0.0018156186362663007
unit	-0.0018155043433415539
severe	-0.0018136516043320528
managers	-0.0018131815545044466
civilization	-0.0018114061753504724
Charles	-0.0018098978615069304
pursuant	-0.0018098406101312414
admission	-0.0018092821168808552
rent	-0.0018078986733336454
gun	-0.0018059193809282289
park	-0.0018045045820292965
assured	-0.001803603363149661
middle	-0.001802970878464543
regarded	-0.001802560980805834
unique	-0.0018005925956225172
secret	-0.001799384882436189
allowance	-0.0017984283750074573
colored	-0.0017981230493824224
quoted	-0.0017978035747496547
strikes	-0.0017974711573551995
involves	-0.00179701910600429
consequence	-0.0017938899183880842
producer	-0.0017938166596314714
acquired	-0.0017937202627919808
holds	-0.0017915612173193176
Power	-0.0017915590933998326
puts	-0.001790182720627261
opened	-0.0017889189872186233
evil	-0.0017886277089067606
Both	-0.001786861634961941
author	-0.0017867589406550559
houses	-0.0017860140467192236
T.	-0.0017853756766189612
operated	-0.001784981202420037
receipts	-0.0017824789073367167
filled	-0.0017805979703443531
frankly	-0.0017805594687779365
chosen	-0.001780341172727908
identical	-0.0017798374737725145
accurate	-0.001779202880872065
marked	-0.0017784537994904725
Agricultural	-0.0017759074828426825
communism	-0.001774808544584408
SEC	-0.0017721300362841114
Reagan	-0.0017719708297559613
west	-0.0017716283074789673
Institute	-0.0017700787721113204
listened	-0.0017695490369372521
decade	-0.0017676809436423867
Presidential	-0.0017672434285641518
Asia	-0.0017666298434339525
recommit	-0.00176661455197975
numbered	-0.0017660287800702055
huge	-0.001765594937049894
acre	-0.0017639959784226317
equity	-0.0017639823467847729
deposits	-0.0017633324649671549
c	-0.0017621107572718504
transaction	-0.00176190673622107
crimes	-0.0017618165312251219
Red	-0.0017591693973199654
Canadian	-0.0017590060979079851
totally	-0.0017587128301870263
church	-0.0017571124809448808
release	-0.0017557957571351865
Spain	-0.0017552298344425499
buying	-0.0017538058539966887
investigations	-0.0017536271634864963
lease	-0.0017533490496020217
strengthen	-0.0017528769166610554
flow	-0.0017498419020228872
older	-0.001748417441611944
conviction	-0.001748263017913034
incorporated	-0.001747228108742452
Control	-0.001747044644994816
Philippines	-0.0017462997469555523
square	-0.0017457320997055924
pardon	-0.0017449514931753467
observation	-0.0017436846652666633
Engineers	-0.0017430249671968557
eliminated	-0.0017424163457253252
carries	-0.0017422560857139942
lies	-0.0017405753451909464
purchasing	-0.0017404479996725832
reservations	-0.0017398934940104937
internal	-0.0017398849849038758
prepare	-0.0017392957670418713
corporate	-0.0017386560327993124
sacrifice	-0.0017370766889541244
exercised	-0.001737074934220243
fish	-0.001736747579511477
representation	-0.0017360488834171693
wherever	-0.0017350879461433882
spread	-0.0017350517432919465
solely	-0.0017344857968671955
settle	-0.0017336877833762777
thirty	-0.0017336425154265737
memorial	-0.0017323985337509833
worlds	-0.0017321133137583535
finished	-0.0017318363828414272
presently	-0.0017307845141575674
secretary	-0.0017289097156112517
obviously	-0.0017284659266884473
beg	-0.0017280753483360828
television	-0.0017255479068021928
thereon	-0.0017253735897116076
appreciation	-0.001723658100892602
Whether	-0.0017220946181257673
proved	-0.0017195587112857293
complaint	-0.0017182706474507202
sitting	-0.0017176136366616268
3.000	-0.0017171820209530215
successfully	-0.0017165454272544693
transferred	-0.001715295950394693
initiative	-0.0017141700942893466
ultimate	-0.0017135882454527328
deemed	-0.0017134610097744426
passes	-0.001712810278017075
Farm	-0.0017121728393603678
interrupt	-0.0017119620789033615
Communists	-0.001711171556852969
victory	-0.0017104778615682306
proceeds	-0.0017093077056691108
temporarily	-0.0017089060148024631
train	-0.0017087053182457239
scheme	-0.0017081192505551729
involve	-0.0017054589463844359
Revenue	-0.0017038472897235
inspection	-0.0017024702793023005
finds	-0.0017018490688550836
intelligent	-0.0017015047262964283
prescribed	-0.0017014240162089112
India	-0.0017003835850097923
cant	-0.0016999267841906582
Hon	-0.0016987837541358644
determining	-0.001697650827959969
associations	-0.0016930690088183791
1st	-0.001692638145312282
shape	-0.0016924220334382763
Housing	-0.0016916114442217041
equitable	-0.0016897303930938621
subsidies	-0.0016867912637743758
focus	-0.0016840453994272997
contest	-0.0016827606323702017
priorities	-0.0016822457505172995
completion	-0.0016787997791453022
00	-0.0016779484183223887
entry	-0.001677768818709079
trained	-0.0016771928470865457
missile	-0.0016770646669446998
rollcall	-0.001676083311846393
somewhere	-0.0016758712433140083
complex	-0.0016748410817819172
merit	-0.0016729671945663188
composed	-0.001672796506245576
opinions	-0.0016720585791975002
objects	-0.0016707413933858691
permits	-0.0016691306057770071
contention	-0.001668936662307883
confusion	-0.00166887015745355
island	-0.001668822702382682
Speakers	-0.0016677472491878822
die	-0.0016668558109100146
handle	-0.0016667033197940535
Economic	-0.0016663755007222708
sustain	-0.0016644950554674113
Upon	-0.001663961804985677
Kennedy	-0.001663011231022397
productive	-0.00166144617407877
observe	-0.0016614126900067344
Works	-0.0016607618270925678
veteran	-0.0016605372390153552
resulting	-0.0016604382043179673
towns	-0.0016603999554915567
invested	-0.0016603958256075973
damages	-0.0016599222537761788
speaks	-0.0016587975836721254
discovered	-0.0016580495261188828
%	-0.001658042173829014
explained	-0.001657236897346376
appeals	-0.001657178456402391
elderly	-0.0016567717298212885
irrigation	-0.0016558119066321744
splendid	-0.001655321126762563
League	-0.001655150546163844
tle	-0.0016549489804755933
improving	-0.0016538701288481665
contain	-0.0016523390866399177
detailed	-0.0016497461183684618
Forces	-0.001648890968795148
cited	-0.001648052396681248
Clinton	-0.001647269822257822
illness	-0.0016470051586788016
exempt	-0.0016460267521878223
mark	-0.0016453770316163597
protective	-0.001645244068722642
Puerto	-0.0016451169600699865
a.	-0.0016444441525114214
deals	-0.0016439474947900852
overwhelming	-0.0016428062757099942
Nicaragua	-0.0016411880292893381
game	-0.0016410037281214622
dispensed	-0.0016403319644739647
construct	-0.0016381563257684036
belong	-0.001634320094581453
cooperative	-0.001634090530924814
pursue	-0.0016340130048110644
location	-0.0016337225110605463
Soviets	-0.0016334329051837842
inadequate	-0.0016315763060607098
factor	-0.0016307711946081547
Italy	-0.0016307573903590756
patients	-0.0016290349398320448
handling	-0.0016275227767276047
onethird	-0.0016265856166555175
offense	-0.0016252053816551652
heads	-0.0016251775156224195
noes	-0.0016248157799077856
sincere	-0.0016237546703032249
dam	-0.001623464056108133
stage	-0.0016228762047024187
germane	-0.0016202407162548623
wars	-0.0016194342797973956
Building	-0.001618673375101653
Academy	-0.0016176256475535255
400	-0.0016159305683809278
everywhere	-0.0016156423389929622
indicates	-0.0016155828385315105
losing	-0.0016132328170977873
railway	-0.0016122503432286436
Church	-0.001612078080470376
promised	-0.0016118636653202926
Currency	-0.0016116665320155814
d	-0.0016108435367907512
Internal	-0.001610791262377032
shortage	-0.0016105814254270645
option	-0.0016103808695830373
factors	-0.0016096022850318552
lumber	-0.0016080925638462804
en	-0.001607858694270799
observed	-0.0016076443738495632
distributed	-0.0016055656596270884
constructive	-0.001604845110808505
license	-0.001604590120417717
Los	-0.0016022010310279948
harm	-0.0016017158719299565
team	-0.0016013810937550966
philosophy	-0.0016011165034998213
equivalent	-0.0015983906234539207
bottom	-0.0015981499454392526
achieved	-0.0015978823099032872
accord	-0.0015969466544265402
deserves	-0.0015968748901385328
cancer	-0.0015961485118706484
meat	-0.0015955884205528313
combined	-0.001595227473241634
decrease	-0.0015951001764356236
element	-0.0015944869134673339
south	-0.001592737645138938
suggests	-0.00159225631887056
unusual	-0.001590007402458263
comply	-0.0015853272304379464
gasoline	-0.0015844443078778193
publication	-0.0015834100401097419
administered	-0.001582939185388306
coinage	-0.0015827787453772271
bodies	-0.0015814153674201157
thereafter	-0.0015805990641493085
aggregate	-0.0015795289315587659
forever	-0.0015795255823931396
preceding	-0.0015794941150726158
unions	-0.0015791402861579636
mental	-0.0015787637604669645
20.000	-0.001577213922062001
fast	-0.001575893333683532
owe	-0.0015757668264784169
eyes	-0.0015739990849488593
plus	-0.0015738389798669334
surely	-0.0015733813731084359
comparison	-0.0015728133575209496
struck	-0.0015726349269614497
bar	-0.0015723633700209232
meetings	-0.0015722822248333457
4.	-0.0015722129144603839
counted	-0.0015710533068377273
candidates	-0.0015709151114563526
serves	-0.0015701210294024421
Paul	-0.0015701179308439724
announcement	-0.001570107837236182
countrys	-0.001570009379792781
suggestions	-0.0015692184518478539
elements	-0.001568979102097829
equality	-0.0015680002776538645
electric	-0.0015674089914129565
generations	-0.0015649716451905018
expert	-0.0015645943339946602
modify	-0.0015641296121492716
fifteen	-0.0015627567638758775
objectives	-0.0015612669279602626
500.000	-0.0015601908971494588
remained	-0.0015594008496239806
Lincoln	-0.0015583372837824387
cheap	-0.0015582600589623863
dignity	-0.0015579067657987432
prevail	-0.0015549063018595697
legislate	-0.0015542305697953456
150	-0.0015531510849464726
collection	-0.001553003342426116
regional	-0.0015526843560259513
worker	-0.001552657517536908
Small	-0.0015522392401707288
propaganda	-0.0015487302528663363
marketing	-0.0015481263309789829
construed	-0.0015470695837644089
unjust	-0.0015456460446948638
excessive	-0.0015452483709573314
defined	-0.0015452365907701344
native	-0.0015451112798170572
stopped	-0.0015447489647877602
constant	-0.0015436290200920879
emphasize	-0.0015432637677852987
collect	-0.0015432244806529698
th	-0.001542891916824526
telling	-0.0015427911136683455
v.	-0.0015424427506937895
fifty	-0.0015420931867625497
mandatory	-0.0015420555750150925
Jones	-0.001538872005978628
Henry	-0.0015384311378136332
threatened	-0.0015377086630502898
northern	-0.0015367542385332452
compel	-0.0015363633917946419
placing	-0.001536152874400764
distance	-0.0015359826567812767
boards	-0.0015345465000723795
council	-0.0015341089420009952
firms	-0.0015331526033911488
respects	-0.001532618722005374
highways	-0.0015319847391037985
contend	-0.001531024211785282
widow	-0.0015304131733060505
G.	-0.001529654842268827
Orleans	-0.0015290803623065736
burdens	-0.0015290068903503723
unconstitutional	-0.0015280659911031174
King	-0.0015276709904571298
promptly	-0.00152739154460898
regulatory	-0.0015257865761639864
Gulf	-0.0015252452233053952
hoped	-0.0015241225272184808
incomes	-0.0015236002150557113
attempts	-0.0015235886688631309
telephone	-0.0015229325343243132
mails	-0.0015221252061059288
Gen.	-0.0015221210635632191
overseas	-0.0015217235063589268
north	-0.0015214517456956548
altogether	-0.0015205688572459371
exceeding	-0.0015202783281842264
Division	-0.0015187748548362093
demonstrate	-0.0015178523470757974
thorough	-0.0015169529799771305
mills	-0.0015167875575639715
Printing	-0.001516632558395415
urgent	-0.0015164500366795046
affects	-0.001516162643694018
System	-0.0015161599143217388
types	-0.001514039618260006
cheaper	-0.001512132898802822
receives	-0.0015121250981074389
Or	-0.0015117310725344373
sites	-0.0015115889749263138
content	-0.0015106985829633204
throw	-0.0015106076278109267
diplomatic	-0.0015105852372745286
urging	-0.0015103660264357843
dated	-0.0015093880942462542
65	-0.001509313411669979
Research	-0.001508632136393807
fixing	-0.0015085668234667863
25.000	-0.001508077868184148
removal	-0.0015071268254490079
cosponsor	-0.0015071149806423444
confined	-0.0015071109364127105
200.000	-0.0015064270383524235
treat	-0.0015060142693430736
helpful	-0.001504333815183769
todays	-0.0015036456148976394
decades	-0.0015031284577567332
repealed	-0.001502949148984443
bearing	-0.001502238368475642
boy	-0.0014997829081626868
pollution	-0.0014985291702689933
conferred	-0.0014983168750133905
rising	-0.0014970882369931043
qualifications	-0.001496375800562021
justification	-0.001494669453398304
proven	-0.0014945757056112627
conscience	-0.001493905705940776
season	-0.001493568849413208
lowest	-0.0014922089780181978
Home	-0.001492025573380598
Forest	-0.0014919448986586534
depression	-0.0014916644222658499
promotion	-0.0014913671273993061
experienced	-0.0014908079719391605
ballot	-0.0014903960108995965
invite	-0.0014893999021283668
Moreover	-0.001488724778812911
ocean	-0.001488515405677509
supreme	-0.0014874156339009994
colleges	-0.00148734378188309
obliged	-0.0014873272286823683
advantages	-0.0014872277105220267
extreme	-0.0014850488779468438
patriotism	-0.0014849665891559756
applications	-0.0014842779364724558
Angeles	-0.0014828586652847287
doctors	-0.0014821948954287835
testing	-0.0014816940596245058
sets	-0.0014812115491951588
compliance	-0.0014810033794346858
undertaken	-0.0014806456674019482
inform	-0.0014801042602239122
Jefferson	-0.0014789253109143109
High	-0.0014783306419957985
Other	-0.001478081136482715
mutual	-0.0014749455309920395
preference	-0.0014746478821427089
belongs	-0.0014744682996660644
acquire	-0.001472395250251187
cold	-0.001469704261122396
s	-0.001469663832028189
supports	-0.001469440816269902
tellers	-0.0014684585050008907
sole	-0.0014675257467295982
seniors	-0.0014654886397810233
taxed	-0.0014653357146457375
founded	-0.0014644076760241265
welcome	-0.0014630471810532682
Land	-0.0014624381376392888
dealt	-0.0014620771375352256
Sunday	-0.001461931090389501
ceiling	-0.0014615707766278744
incident	-0.0014601772986403193
instructions	-0.0014579888868485812
repeatedly	-0.001457426179215221
studied	-0.001456811960442107
universal	-0.001456594037406886
subsequently	-0.0014561918589642028
valorem	-0.0014557825228395701
rely	-0.0014556287049679593
advise	-0.0014547920571388957
municipal	-0.0014528657589212724
exclusive	-0.0014522549187144498
attacks	-0.0014517820979099893
Science	-0.0014517675965645066
grand	-0.0014516797870820137
design	-0.0014514384998100982
preparation	-0.0014503948827175699
whereby	-0.0014503608608538237
stability	-0.001450152335527739
opposing	-0.0014497290266073466
terrible	-0.0014493550164694582
occurs	-0.0014485052315613414
covering	-0.0014475603507778515
preservation	-0.0014472456620908283
combination	-0.0014452619950694788
Fourth	-0.0014452175687398718
relatively	-0.0014447678184730324
virtue	-0.001443316812405625
thrown	-0.0014427866627066046
realized	-0.0014416556912812163
generous	-0.0014409492187768464
eventually	-0.0014404310823412944
subsection	-0.0014402833583595596
Poland	-0.0014398904232432324
ratification	-0.0014398495620885127
purely	-0.0014364485998019606
Your	-0.001436004129866048
penalties	-0.0014354815818975251
feels	-0.0014343395527968306
loved	-0.0014342457656566598
fashion	-0.001433328719541865
forests	-0.0014331673754392664
answers	-0.0014326526336754669
depends	-0.001432299773605408
alike	-0.0014319189063733528
findings	-0.00143184772395533
D.C.	-0.0014310442809288176
machine	-0.0014306423932075431
utterly	-0.0014299627650309686
acreage	-0.0014295647529438847
hearts	-0.0014290416388948774
variety	-0.0014283905666516194
Resolved	-0.0014272782428070585
entering	-0.0014272718631964858
quantity	-0.0014261266206423962
promises	-0.0014259606949473544
confident	-0.0014251912370146604
escape	-0.001424106587299707
storage	-0.0014232645157560753
Hoover	-0.0014230199676859043
Baltimore	-0.0014229144318224378
communications	-0.001422540566909646
postponed	-0.0014215519491831707
Bay	-0.001421537569736197
opponents	-0.0014214704607394691
commit	-0.0014210119877862309
beautiful	-0.0014202061440100207
whereas	-0.0014202012658034297
tells	-0.0014199034448263124
insisted	-0.0014198262765858338
doors	-0.0014191500692956624
endeavor	-0.0014189020733843978
mile	-0.0014169338266498952
M	-0.0014163902237853078
charter	-0.0014163850411725253
ratio	-0.0014160477149855355
scale	-0.001415934718340225
Spanish	-0.0014155191838012362
butter	-0.0014149794209182727
east	-0.0014144709078273518
mans	-0.0014143370290837392
forgotten	-0.0014140406191481144
seeing	-0.001413505915819529
derived	-0.0014124031303686328
broken	-0.001411985486971154
laborers	-0.001410825527611299
phase	-0.0014101478117363546
spite	-0.00140682489121117
Cleveland	-0.0014064932278197322
dozen	-0.0014062851402292832
aspects	-0.001406183533695297
released	-0.0014048677245094337
warrant	-0.0014043002237173832
moneys	-0.0014037797961955055
modification	-0.00140374177727471
friendly	-0.0014036834986618783
valid	-0.0014024017238944179
adjournment	-0.0014023100459257722
mandate	-0.001401741776329874
accompanying	-0.0014016700563806847
handled	-0.0013993887603021278
annum	-0.001398324140584356
formed	-0.0013982978109745251
minor	-0.0013979600327726127
distinct	-0.0013968710695174801
automobile	-0.0013963784374743447
navy	-0.0013960991506866895
imagine	-0.0013957597781000964
adverse	-0.0013952766879469117
prevented	-0.0013948372163525278
attached	-0.0013945504037519468
Comptroller	-0.0013944494254035087
5.	-0.001394352241808722
suitable	-0.001393880010828331
evident	-0.0013935835910934662
played	-0.001393495903849608
investments	-0.0013927927105114007
rescinded	-0.00139232858242
worst	-0.001391508024538032
recede	-0.0013903455432755776
quota	-0.0013901006849202284
directors	-0.0013881884611014156
ended	-0.0013881722391066848
gotten	-0.001387718644307807
republican	-0.00138750282391578
repair	-0.0013870331264810604
winter	-0.0013869796048478164
factories	-0.0013868106463123739
Library	-0.001386704516931018
volunteer	-0.0013864586505758078
statutory	-0.0013825600062124844
incentive	-0.0013824543423837697
Tax	-0.001382282187635062
fleet	-0.0013822513129748313
f	-0.0013816444838336405
guaranteed	-0.001380773300350254
Foundation	-0.001379925942104718
News	-0.0013796326563595765
securing	-0.0013794840787439235
le	-0.0013790756023083926
eastern	-0.0013785329275469817
global	-0.0013780772687549175
cloture	-0.001377550980881706
trillion	-0.0013765909024668476
enjoyed	-0.0013759504984037837
naturally	-0.0013759274647266956
customs	-0.0013757447868426255
selection	-0.0013745494740823067
Brown	-0.0013744604518631102
neighbors	-0.001374271432004727
favored	-0.0013742171417419474
kill	-0.0013740627298896473
Unless	-0.001373949363615741
sincerely	-0.001373150208628897
covers	-0.0013727908255058681
prohibited	-0.0013725679824330738
version	-0.0013714884981624695
Total	-0.0013706657942898996
sovereignty	-0.0013701755461727001
hopes	-0.001368559446872444
tragic	-0.0013682031724695856
PostOffice	-0.0013681606652495924
argued	-0.0013673484899069874
revision	-0.0013656421633291259
Further	-0.0013655829270859173
respectfully	-0.0013652521227711489
hurt	-0.0013646178541917339
readily	-0.0013642851438194449
supervision	-0.0013630747920586538
bloc	-0.0013625690925250034
abandoned	-0.0013623978635192123
Statutes	-0.0013623747676220627
Hall	-0.0013619501648693627
visited	-0.0013606171020908665
attended	-0.0013589771706124948
religion	-0.0013583789883399907
Christian	-0.0013583392963646373
containing	-0.001358101213911931
aliens	-0.00135793989720431
innocent	-0.001357413439861352
accomplishments	-0.0013572225023845
Latin	-0.0013562206467065895
surprised	-0.001355287729850968
render	-0.0013550651387994248
registration	-0.0013550470076258486
acquisition	-0.0013546665925120184
vested	-0.0013543652350453649
grateful	-0.001353926411549109
incurred	-0.0013534405626867095
adjustment	-0.0013529573914386717
prisoners	-0.0013515705390666735
Hill	-0.0013513519303905777
David	-0.0013510601119183527
stronger	-0.001350798036825011
superior	-0.0013494005909868165
tribes	-0.00134907030052351
code	-0.0013466978518869041
friendship	-0.0013465108025414703
presentation	-0.0013463850158975867
reorganization	-0.0013462908852165854
Wall	-0.0013456741666683439
peaceful	-0.0013433386362377597
begun	-0.0013401185610842923
likewise	-0.0013399787463677512
prison	-0.0013397275705707404
spring	-0.0013390037700748878
husband	-0.0013388111415353044
confronted	-0.001337600732309743
speed	-0.0013375035632259558
whatsoever	-0.0013365286400756685
Colonel	-0.0013359474159251262
abuses	-0.0013341468600829914
specified	-0.0013335048731150704
liable	-0.0013325643836020649
Community	-0.0013299169545004557
Eastern	-0.0013291926194454867
contractors	-0.0013286560017195
NATO	-0.0013281979899509683
earn	-0.001327660739023969
looks	-0.0013276388812924992
oversight	-0.0013256122362436493
happening	-0.0013253455568160238
didnt	-0.0013242419818439083
prosecution	-0.001323904652203325
manager	-0.001323155519099774
proponents	-0.0013217256518881302
injured	-0.0013215473587709335
Northern	-0.0013208244256711086
missiles	-0.0013207634403662747
brave	-0.0013201991958903766
obtaining	-0.0013199170677850106
reject	-0.0013193795422439833
Take	-0.0013192178420168915
learning	-0.001319149331871993
sufficiently	-0.0013168612058230675
channel	-0.0013157750037507785
rail	-0.0013157406149138403
color	-0.001315314751736658
deficits	-0.0013145072231147785
reaching	-0.0013136371770793693
restored	-0.0013132473502872604
Water	-0.0013112276244090836
sessions	-0.0013110965820269146
n	-0.001310642587625774
addressing	-0.0013101886660231454
reforms	-0.0013101105819134432
implement	-0.0013099690483465956
violated	-0.0013090921779884213
accordingly	-0.0013089072524277623
Regular	-0.001306189718687108
PostmasterGeneral	-0.001306180190085677
reclamation	-0.0013061729483570413
Report	-0.001305777884172696
sick	-0.0013052608393149523
funded	-0.0013046291697322231
Credit	-0.0013035551835861045
domain	-0.001303472927206846
disposal	-0.0013030488175786177
expanded	-0.0013028908501881865
round	-0.0013023895688332146
.the	-0.0013018931232473524
Private	-0.0013013632039694794
Rule	-0.0013013182433521486
Jewish	-0.0012989917866775378
considerations	-0.0012988356604222275
formal	-0.0012980359916658138
designate	-0.00129698781280737
VA	-0.0012968912550836108
rid	-0.0012967984806234699
People	-0.0012965630500067608
vice	-0.0012965309971201865
undertaking	-0.0012962985773291849
debated	-0.001295707024767844
touch	-0.0012949548907963632
sovereign	-0.0012935603832625402
Nothing	-0.0012924579366218579
telegram	-0.0012922983959028761
enforced	-0.0012906667234706252
Commissioners	-0.0012902479210551005
adequately	-0.0012888585959726557
affirmative	-0.001288708698269453
fails	-0.0012878092729911366
Have	-0.001287668727106919
recollection	-0.001287002413954364
600	-0.001286219738634367
Honorable	-0.001286090016033693
expressing	-0.001284044176600728
Eisenhower	-0.0012836977380116096
foot	-0.001283263472733635
punishment	-0.001283159448126628
unlimited	-0.0012825900606606461
violate	-0.0012822550491670762
Pursuant	-0.0012820901334693322
resource	-0.0012820763911887197
litigation	-0.0012818601338511373
introduction	-0.0012806446618490186
contact	-0.0012800494441505693
stamp	-0.0012800190189374352
orderly	-0.0012796703261788527
Committees	-0.0012795950608373576
procurement	-0.001279112748357324
propositions	-0.0012786444074891381
loyal	-0.0012783555697508627
remark	-0.0012768535176943606
suspension	-0.0012768043261939565
economically	-0.0012759950595148774
ruled	-0.0012749563887036405
dropped	-0.0012734925045749634
violations	-0.00127265404268561
twelve	-0.0012724612344313074
farming	-0.0012718386924929978
assert	-0.0012707486078623667
Tariff	-0.0012693322091106725
transactions	-0.0012688886989640023
confirmation	-0.0012688577079052541
permitting	-0.001268584261213903
raises	-0.0012682334289545987
respected	-0.0012682172769847271
retained	-0.001268148211649789
investigated	-0.00126802877412793
engineer	-0.0012678986099873741
conclusions	-0.0012673319756839549
commissions	-0.001266904741080881
acceptable	-0.0012666034927464396
fathers	-0.0012660452870719358
deliver	-0.001265252525241387
Information	-0.0012638756993345178
antitrust	-0.0012632103220689042
chemical	-0.0012629789361541107
beneficial	-0.0012626556011776796
deposit	-0.001262472770590305
encouraged	-0.001261102240978462
planes	-0.0012599843976842944
chapter	-0.001259943578963161
significance	-0.0012599422167819722
Ambassador	-0.0012598220150051606
experiment	-0.0012587266745232384
sponsored	-0.0012567410896128584
model	-0.0012553068210431153
tests	-0.0012547935363455987
unfortunately	-0.0012546678962857645
Society	-0.0012540423234263546
Through	-0.0012533696485150564
flexibility	-0.0012531534366569262
skills	-0.0012524156016477568
encouraging	-0.001251841398785336
pledge	-0.001251102730863818
modest	-0.0012508950670727472
capability	-0.0012497811311904462
advocates	-0.0012496903726518305
trip	-0.0012489242576869785
remembered	-0.0012483099110759208
vision	-0.001247393144235202
ballots	-0.0012470961217769033
corrected	-0.001245425873348111
hit	-0.001245170359184088
Treaty	-0.0012443127092427733
expressly	-0.0012434298533156676
blame	-0.0012432220303027217
succeed	-0.0012420498446018033
Sir	-0.0012416056536579997
diseases	-0.0012412271428488661
rolls	-0.0012402567751808706
apart	-0.0012389503246589722
tough	-0.0012388397846461263
fifth	-0.0012375704407025345
Human	-0.0012372330318443396
patient	-0.001236474783795989
challenges	-0.0012363107498502357
herein	-0.0012358598699046754
guess	-0.0012347250875517732
slightest	-0.0012329097746062736
runs	-0.0012316098226635367
art	-0.0012312716358129085
venture	-0.0012311431014802208
Jackson	-0.0012310585970309474
vehicle	-0.0012307565373545683
32	-0.0012302151129533817
controlling	-0.0012282677473523537
borrow	-0.0012276634330590063
tend	-0.001226868575611782
inclined	-0.0012267175765789014
definitely	-0.001225908242663802
declined	-0.0012257188327768798
Welfare	-0.0012254897732836465
Joseph	-0.0012248038549890173
achievement	-0.00122375810555132
portions	-0.0012237218422919893
postoffice	-0.0012203060264228025
doesnt	-0.001220238258912063
aviation	-0.0012191247504663646
impressed	-0.0012175599828687749
prevention	-0.0012165456974298188
strategy	-0.0012162187201527012
track	-0.0012160483715635403
consumed	-0.0012150329086629244
listening	-0.0012144749237042013
background	-0.001214381876920858
peculiar	-0.0012129864281247456
administer	-0.0012125742439370803
drawing	-0.0012124431321347742
opposite	-0.0012120982536395935
Marshall	-0.0012114858297387363
48	-0.0012098513531058923
harbors	-0.0012098340832972024
Medical	-0.0012090582618644464
massive	-0.0012090365035273228
settlers	-0.0012068682571819767
achievements	-0.0012062655971822338
commitments	-0.0012060638052472578
cease	-0.0012054014196493437
appropriating	-0.0012049814143259795
illustration	-0.0012047362837908713
presents	-0.001204688398184345
gains	-0.0012045490380801721
involvement	-0.0012044088061436786
None	-0.0012036967796748208
borders	-0.0012036599146850889
Among	-0.001203128824234935
recognizing	-0.0012031037541178596
tragedy	-0.0012028520582641315
drop	-0.001202488148392174
initial	-0.001202238301391635
routes	-0.0012019045866208439
Peace	-0.0012017187986723523
married	-0.0012009765766519784
occupation	-0.0012005298579240609
Lands	-0.0011995325647892756
historical	-0.0011980699991436092
birth	-0.001197270544062298
prescription	-0.00119670336957326
drafted	-0.0011965208090855169
rehabilitation	-0.0011964238629712997
invest	-0.0011962545676438634
conservative	-0.0011958652316336822
block	-0.001195181347101539
alien	-0.0011948855256674487
examples	-0.0011944913834695027
ends	-0.001192424046899374
Cabinet	-0.0011917629101949594
processes	-0.0011910098214765843
accounting	-0.001189354406074775
inasmuch	-0.0011891782074540782
ease	-0.001188782802970594
discussions	-0.0011885826764103755
hire	-0.0011881658151660368
elect	-0.0011876599400939712
claimant	-0.001187371771723696
demonstration	-0.0011873173740839143
Cuban	-0.0011871829063664426
tools	-0.001187132154840695
preventing	-0.0011866097917380921
revolution	-0.0011857984109399375
beneficiaries	-0.001185645080208607
regime	-0.001185472164081603
liquor	-0.0011850762912204724
detained	-0.0011848589538561345
p.	-0.001184518393297084
red	-0.0011841839779547449
terrorism	-0.001184014999489044
attendance	-0.0011831497129932088
Postmaster	-0.001182558701255896
neighborhood	-0.0011824967082898635
returning	-0.0011819919737646582
Northwest	-0.0011815312516286595
Nor	-0.0011806124832796077
healthy	-0.0011800389850550386
6.	-0.0011797451403831802
Food	-0.0011796172822379194
kids	-0.0011792522469008244
importation	-0.0011791397608760029
advocated	-0.0011790605264468997
etc..	-0.001179009458489881
Amendment	-0.001178938098673121
poll	-0.0011782395590227055
alcohol	-0.0011776727493032974
Davis	-0.0011774741316395426
widows	-0.001176985766496296
stream	-0.0011758924740392514
Convention	-0.0011758852710092595
restriction	-0.0011753338358830765
taught	-0.0011752772103060826
Ms.	-0.0011736894884211706
monetary	-0.001173067964076029
advertising	-0.0011725556604400232
creates	-0.00117248389901073
fishing	-0.0011722548097662204
Harbor	-0.0011710138207813494
surrender	-0.0011708816293432654
scheduled	-0.001170548418540147
instructed	-0.0011705211940408267
bushels	-0.0011702256667339404
enemies	-0.0011699107533590756
assessment	-0.001169854309241582
clothing	-0.0011696342658816315
Resources	-0.0011691544522377888
de	-0.0011678402728815603
courtesy	-0.0011677982828996452
search	-0.001167659574134633
devotion	-0.001167444419633524
teacher	-0.0011671962617835908
negotiate	-0.0011667021884869742
London	-0.0011665439274088849
excluded	-0.0011654966282577805
vehicles	-0.0011653316812119516
bushel	-0.0011650612451013411
Revised	-0.0011648910008809693
testify	-0.0011648227971418166
continuation	-0.0011643668317164431
factory	-0.0011638583464021659
African	-0.001163738494167182
decent	-0.0011636134892165388
Insurance	-0.00116359490673308
deprived	-0.001163490321180241
arrangements	-0.0011629356710920141
Club	-0.0011617248372707797
fortunate	-0.0011607352261770083
differ	-0.0011605716454458003
volunteers	-0.0011602853945230068
execution	-0.0011599332389176415
sees	-0.0011598020966550272
category	-0.001159126272169064
teaching	-0.0011590018450657919
traditional	-0.0011576115143788219
scientists	-0.0011574471591608117
nevertheless	-0.0011572940036984627
tribunal	-0.0011570074957828712
Fund	-0.0011557346400238235
III	-0.0011555855174255926
repeated	-0.0011552007856940887
Capital	-0.0011543419766116803
precedents	-0.0011541559951666067
extraneous	-0.0011537750259939012
commissioner	-0.0011528622577963636
Ford	-0.0011527340897324204
driven	-0.0011524302412639557
Management	-0.0011522771161913811
pure	-0.001151871860599551
camps	-0.0011508227385856468
addresses	-0.001150512475241331
appointments	-0.0011504145656029536
immigrants	-0.001150413279704465
abortion	-0.0011496262258411274
33	-0.0011495139352537653
assumption	-0.0011491957768674723
About	-0.0011482580023448184
mankind	-0.0011479073620180233
emphasis	-0.0011469860172008098
era	-0.0011465328990745592
exclusively	-0.001146457898665433
gained	-0.0011458508783792432
55	-0.0011454002510808932
yards	-0.001145363430134078
300.000	-0.0011450558357113283
sat	-0.0011450155380678126
profession	-0.0011448355336432204
subjected	-0.0011447788300999208
Protection	-0.0011441263233362441
Three	-0.0011440668959834027
planned	-0.0011435023477099151
satisfaction	-0.001143188182238309
engineering	-0.0011429234618267113
aspect	-0.0011427119302746677
relate	-0.001142453787428391
honestly	-0.0011421640815296222
indebtedness	-0.001140366291120336
sons	-0.0011394320232761847
quarters	-0.0011393586628339362
unreasonable	-0.0011387175658244012
talks	-0.0011379874200917212
shut	-0.001137882612483242
medicine	-0.0011374677700280234
begins	-0.0011368764420673755
prompt	-0.0011364400164164603
increasingly	-0.0011353883991585129
Point	-0.001135186849882115
bases	-0.0011343340185770245
1980	-0.0011325946259376895
folks	-0.001131169290955788
arising	-0.001130971093398289
1.000.000	-0.0011308782694179134
rapid	-0.001130498417394723
magazine	-0.0011291662882944725
essentially	-0.0011289472927227893
Dam	-0.001128477042886438
publicly	-0.0011281306258824528
accident	-0.0011277796389367973
manpower	-0.0011276932598597016
7.	-0.001127495633053469
cooperate	-0.0011269978397933638
Appendix	-0.0011269555571971803
formerly	-0.0011265507453156885
Federation	-0.0011263658487006285
Had	-0.0011261619291418736
Despite	-0.0011261012742697942
negative	-0.001125361651171917
reasonably	-0.0011251989495826543
36	-0.001124938633027456
bankers	-0.0011245721026231837
surface	-0.00112393140839964
livestock	-0.001123540479237574
lowincome	-0.0011230346179099194
finest	-0.0011227668226933207
sad	-0.0011220831467674008
15.000	-0.0011218746319510645
allocation	-0.001121583843378801
4.000	-0.0011214625306095502
Authority	-0.0011213440288312703
Admiral	-0.00112073952989092
Special	-0.0011204655052024371
latest	-0.0011188087696191104
utility	-0.0011186735646033928
prescribe	-0.001118624477437212
EPA	-0.001118053208132638
enacting	-0.001117812044943886
store	-0.0011177469904014893
timely	-0.001116770712146016
observations	-0.0011156868462973693
literally	-0.0011152525964343402
traveling	-0.0011151052803773257
arbitrary	-0.0011150440854106611
bid	-0.0011149629941989937
meaningful	-0.0011147144910195765
Be	-0.001111807026637909
sundry	-0.0011117600049729006
target	-0.0011111147670917246
Shall	-0.0011108942504901933
weapon	-0.0011108506573053165
Once	-0.001110822279871427
turning	-0.0011100247777196667
Lakes	-0.0011098660940773602
necessities	-0.0011098529601382752
straight	-0.001108974895511344
implementation	-0.0011084253427503625
assuming	-0.0011073633296918046
pressing	-0.0011060514413859007
ban	-0.0011048147262635154
cultural	-0.0011046053804046792
compliment	-0.0011043575127207745
participated	-0.0011043099870802705
exhausted	-0.0011023106532851213
surveys	-0.0011020509347807067
electricity	-0.0011018374450892994
lawful	-0.0011010616490916916
unwise	-0.0011003665546536114
pursued	-0.0011001022936505268
costly	-0.0011000989274800275
tion	-0.0010999686794703027
distress	-0.001099819802392611
humanity	-0.001098838016320266
awarded	-0.0010979524639256255
Black	-0.0010970669235033192
earnest	-0.0010965982082718994
eye	-0.0010959515496072512
residence	-0.0010959238005895501
transit	-0.001095832297459634
practicable	-0.0010954656525382963
stocks	-0.0010953754695848985
concede	-0.0010949702091850942
tradition	-0.0010949331913497641
situations	-0.001094764538809914
mineral	-0.0010947535384346996
binding	-0.001094548275934361
reputation	-0.0010943913004446983
shot	-0.0010934442397062037
preparing	-0.0010923902198512524
resident	-0.0010919718248619337
Hospital	-0.0010917982396908
shortly	-0.0010917487374221616
somehow	-0.0010915015358332406
eminent	-0.0010911966728888742
assembled	-0.0010905963276518194
resume	-0.0010902499019013908
suspended	-0.0010899317838543698
complicated	-0.00108986626207925
ratified	-0.0010895522058352112
shared	-0.0010890647097153412
hardship	-0.0010886272277929629
satisfy	-0.0010885945985734172
trading	-0.0010883376244349503
exclude	-0.0010883213899921499
qualify	-0.0010880605181858803
Nixon	-0.001087528410754962
reverse	-0.001086744558732257
operators	-0.0010866306010653285
Gentlemen	-0.0010857808884436446
shipped	-0.001085146769395613
250	-0.001085073111717696
Census	-0.001084348836801002
pertinent	-0.001083895453172731
sight	-0.001083626245530265
delighted	-0.001082613127651859
amounted	-0.0010817934063568333
resolved	-0.0010802811268858525
passenger	-0.0010802596582573222
Having	-0.0010793975814643172
arm	-0.0010793539179669636
checks	-0.0010791119658980987
classified	-0.0010790148684865883
grades	-0.0010787796179333486
-of	-0.0010779449893886933
Catholic	-0.001077175288535043
yields	-0.001077174797898076
premium	-0.001077117499285177
useless	-0.0010760887365260745
benefited	-0.0010759865412747905
credits	-0.0010755276861235848
succeeded	-0.001075499823710201
unlawful	-0.0010751517838588668
logical	-0.001074607781225902
30.000	-0.0010740739227724603
petroleum	-0.0010737513423466545
borne	-0.0010736118262103138
participating	-0.001072520402173439
limiting	-0.0010722582279627958
effectiveness	-0.0010721713477861796
hopeful	-0.0010719458714286685
Staff	-0.0010719295639443668
8.	-0.0010713595866072231
solid	-0.0010712436808828882
invasion	-0.0010710418750104313
Should	-0.0010710373295194557
recession	-0.0010707343030278635
registered	-0.0010703004109081347
meets	-0.001069961895517528
secondary	-0.0010696817155756717
incentives	-0.0010695913964649782
thanks	-0.001067746064619148
levied	-0.0010675963793066498
gift	-0.001067482982869297
periods	-0.0010670497536284336
renew	-0.0010668822612741624
homestead	-0.001066182164810734
significantly	-0.0010658356720105902
strange	-0.0010655561381216715
aggression	-0.0010650682662788704
bureaus	-0.001064765396314074
Detroit	-0.0010647126922507769
prosperous	-0.0010631145438586478
l	-0.001062695338610303
rests	-0.0010625892119959042
exceptions	-0.0010624346515286996
streams	-0.0010623482904312078
Officer	-0.0010617131256063755
supplied	-0.0010615601617021838
arts	-0.001061537250249131
Several	-0.0010615353348987734
quantities	-0.0010613120032581097
consistently	-0.0010612696524059562
dry	-0.0010601482414992658
Title	-0.0010596875989262887
loyalty	-0.001059572230094186
Long	-0.0010594558009937366
underlying	-0.0010583612195499065
guard	-0.0010581202339328937
ran	-0.0010581083832232091
Polish	-0.0010581006360357989
indirectly	-0.0010562915893701109
fallen	-0.001055914025728102
Medicaid	-0.0010557921124636981
corps	-0.0010552640913205303
Martin	-0.0010552526363817346
chart	-0.0010548267884003917
forty	-0.0010540578639452493
deem	-0.0010539781025409188
willingness	-0.001053788957530446
phrase	-0.001053404040728576
Star	-0.0010531902133249411
doctor	-0.0010529269647871447
10.	-0.0010527925094227526
strictly	-0.0010524703667474783
afterwards	-0.0010518692294140496
description	-0.0010516413615379333
plenty	-0.0010509763991988286
Oil	-0.0010503285089243461
grew	-0.001050156911615102
atomic	-0.001049701300081089
legally	-0.00104964133325782
anticipated	-0.0010496400799683329
Her	-0.0010481391197826385
1981	-0.001047894964465195
indefinitely	-0.0010478017239458272
suits	-0.001047304184743215
Lawrence	-0.0010472782975583681
retire	-0.0010472215248727983
capita	-0.0010466885937066672
accommodate	-0.0010466268777638284
convicted	-0.0010462256318464931
culture	-0.0010461661100663955
delayed	-0.0010460083996063866
sanctions	-0.0010456932974229796
Postal	-0.0010452727841459447
Objection	-0.0010445857503247687
identified	-0.001043920349377445
civilized	-0.001043385744372404
sworn	-0.0010427898702254667
beef	-0.0010425626174308473
murder	-0.00104150090298097
Trust	-0.001041263972519911
reflection	-0.0010409523567558741
withdrawal	-0.0010405576589555855
claimants	-0.001040398467815032
pieces	-0.001040047994188259
basically	-0.0010400452935679057
boats	-0.0010398993648432166
mothers	-0.0010392708509786457
1.500	-0.001039025363782352
fewer	-0.0010380439833087521
Immigration	-0.0010380095135853781
skilled	-0.0010373332818896543
gratitude	-0.0010368076005502838
restoration	-0.0010361512494291303
expanding	-0.0010357877626980781
regions	-0.001035533053246224
threats	-0.00103517224550775
purchases	-0.001034554223937091
blind	-0.0010341295581049082
starting	-0.0010328300715604496
armor	-0.001032226221444352
certified	-0.0010320671142864913
managed	-0.001031525396152119
parks	-0.0010310599932132863
presenting	-0.0010310540388463797
tendency	-0.001031041736161344
ignore	-0.001031037413286446
motives	-0.0010310303258186811
widely	-0.0010306720698912612
Clerks	-0.0010304407639683518
watch	-0.0010298187658556487
Pension	-0.001029785860319669
propriety	-0.0010285801510753795
origin	-0.0010277402351205238
controversial	-0.0010274782100520095
improper	-0.0010272753381947366
associate	-0.0010272676295868682
dividends	-0.0010271563864687032
Sherman	-0.0010269313694444306
extends	-0.0010265803469256883
2.500	-0.0010265327958020193
duly	-0.0010261412338343787
column	-0.0010259392788095098
Frank	-0.0010256199273934727
Jews	-0.0010248769408835621
prominent	-0.0010248264187946799
elimination	-0.001024589179949735
colloquy	-0.001023806326277387
laboring	-0.0010237559504301381
suggesting	-0.001023459987463709
notified	-0.0010231938682397517
Order	-0.0010229503031877773
mouth	-0.0010225842735776859
developments	-0.001022074006495541
plane	-0.0010216882452442303
dangers	-0.0010210392397974099
FBI	-0.0010203777824455
surrounding	-0.0010199803914162327
university	-0.0010196328157525835
embargo	-0.0010193696999456585
retail	-0.0010189576644650832
instruction	-0.001016536482473472
racial	-0.0010164576211397591
invited	-0.0010163778671973115
petitions	-0.0010163461910872617
Thank	-0.0010161766024248192
monthly	-0.0010156666662231042
Intelligence	-0.001015027254503276
profound	-0.0010141782123486963
trend	-0.0010140973417753665
preserved	-0.0010140897745155068
Policy	-0.0010139604239802385
convictions	-0.0010126520912445251
media	-0.001012589139752695
te	-0.001012364766245153
customers	-0.0010120236232144036
U.	-0.0010117566912221656
sake	-0.0010115143648634355
custom	-0.0010102343663393116
allotted	-0.0010097953931252671
arises	-0.0010095387777353515
clarify	-0.0010093289830110062
warning	-0.0010091720892458393
path	-0.0010088513865196755
-A	-0.0010079973928955582
Carter	-0.0010079323643824227
appropriately	-0.0010077623829334796
slow	-0.0010072440140825333
contractor	-0.0010070752821338452
imperative	-0.0010063132810509015
demanding	-0.001005857105772677
Year	-0.0010056822935333362
missed	-0.0010054248972153441
closer	-0.0010049270154703076
exceedingly	-0.0010037378556547504
superintendent	-0.0010035037213513142
proclamation	-0.0010030449959150857
250.000	-0.0010028424543666176
animals	-0.0010020749195098877
weather	-0.0010018107632689156
1970	-0.001001259607790827
promoting	-0.0010012360475515464
resort	-0.0010011914585023104
growers	-0.0010010291206390537
inspectors	-0.001000420590173643
Nobody	-0.0010000809305462483
100.000.000	-0.000999624004071294
dare	-0.0009994388503242067
resumed	-0.0009993383433303138
climate	-0.0009993252128077884
yard	-0.0009991580239614606
boundaries	-0.0009990008920491501
adds	-0.0009989033009750621
prayer	-0.0009988280277940294
universities	-0.0009986177273259144
payable	-0.000998598675367657
Richard	-0.0009985356364746129
Williams	-0.0009984025338567715
Afghanistan	-0.000998305763341967
guidance	-0.0009979381320383315
disabilities	-0.0009976056213727568
heritage	-0.000997155636185433
terrorist	-0.0009971081102546852
wilderness	-0.0009971023518175598
1974	-0.0009970971750629036
warfare	-0.0009967295806087584
r	-0.0009958453304353678
deduction	-0.0009957550815905328
strict	-0.0009957296337916568
stamps	-0.0009955656205214475
dream	-0.0009954292052525072
investigating	-0.0009951303291879676
utilities	-0.0009945711720024514
falls	-0.0009941616830885561
magnificent	-0.0009940743104614434
summary	-0.0009935629405471707
immense	-0.0009935562437818914
seas	-0.000993298045469482
enterprises	-0.0009931729906535367
1965	-0.0009930113164009688
cite	-0.0009924903512195768
convenience	-0.0009913631700677794
Creek	-0.0009912390516229374
register	-0.0009907200105200363
mistakes	-0.0009905154198019018
widespread	-0.0009902373544613864
Page	-0.000990198964061317
filing	-0.0009900578265312331
10.000.000	-0.0009898939290043708
govern	-0.0009896885172594042
bargaining	-0.0009892993406891593
contempt	-0.0009892242221247265
dealers	-0.0009887978959710558
physicians	-0.0009886422056952107
correspondence	-0.0009882735982600923
conversation	-0.0009878586122668547
acknowledge	-0.0009873340165055353
liberties	-0.000986898237481729
restricted	-0.0009867140966944926
automobiles	-0.0009858644697182007
U.N.	-0.0009848935522104023
Negro	-0.0009847873650529922
governing	-0.0009846868239440035
2.000.000	-0.0009846224831695832
deprive	-0.0009844864373551347
polls	-0.0009837894259742384
abandon	-0.0009837662220549789
negotiated	-0.0009833192058650254
C	-0.000982578133095749
fertilizer	-0.0009825450743773832
conducting	-0.0009801940903602642
playing	-0.0009801621562105774
El	-0.0009799039225965283
crucial	-0.000979362015841366
faithful	-0.0009791795168913016
qualities	-0.000978697646938377
appearing	-0.0009786448122499692
cure	-0.0009784476146598767
evidently	-0.0009779810253979701
dams	-0.0009778444430196518
Im	-0.0009777401091414853
Conservation	-0.0009775839242152906
Award	-0.0009772907768826676
outlined	-0.0009772619515850045
textile	-0.000977058368888869
attending	-0.0009767599224435896
profitable	-0.0009767291540168689
Avenue	-0.0009763123025923872
U.S	-0.0009762862709166927
Russians	-0.0009759079688779679
ideals	-0.0009757690059514219
possess	-0.0009755781565992669
therefor	-0.0009753313322887128
1954	-0.0009751512457557546
complaints	-0.0009750904960196552
Clark	-0.0009742449469210882
pick	-0.0009741154914673761
Independence	-0.0009735463191098668
Were	-0.0009727810900039826
tonnage	-0.000972487379816866
agrees	-0.0009709929172616706
85	-0.000970644690598111
narrow	-0.0009705136427383642
tribe	-0.0009704301678320727
safeguards	-0.0009704286575757981
lays	-0.0009702247559433596
united	-0.0009701058651307849
mortgages	-0.0009696864411388851
cry	-0.0009695624096403737
42	-0.000969542903167757
34	-0.0009694035354852969
amounting	-0.0009689603112326157
meritorious	-0.0009688565702440645
Turkey	-0.0009684267541828224
Grand	-0.0009683321004534394
productivity	-0.0009669025283785475
probable	-0.0009667765634752624
preliminary	-0.00096595225206899
11.	-0.0009647043305731366
flight	-0.0009646478348578647
utilize	-0.0009637809415088991
Jr..	-0.0009635742394506767
skill	-0.0009628857115571642
V.	-0.0009623789699331628
dear	-0.0009621416311643483
processing	-0.0009618042302178986
badly	-0.0009596828568167428
interference	-0.0009596342455363482
Governors	-0.0009594261293104847
violent	-0.0009585476235729398
Neither	-0.0009580513672557418
firmly	-0.0009577228929197731
partnership	-0.0009574311909848251
discretionary	-0.0009574035853419461
Minister	-0.0009573998618912812
thoughtful	-0.0009573345173378392
frank	-0.0009571510353486986
tempore	-0.0009564398802091956
taxing	-0.0009563902475278734
arose	-0.0009561134769054879
adjusted	-0.0009557574834270994
applying	-0.0009555455089990056
restrict	-0.0009551561852019658
recipients	-0.0009548084104603115
lifetime	-0.0009545651482927566
happiness	-0.0009543327662672054
assertion	-0.0009541002189394656
instrument	-0.0009540780110862219
academic	-0.0009538713689444893
consultation	-0.0009535017929438576
enhance	-0.0009534795327149446
comparable	-0.0009530745181300545
utmost	-0.0009530727144578915
afforded	-0.0009519136111091552
Organization	-0.0009517352819485624
struggling	-0.0009514457089923689
McKinley	-0.0009513277477455656
constitutes	-0.0009512631919603987
camp	-0.0009510397651720937
commenced	-0.0009510289421668517
corruption	-0.0009507696020962321
expend	-0.0009502872459674974
transport	-0.0009501304812735507
prime	-0.0009501174114460086
minister	-0.0009498119189125772
barrels	-0.0009494874448280892
overcome	-0.0009492890913950067
1985	-0.0009489598685711346
38	-0.0009487402705009697
1990	-0.0009485153841394374
5.000.000	-0.0009482959274861189
leads	-0.0009475202174370517
aimed	-0.0009474416385210579
editor	-0.0009473848900890124
device	-0.0009473101216406291
wisely	-0.0009471814729106982
adopting	-0.0009469144111352462
tender	-0.0009467683114073247
nationwide	-0.0009465325605063238
driving	-0.0009462535949630444
reflected	-0.0009460921593240781
accused	-0.000945387113678841
Franklin	-0.0009446516054232798
JOHN	-0.0009444177645030667
legislatures	-0.0009441871964184367
Greece	-0.0009439640035027467
cleared	-0.0009438761424228038
evils	-0.0009429649606242082
Industry	-0.0009427470623475458
belonging	-0.0009418745020388186
inconsistent	-0.000941825588797096
eliminating	-0.0009410786940018783
civilservice	-0.0009405507927900158
OF	-0.0009399048468606275
voter	-0.0009392368601735769
progressive	-0.0009389266380852785
collective	-0.0009383311861868698
ranks	-0.0009381183289370137
confer	-0.0009378178581131624
routine	-0.0009377129344267829
pattern	-0.000937223617965163
embraced	-0.0009371925628178103
wounded	-0.0009371735918213221
survive	-0.0009366296197823878
bonus	-0.0009361568726591221
miss	-0.0009360252740266253
trusts	-0.0009358805542565867
acceptance	-0.0009356064096247928
headed	-0.0009354093103010199
ticket	-0.000934506142003232
passengers	-0.0009343987234528523
confess	-0.0009337422883780908
permanently	-0.0009334885411345867
applause	-0.0009330621260918501
expiration	-0.0009330415682390057
complain	-0.0009325092252128601
humanitarian	-0.000931930398828565
listed	-0.0009318320971062228
solutions	-0.0009314069654611667
Grant	-0.0009311664367572556
unwilling	-0.0009305092431431974
titles	-0.0009304787324724555
recover	-0.0009297438906739826
seed	-0.0009292743273449889
40.000	-0.0009292614818751763
embodied	-0.0009292610549844079
Commander	-0.0009291474920065275
inevitable	-0.0009288588155698975
sponsors	-0.0009282226088553128
1982	-0.000928059269907607
offensive	-0.0009275674841267016
stake	-0.0009271301213738863
distinctly	-0.0009268685136642609
classification	-0.0009268218293940958
Korean	-0.0009266329961598797
Lee	-0.0009263139956010095
quotas	-0.0009262841310682476
league	-0.0009261847065296321
educated	-0.0009259257146319613
AttorneyGeneral	-0.0009258880270450329
Nevertheless	-0.0009256788526300184
earliest	-0.0009255964499868908
box	-0.000925454792709519
offset	-0.0009246015247963986
miners	-0.000923341300870858
sooner	-0.0009231590216127139
Surely	-0.0009229870963596784
machines	-0.000922775314099519
Truman	-0.0009224393380938291
requisite	-0.0009221869042899916
replace	-0.0009220566047428788
advisory	-0.0009218816142817527
Assembly	-0.000921726306090343
hesitate	-0.0009207495096636361
Memorial	-0.0009204708331849252
concurred	-0.0009199650256815616
performing	-0.0009189366288584842
defendant	-0.0009189339490502496
walk	-0.0009187805956706714
faces	-0.0009187399927122346
electors	-0.0009183143471481306
preferred	-0.0009182948561455007
9.	-0.0009182750789590387
reaches	-0.0009182573583646933
logic	-0.0009181733666110503
library	-0.0009177240912544119
arrest	-0.0009176842717130991
attacked	-0.0009174039056210395
allocated	-0.0009172704509816234
restraint	-0.0009172281779745892
1972	-0.0009164111990738411
competing	-0.0009161428397052493
admiration	-0.0009158235819069633
infrastructure	-0.0009155976233570441
reflects	-0.0009148220229360573
sponsor	-0.0009145679402708162
idle	-0.0009144422283326708
800	-0.0009141901395603103
comfort	-0.000914133927015477
pockets	-0.000913402542991358
freely	-0.0009130651399424894
Rivers	-0.0009129825395264782
vacancy	-0.0009124401223154004
sacred	-0.0009117550562465568
bankrupt	-0.0009116407364738842
midst	-0.0009114434592890192
commander	-0.0009114292661434113
disputes	-0.0009113863078933671
sharing	-0.0009112466027454226
servant	-0.00091113238423534
Congresses	-0.0009111078491855615
hence	-0.0009109547909379702
stories	-0.0009109247227886404
master	-0.0009103134194121176
options	-0.0009101462036718202
stress	-0.0009099005629058933
contingent	-0.0009098185556492602
barriers	-0.0009089050152416503
contended	-0.0009087951596504909
utilized	-0.000908791176645198
arrive	-0.0009087053876703058
honesty	-0.0009083414582863861
allotment	-0.0009081737912450739
heavily	-0.0009078585572896495
weak	-0.0009078099840385376
stores	-0.0009071565538568827
Whatever	-0.0009059588767340317
encouragement	-0.0009057487418095034
gathered	-0.0009057480868099233
stable	-0.0009056606403011064
6.000	-0.0009054744954705787
bridges	-0.0009052055331049169
tied	-0.0009049934925852784
declares	-0.0009048407980061935
celebration	-0.0009042162889786968
feelings	-0.0009038318662799757
slight	-0.0009029329375823712
properties	-0.0009028998186257363
tire	-0.0009026847632504921
delegates	-0.0009026250442472341
navigable	-0.0009025569443725707
1986	-0.0009024647106165714
thoughts	-0.0009022618721841629
constituted	-0.0009018935098460364
conceded	-0.0009018170042370518
airport	-0.0009015446870247511
bullion	-0.000901387650331324
crude	-0.0009011068185801941
criminals	-0.0009009834902889271
helps	-0.0009004036804518974
humble	-0.0008995693825598029
etc	-0.0008994615098822119
meantime	-0.0008994408501083264
enabled	-0.0008993130923465249
Lets	-0.0008989238688849079
magnitude	-0.0008988895175352124
criteria	-0.0008988392967213489
risks	-0.0008988115823259613
zone	-0.0008982964063299026
equipped	-0.0008980216048779531
inside	-0.0008976596956257011
correction	-0.0008975679396316103
Reform	-0.0008975384523278501
Much	-0.0008972053612552459
relevant	-0.0008971781073312347
card	-0.0008971400481567612
easier	-0.0008966375681357875
respecting	-0.0008963925028895928
trees	-0.0008963795867489904
erected	-0.0008962434457015627
fitting	-0.0008959069227796726
materially	-0.0008957502244743297
S	-0.0008945320537454933
governed	-0.000894385927702905
teach	-0.0008939387761474707
ascertained	-0.0008935962447878047
justly	-0.0008934683271804637
ignored	-0.0008933551220128104
prohibits	-0.0008929493337993424
agreeable	-0.000892895280219013
Obviously	-0.0008925882631513568
manufactures	-0.0008923346523916457
Mary	-0.0008919303057447485
Accordingly	-0.0008914344827295628
1984	-0.0008913641345158123
Interest	-0.000891237066233656
paragraphs	-0.0008908681491243915
schedules	-0.0008907220031026354
Iran	-0.000890581315959838
Until	-0.0008902191100330801
organize	-0.0008900746365072508
refugees	-0.0008896515495505193
facilitate	-0.0008894881910331362
debates	-0.000889302132159095
shores	-0.000889157837827682
responded	-0.0008889150304737704
150.000	-0.0008886903014123705
stockholders	-0.0008884955363187941
15.	-0.0008881815467226106
counting	-0.0008878156652420973
fresh	-0.0008877850904606423
questioned	-0.0008876546872259603
lending	-0.000887456359150383
touching	-0.0008872916139995178
Fifth	-0.0008869354095291254
deceased	-0.0008864900064496096
37	-0.0008861225023305989
unprecedented	-0.0008858313203458902
handicapped	-0.0008856218286878143
1964	-0.0008855498307721124
assault	-0.0008853416888218265
allowances	-0.0008850691568448611
directing	-0.0008847237866315104
channels	-0.0008846893563314873
nominee	-0.0008846839590964009
cargo	-0.0008842169866422591
par	-0.0008840997874978859
continent	-0.0008837939856206357
intends	-0.0008836923637665627
devices	-0.0008834945348275519
conceive	-0.0008828676647882895
continuous	-0.0008828025907181536
alive	-0.0008827252445827134
1973	-0.0008825878605501923
conform	-0.000882461999769257
electoral	-0.0008822584039677331
awards	-0.0008811487552988606
caught	-0.000881138187983873
reliable	-0.0008807131556169447
deliberately	-0.0008800473554132946
adversely	-0.000879681768556956
barrel	-0.0008795413845817979
2000	-0.000878330041751433
ages	-0.0008782574433081862
wealthy	-0.0008781277684626895
undertook	-0.000878049018146813
Which	-0.0008774282704336685
convince	-0.0008771956325340151
-to	-0.0008770994569494238
p	-0.0008768221110473755
Paris	-0.0008767289816895085
define	-0.0008766848214049398
load	-0.0008763024469887409
localities	-0.0008761746634538118
Farmers	-0.00087612628248693
vocational	-0.000876026927566116
eloquent	-0.0008759582661443094
respectively	-0.0008758510212922316
Assistance	-0.0008753680498332834
nursing	-0.0008751063496415417
wellbeing	-0.0008747144176402235
owns	-0.0008746227507948221
boat	-0.0008744701389495572
bounty	-0.0008744657291553221
marriage	-0.0008743744795152908
interrupted	-0.0008740489715107861
Atomic	-0.0008735801022991006
vitally	-0.0008733350088545702
pilot	-0.0008732825748825842
divisions	-0.0008729637830903454
Legion	-0.0008728533784204993
wondering	-0.0008725593967490429
GAO	-0.0008716880881572339
realistic	-0.0008716646661874688
indication	-0.0008715019988264907
asserted	-0.0008705659477153732
Congressmen	-0.0008703481264635568
comparatively	-0.0008700165821022913
radical	-0.0008699668120493511
users	-0.0008697651450421646
voluntarily	-0.0008696529733739543
postpone	-0.000869312648548767
establishes	-0.00086899988867317
prevailing	-0.0008684789897865209
Lord	-0.0008682164128308939
condemned	-0.0008679750719814012
upper	-0.0008670298048273507
divide	-0.0008670034126900177
12.	-0.0008666672722578003
guarantees	-0.0008665601912321425
bread	-0.0008662166957315918
killing	-0.0008662162045299665
disclosure	-0.0008661834822207137
importantly	-0.0008650381394060968
implications	-0.0008650377240800285
punish	-0.0008649864216700257
earnestly	-0.0008646545906172376
1976	-0.0008645778591920571
species	-0.0008645316103961489
protections	-0.0008643694242134929
genuine	-0.0008643084204379019
associates	-0.000864077910663399
context	-0.0008634915839756352
bears	-0.0008634002451354021
anyway	-0.0008631400207663709
stimulate	-0.0008629670220468709
Operations	-0.000862843143633503
armies	-0.0008609806782219078
mode	-0.0008598286793585496
believing	-0.0008596537601793147
safely	-0.0008591032478090009
Time	-0.0008587499350706138
arrested	-0.000858715824140996
imposing	-0.0008585475511337069
alter	-0.0008584384389854837
quick	-0.0008583679824400737
bureaucracy	-0.0008575875546598262
1975	-0.0008573507509436
44	-0.0008565947227705056
taxable	-0.0008564119557105259
twentyfive	-0.0008562548939202523
describe	-0.0008561629749065283
Lewis	-0.0008561034995009258
compare	-0.0008555218339452167
wished	-0.0008553303080746404
brother	-0.0008552775792031699
rubber	-0.0008551226312182647
condemnation	-0.0008550943241682356
Vietnamese	-0.0008548429690002983
1983	-0.0008545842061516108
famous	-0.0008543906790509102
Invalid	-0.0008543902531029677
graduate	-0.0008542482527418322
exclusion	-0.0008539923872314833
Press	-0.0008537237936923651
transmission	-0.0008535810607040421
worldwide	-0.0008535365498991468
Commonwealth	-0.0008533637592677554
DEAR	-0.0008532569010840925
horses	-0.0008526831315489711
considerably	-0.0008525579016008677
inhabitants	-0.0008522343010266291
advocating	-0.0008519938804141754
memorandum	-0.0008508661369283937
preserving	-0.0008506534714757028
debating	-0.0008504720850374791
400.000	-0.000850134392999077
hate	-0.0008497620563816733
flying	-0.0008497535747610773
produces	-0.0008496650980198091
Reserving	-0.0008489951007806342
besides	-0.0008482132526476411
marks	-0.000848138771402762
1978	-0.0008477991987723725
1968	-0.0008476163968826983
Sergeant	-0.0008468620532083802
1920	-0.0008465828169040452
submitting	-0.0008465816094604477
advances	-0.0008465587369272755
assembly	-0.0008460534135950057
termination	-0.0008458943897683173
Forestry	-0.0008457964980805554
patents	-0.0008448308369986211
technologies	-0.0008447193783883789
Week	-0.0008445313175618424
severely	-0.0008441289367540194
creditors	-0.0008439029492781638
discipline	-0.0008429459476418885
lend	-0.0008428344432946716
wit	-0.0008427751089259388
tables	-0.0008423957692627922
prospect	-0.0008423824345518787
bulk	-0.000842039334333132
accompanied	-0.0008418769850799748
revised	-0.0008415732542278198
conferences	-0.0008414508437580152
gather	-0.0008414060820250215
Safety	-0.0008412100654310533
Emergency	-0.0008399313028565189
accorded	-0.0008397570758219483
violating	-0.0008396856630896479
D	-0.0008396845807289404
uncertainty	-0.0008386738702776105
depth	-0.0008386674303420911
Select	-0.0008386601409882139
tho	-0.0008385697794735117
sensitive	-0.0008385544386601119
fraudulent	-0.0008385396192211983
disregard	-0.0008384384287783599
lieutenant	-0.0008380192904177768
wholesale	-0.000837950724863794
civic	-0.0008378868527567629
destroying	-0.0008378765115955759
Geneva	-0.0008373450073146422
wild	-0.0008372041598945025
celebrate	-0.0008368920636501642
Like	-0.000836677047266677
1977	-0.0008362217413581469
seconds	-0.0008361109566776192
Inc..	-0.0008359835669876399
preamble	-0.0008358818835871725
Following	-0.0008356934826844963
1960	-0.0008354930556007624
possessed	-0.0008354162790499623
courageous	-0.0008349461259863503
Young	-0.0008345550892077706
horse	-0.0008345384789295851
ore	-0.0008331465592349671
copper	-0.0008326669495542514
disturbed	-0.00083258981792913
dramatic	-0.0008325333062535106
map	-0.0008325316418846502
sensible	-0.000832495247234182
broader	-0.0008324356513534515
compact	-0.0008324207310350375
blow	-0.0008321014637608708
resist	-0.0008319425260780482
abolish	-0.000831594645008563
valued	-0.000831504797812726
seats	-0.000831263305854095
furnishing	-0.0008311539095156198
hero	-0.0008311462059053918
solemn	-0.0008309165276376931
broke	-0.0008304396893907439
caucus	-0.0008300201311474756
metal	-0.0008296611735417966
IRS	-0.0008295461398303207
harmony	-0.0008292439976247667
vigorous	-0.0008291756568856914
pertaining	-0.0008291047144450605
rare	-0.000828640994229423
noble	-0.0008284944911082473
bales	-0.0008284085666657856
rental	-0.0008282420642342773
wildlife	-0.0008282230601643278
Rather	-0.0008281810709863584
excise	-0.0008280494361778563
framed	-0.0008280252413167471
girls	-0.0008267516634796795
receipt	-0.0008262491202653671
700	-0.0008258954757221214
premiums	-0.000825751913465104
earning	-0.0008254945294364002
suddenly	-0.0008250672552983828
ot	-0.0008250642499343427
eat	-0.0008241601342209582
exported	-0.0008237169432576354
surpluses	-0.0008236209405979326
borrowing	-0.000823247368492684
statehood	-0.0008223109367538287
precious	-0.0008222367277606939
C..	-0.0008221414917485316
Elections	-0.0008220624872415591
fulfill	-0.0008215123746772136
beloved	-0.0008207406086401137
compelling	-0.0008206016540252287
publicity	-0.0008205809874910564
repairs	-0.000820517036525457
consensus	-0.0008204858429493205
deputy	-0.0008202256835325474
biggest	-0.0008201638190871744
essence	-0.0008189945097285122
surprise	-0.0008186063654465203
consulted	-0.0008177520672222312
judiciary	-0.0008174438961758878
Drug	-0.0008168683099249465
3.000.000	-0.0008168044872519095
files	-0.0008164622300041604
jail	-0.0008160922956401971
wereayes	-0.0008158597368142048
regularly	-0.0008156865084913282
Arab	-0.0008155859049346478
levy	-0.0008153218394116267
Survey	-0.0008150753112466414
chose	-0.0008149654265075245
projected	-0.0008145740113673683
mill	-0.0008144465767927802
freeze	-0.0008144287572440542
guide	-0.0008137697732835664
inspiration	-0.0008135907435878642
departure	-0.0008134162621072696
Loan	-0.000813110125496365
recreation	-0.0008128197513754289
lets	-0.0008125259193347585
heat	-0.0008116410799308292
disclosed	-0.0008115276933780993
tariffs	-0.0008111642743936735
steam	-0.0008110333579863239
catch	-0.0008106450115607276
1979	-0.0008104931799881267
Edward	-0.0008103940391217706
regulated	-0.0008102048911537355
merchandise	-0.0008100460590818281
outset	-0.0008099506322686248
Increase	-0.0008098110467420939
Job	-0.0008097411129533721
1.200	-0.0008091129792954964
exposed	-0.0008088724078775394
Moscow	-0.0008088149689451308
campaigns	-0.0008086827872782588
Five	-0.0008083741581127405
kindly	-0.0008081943926221695
neglect	-0.0008079276796100387
speaker	-0.0008077015300844189
physician	-0.0008061349280421727
Railway	-0.0008055696501963886
Reclamation	-0.0008054125919481493
refusal	-0.0008053421906552002
graduated	-0.0008048934286292759
monument	-0.0008047816195789536
Porto	-0.0008047637142207101
distant	-0.0008042435747630742
il	-0.0008042367681788642
reward	-0.0008041834108779108
Captain	-0.0008039792558249123
disastrous	-0.0008031896593204924
destructive	-0.0008026277150652194
countless	-0.000802372689011862
La	-0.0008023525201219674
manage	-0.0008023313753820242
guidelines	-0.0008020656280186361
economical	-0.0008020094972313288
Arms	-0.0008019175064810247
1950	-0.0008018891740426182
Miss	-0.000801515215900195
imprisonment	-0.0008014631131787549
Within	-0.0008009005037828697
charity	-0.0008008451979048618
mechanism	-0.0008007748849605628
1890	-0.000800332491465883
motions	-0.0008000477197518594
4th	-0.0007999753803200206
wall	-0.00079921225962981
p.m.	-0.0007989634086372733
r.	-0.0007987091863042797
reconciliation	-0.0007983230784270784
establishments	-0.0007977267299641741
issuance	-0.0007975351891311922
tenure	-0.0007974868652842964
falling	-0.0007973873477930831
dark	-0.0007973847660916067
vetoed	-0.0007973793002571595
Environmental	-0.0007973120839715268
risen	-0.0007971928487871035
conspiracy	-0.0007970193861097838
43	-0.0007969456261983958
invitation	-0.0007964164397006187
postage	-0.0007963634974887241
identify	-0.0007962424706853922
inherent	-0.0007959349577570422
Pentagon	-0.0007956495616974078
praise	-0.0007954632134533331
supporters	-0.0007954080663698159
NASA	-0.0007952465140886988
whisky	-0.0007951820267949184
vicious	-0.0007946760100676594
cross	-0.0007946517079653486
presidential	-0.0007944153113069712
wherein	-0.000794389373150798
gallon	-0.0007937974042964407
relieved	-0.0007936851503604171
boundary	-0.0007933973245700891
floods	-0.0007932729302104954
alternatives	-0.0007931778086826158
95	-0.0007931248937948373
cosponsors	-0.0007927227895078894
erection	-0.0007923171721646437
sheep	-0.0007922075936570828
deliberate	-0.0007921775466360161
deserving	-0.0007917742370667502
busy	-0.000791729160486049
promoted	-0.0007915610356446919
sacrifices	-0.000791154380563736
motor	-0.0007906849982272028
rooms	-0.0007904902214084397
needy	-0.0007902925330996231
lying	-0.000790277807322788
terrorists	-0.0007895957936089435
indicating	-0.0007894009303534272
Price	-0.0007890658024330619
adjust	-0.0007886200704690343
decreased	-0.0007885766022668518
compulsory	-0.0007883982592642739
hammer	-0.000788262291635694
signal	-0.0007882443716546152
postmaster	-0.0007881099636470063
unknown	-0.0007879786029049941
reminded	-0.000787873649465631
daughter	-0.000787312230512244
contracted	-0.0007873095537254181
injuries	-0.0007870594710408983
failing	-0.0007868639664216602
deaths	-0.0007867207212057349
administrator	-0.0007863280269190236
calculated	-0.0007859986915514624
dependents	-0.0007855816308877204
validity	-0.0007850723706338376
wood	-0.0007841621758879461
executed	-0.0007840636061670396
declaring	-0.0007840187464920082
intervention	-0.0007839858353076889
anticipate	-0.0007838528077209564
hostile	-0.0007831428060199938
perspective	-0.0007828541236586384
behavior	-0.0007820631065992048
41	-0.0007819378787485528
safeguard	-0.0007817756265604532
merchants	-0.0007809615671160223
bids	-0.0007803855399929595
Police	-0.0007803771190598967
assessed	-0.0007801467895447494
cable	-0.0007801202088327745
fate	-0.0007797939592051408
.of	-0.000779588383273891
accepting	-0.0007794094583731641
probability	-0.0007793992414415457
automatically	-0.000779244793855768
clerical	-0.0007791180737234866
Steel	-0.0007779264653259804
captain	-0.0007778844463958174
Walter	-0.0007777941424268502
wind	-0.000777571637802383
50.000.000	-0.0007769639098803415
reviewed	-0.0007766312059803822
Sam	-0.000776577395269326
transition	-0.0007765387518227594
atmosphere	-0.0007763880616249834
eligibility	-0.0007762347883353069
appearance	-0.0007761471006784756
politically	-0.0007753325214804725
educate	-0.0007749206306498875
39	-0.000774483639531725
possibilities	-0.0007742207121532535
Cross	-0.0007741058255421159
1969	-0.0007740258879703448
Free	-0.0007739095895910471
gradually	-0.0007735454597596472
Freedom	-0.0007734856250902048
rice	-0.0007732979147615259
Harry	-0.000773012929317848
deposited	-0.0007729460635419823
letting	-0.0007725554685595304
lasting	-0.0007725073885022919
Urban	-0.0007721498336236401
confine	-0.000771891811966136
1956	-0.0007710946289569009
ammunition	-0.0007709888826542309
businessmen	-0.0007688831566932971
shoes	-0.0007683333085483372
ridiculous	-0.0007682169635541849
entertain	-0.0007682097581274029
moderate	-0.0007680801900567367
See	-0.000767249897123502
mayor	-0.0007671144277466371
sailors	-0.0007670902811278646
wont	-0.000766987749951741
contrast	-0.0007662264078345873
Maybe	-0.0007660339595128069
distribute	-0.0007654375517989574
1971	-0.0007652374979748628
interruption	-0.0007649536324610303
budgets	-0.0007649137390561801
arisen	-0.0007646175493889894
publications	-0.0007642361465395494
inability	-0.0007641004625428728
choices	-0.0007640300887134306
situated	-0.0007638629117109866
prohibiting	-0.0007638110672749747
Fair	-0.0007637677997684647
parent	-0.0007632791923790802
thats	-0.0007622896517426082
Right	-0.0007617225202386092
negotiation	-0.0007616584260221281
aged	-0.0007616154974747644
witnessed	-0.000761374269100106
prevailed	-0.0007610853078165266
claiming	-0.0007610166295351638
refusing	-0.000760966499939513
oleomargarine	-0.0007608447931971183
TVA	-0.0007608104446966875
adjourned	-0.0007605502899079762
locality	-0.0007599584838192307
13.	-0.0007596609767661315
continually	-0.000759097295418099
pledged	-0.000759078751431337
discover	-0.0007589334880278288
initiatives	-0.0007588579574510738
telegrams	-0.0007586294182717919
delegate	-0.000758388644222093
ie	-0.00075838429402403
amending	-0.0007579820396538227
measured	-0.0007578378961025795
redemption	-0.0007578157113868512
Ireland	-0.0007573332494010494
ir	-0.0007570276082651423
gap	-0.0007569912798767505
Professor	-0.0007569576481728118
motive	-0.000756800081604441
exceptional	-0.000756793398909164
winning	-0.0007567238820068435
Article	-0.0007564013952723298
Technology	-0.0007563409957617553
strongest	-0.0007561295548513214
1948	-0.0007559802137055751
AIDS	-0.0007559465503784161
chances	-0.0007558272729832332
noticed	-0.0007549057558830737
recommends	-0.0007545908516508465
1988	-0.0007544996092983248
ties	-0.0007543426549548578
objectionable	-0.0007542236016677364
tactics	-0.0007541272410148428
ing	-0.0007540573366342935
fruits	-0.0007538613214711077
availability	-0.000753772384698672
14.	-0.0007537652987942774
exceeded	-0.000753750612426573
lots	-0.0007532195886663651
leases	-0.0007528699651265475
centuries	-0.0007528209752244718
denial	-0.000752679426406116
soul	-0.000752648725653045
Colombia	-0.0007525141653943975
interpreted	-0.0007519565978610088
directs	-0.0007508821669329742
costing	-0.0007508494297112314
issuing	-0.0007507569997675582
disappointed	-0.000750660285407589
scarcely	-0.000750416824297906
Advisory	-0.0007503515138687974
1958	-0.0007503238798267422
headquarters	-0.0007503006002414602
Pt	-0.0007501687810945996
assignment	-0.0007496734334547019
arbitration	-0.0007492499514672712
52	-0.000748898258908812
slightly	-0.0007488756719698528
condemn	-0.0007487390360068385
touched	-0.0007486058873473273
grains	-0.000748520388269281
offenses	-0.0007484742482002526
Reconstruction	-0.0007484041240776097
investors	-0.0007483650853977796
rebellion	-0.0007481418144542978
corner	-0.0007480537371114566
Daily	-0.0007480495697837476
20.	-0.000747869176266007
contributing	-0.0007478643252655432
causing	-0.0007476220905651739
constitutionality	-0.000747488115880597
traditions	-0.0007474549688430709
margin	-0.0007473797029534663
devastating	-0.0007471559419066846
economics	-0.0007469528109383511
breaking	-0.0007468390263299547
ii	-0.0007465445699014595
insofar	-0.0007461397590945135
doubts	-0.0007461285853434386
Commodity	-0.0007459821322369475
owing	-0.000745965649842088
shares	-0.0007456803981642865
applaud	-0.0007452833744622994
Adams	-0.0007451774754511354
SEc	-0.0007449370256898264
Clearly	-0.0007449088920945877
NW..	-0.0007447958213902214
shift	-0.0007446403696695646
statesman	-0.0007445297702995322
h	-0.0007442218524773286
laborer	-0.0007440440633218866
foster	-0.0007440422332813249
convenient	-0.0007436721100953677
slavery	-0.0007435902122086711
confirm	-0.0007434544164434344
1961	-0.0007431818952609725
partial	-0.0007431694383228921
hot	-0.0007431521618702178
criticize	-0.0007422401321459115
drastic	-0.0007422157152087647
punished	-0.0007421664789739591
Iraqi	-0.0007421160082139927
metals	-0.0007418145009915639
criticized	-0.0007417957350328024
capabilities	-0.000741728494076486
approaches	-0.0007414168792596889
actively	-0.0007413267530173618
implemented	-0.0007409262066081575
technological	-0.0007408883833738182
balances	-0.0007407974570968145
expertise	-0.0007406792130018596
exchanges	-0.0007399393644210311
inclusion	-0.000739840624658729
pause	-0.000739620146596708
Madison	-0.0007390870647910249
silent	-0.0007388800572343823
1987	-0.0007387300891113184
Important	-0.0007386672330289311
fuels	-0.0007374207636846983
guaranty	-0.0007372013450264811
requesting	-0.0007371251604495807
concessions	-0.0007371213602871561
trucks	-0.0007370864345380142
impeachment	-0.0007370570112296559
nominated	-0.0007370351292153006
Pittsburgh	-0.0007369248739043156
1933	-0.0007365359940245363
economies	-0.0007362477611294625
1962	-0.0007362225351641831
1966	-0.000735484518982217
fly	-0.0007350154795254329
the-	-0.000733839037461088
regulating	-0.0007334975664923793
Shipping	-0.0007334920072118603
substantive	-0.0007334619545926213
initiated	-0.0007331569559569329
a.m.	-0.0007330982265877984
incorporate	-0.0007330691838878412
plea	-0.0007330014664849795
removing	-0.0007327969434847441
accountability	-0.0007326614256329815
Warren	-0.0007326492916878701
music	-0.0007322325914553494
postmasters	-0.0007318408386638469
Accounting	-0.0007317447036475189
valuation	-0.0007305244838260121
charitable	-0.0007304542634566908
sentiments	-0.000730321039870602
ment	-0.0007300122104947979
suspect	-0.0007297598867128333
denying	-0.0007294938489373516
Senates	-0.0007284749717883699
noon	-0.0007284638609851624
Major	-0.0007284095141167873
cruisers	-0.0007283519918912479
beer	-0.0007281768694042794
politicians	-0.0007281335717573863
nonprofit	-0.0007280575673565264
operates	-0.0007273296274488657
injunction	-0.0007270580974472165
doubtful	-0.0007267098560444392
nominees	-0.0007266034006111064
1967	-0.0007265043028116189
financed	-0.0007260596001488023
handed	-0.0007259853201796072
computer	-0.000725367001772724
filibuster	-0.0007250018868183415
lesson	-0.000724822443077818
focused	-0.0007246854640312598
negotiating	-0.0007245848652538352
Miller	-0.0007243247063581194
till	-0.0007241552051077183
oi	-0.0007240930023455146
J	-0.000723955186612264
Tile	-0.0007237834631629972
acquainted	-0.000723700571519645
masses	-0.0007234692243689353
deficiencies	-0.0007232677327745535
18.	-0.0007230259646599395
16.	-0.0007229661833539292
newly	-0.0007229416804305187
yours	-0.0007228556904390845
ably	-0.0007227994248641319
inspired	-0.0007227117248565532
enabling	-0.0007226802811938511
DC	-0.0007225874123940353
mighty	-0.0007225280138649259
sincerity	-0.0007224175650907806
CONGRESSIONAL	-0.0007222820305203821
Highway	-0.0007220771166426135
endeavoring	-0.0007219887079468346
Old	-0.0007211015999133629
utilization	-0.0007210016239429018
accomplishment	-0.0007208667704107997
pipeline	-0.0007206089505318211
Vote	-0.0007200370458395519
ongoing	-0.000720001536488367
expire	-0.0007192517018858242
Recently	-0.0007190280358222998
Empire	-0.0007190062283101759
threaten	-0.0007186891648386932
ancient	-0.0007184504452053444
transmitted	-0.0007184291842018377
omitted	-0.0007182961370603293
fruit	-0.0007178475402513901
owes	-0.0007177273872119979
metropolitan	-0.0007176996303964843
seized	-0.0007175285844000112
supplement	-0.000717527552710379
illustrate	-0.0007173794157530454
consists	-0.0007173739700915796
sun	-0.000717142062035303
51	-0.0007167201505950594
sudden	-0.0007165236630890463
submarine	-0.0007163487338397465
statesmen	-0.0007161977406596713
120	-0.000715935628735106
Whenever	-0.0007156814633494113
sixty	-0.000715180625812844
worry	-0.0007150183226616697
abolished	-0.0007147251578432911
wire	-0.0007144933736029376
shore	-0.0007142724757739805
competitors	-0.0007142244898512295
certainty	-0.0007142195494487799
heartily	-0.0007141212587623489
al	-0.0007140280273990273
municipalities	-0.0007139246401821839
plight	-0.000713394524209053
privately	-0.0007132878549831168
feasible	-0.0007124198825860396
Amendments	-0.0007123753330868719
17.	-0.0007121442271024022
marketplace	-0.0007118348574639095
Electric	-0.0007116645812726488
Jim	-0.0007113296340435731
accurately	-0.0007111532330521215
Consequently	-0.0007110528392286808
intellectual	-0.000710950919573819
regards	-0.0007109161559031811
Italian	-0.0007105675100935588
parallel	-0.0007103516860862818
herself	-0.0007096435580117635
laying	-0.000709577980350327
challenged	-0.0007095449581725567
pray	-0.0007086475146948242
partly	-0.0007084525205987257
1946	-0.0007084515265128533
steadily	-0.0007084334967624617
birthday	-0.0007080897463805576
agenda	-0.0007080096573028888
Infantry	-0.0007076502703863082
decree	-0.0007076255280788124
imposition	-0.0007074860708362465
officially	-0.0007074320975344922
Exchange	-0.0007072059793247867
fears	-0.0007071863695105729
farther	-0.0007071538323424037
legacy	-0.0007068429359745284
authorizations	-0.0007065428221321952
1940	-0.000706529153372884
46	-0.0007055861990644604
47	-0.0007054776871975452
Monroe	-0.0007052057506120402
constituent	-0.0007049305408569404
tribal	-0.0007048999173234588
affordable	-0.0007048015091275841
1957	-0.0007043726024599225
shipment	-0.000704102345244734
possessions	-0.0007040602495538459
approaching	-0.0007040360645495328
elementary	-0.000703812956316062
Am	-0.0007037976317448108
unity	-0.0007037681012606613
defending	-0.0007035574573687479
seeds	-0.0007035287470186962
victim	-0.0007035062943062272
overwhelmingly	-0.0007033251305378962
exercising	-0.0007032002373697176
dramatically	-0.0007029044497526244
absurd	-0.000702734024609754
appealed	-0.0007026918340364542
continuance	-0.0007025293052959348
T	-0.000701950054200392
genius	-0.00070183496549551
judgments	-0.000701520419926565
admits	-0.0007014551658170997
Employment	-0.0007012734217354698
hill	-0.0007012386352822221
uncertain	-0.0007010031091475262
inevitably	-0.0007009772224413821
assisted	-0.000700795840277309
hopefully	-0.0007000722381291464
achieving	-0.0006996895013333235
exploration	-0.0006992569031743337
toll	-0.0006990072727398179
Scott	-0.0006988162547376067
notion	-0.000698748253404265
designation	-0.0006987299110468707
Thats	-0.0006983863865585133
Hawaiian	-0.0006981336263715775
disclose	-0.0006978518266111537
-and	-0.0006976704041000705
bench	-0.0006976348403797857
discovery	-0.0006970488946195537
sanction	-0.0006969847408847087
applicant	-0.0006969072968257118
notify	-0.0006969044921347619
remote	-0.0006968123566068601
void	-0.0006965126617119314
devote	-0.0006960317732171446
output	-0.0006958330561681773
writer	-0.0006949974889479621
favors	-0.0006946867759865863
1993	-0.0006945777598660189
tyranny	-0.0006944691266922788
separately	-0.0006930500996862016
homeland	-0.0006922921002963674
conclusive	-0.0006922414571285455
1947	-0.0006920651220301911
concrete	-0.0006919288287099907
reduces	-0.0006918380324607708
Santa	-0.0006913119187189678
drought	-0.0006912438776917084
Look	-0.0006911924764905938
displaced	-0.0006907421599585241
afterward	-0.0006906780106410802
resistance	-0.000689887925909186
doubtless	-0.0006898850546347184
tool	-0.0006897920403373163
suffrage	-0.0006897678164445047
stimulus	-0.0006896776275319361
Later	-0.0006895973937951725
accidents	-0.0006891151632234822
62	-0.0006890063871319111
accuracy	-0.000688541240743585
strengthening	-0.0006880863605116848
races	-0.0006876382782278817
generated	-0.0006873718272271746
keeps	-0.0006869138630294583
ruin	-0.0006866772963220498
determines	-0.0006863340210870351
Howard	-0.0006861342141210038
quiet	-0.0006859771913635558
reimbursement	-0.0006857420417966156
Bob	-0.0006854239896960634
execute	-0.0006853867092271185
pointing	-0.0006851370162458314
reaction	-0.000684729998137648
Rock	-0.0006844460751276243
accumulated	-0.0006839305839602452
typical	-0.0006836642401416226
pain	-0.0006836224388797737
patience	-0.0006835660662914729
recommending	-0.0006826652822882201
component	-0.0006826447907561449
network	-0.000682586376107801
Nelson	-0.0006825774689205853
efficiently	-0.0006825666624124179
outcome	-0.0006822908287789617
refuses	-0.0006821605906504445
hazardous	-0.0006818636759359092
Michael	-0.0006816361376319588
panic	-0.0006816316899095232
precise	-0.0006815976821293151
misunderstood	-0.0006814668465007568
debtor	-0.0006813710397517343
specially	-0.0006809196861568814
delays	-0.0006806810984819118
broadcast	-0.000680041057189965
warm	-0.0006798492138776295
waiver	-0.0006798250213004616
inclusive	-0.0006797912964962365
vulnerable	-0.0006795759811540774
1955	-0.0006793424514809527
practiced	-0.0006791986396808141
aggressive	-0.000678463445237465
troubled	-0.0006783283359340012
revealed	-0.0006780278951797696
corrupt	-0.0006778283985762086
Four	-0.0006777448262496864
manifest	-0.0006772289152503264
bomb	-0.0006767168295455313
Could	-0.0006763522608062525
Shoals	-0.00067632670312921
pursuit	-0.0006757874293028708
coordination	-0.0006757781954129378
telegraph	-0.0006757220598925602
Little	-0.0006756570290242648
experiences	-0.000675539481138515
misunderstanding	-0.0006754242148009831
submarines	-0.0006752645799140133
protects	-0.0006752252185242745
avail	-0.0006750454644763698
tens	-0.0006747779343294258
Hence	-0.0006745572195252341
helpless	-0.0006744268341354019
advisable	-0.0006741780382231197
survival	-0.0006741046080610911
lady	-0.000673864845326959
Taft	-0.0006738118590713258
hungry	-0.0006735206655564968
1963	-0.0006733838252634551
animal	-0.0006731295872951478
waive	-0.0006723984485273498
pursuing	-0.0006723125178467532
Deputy	-0.0006722505531859349
formation	-0.0006720903959394874
21.	-0.0006719935362858218
glory	-0.0006719769637156781
reasoning	-0.0006718337289217977
1989	-0.00067147228661894
globe	-0.0006714411366527685
impressive	-0.0006713547300032652
debatable	-0.0006713083404710338
endeavored	-0.0006712572992468136
Throughout	-0.0006707663992715619
trustees	-0.0006706312576391454
territorial	-0.000670630119599389
1992	-0.000670233768385825
exemptions	-0.0006701740862328229
traveled	-0.000670146480170628
instruct	-0.0006700004328113095
watching	-0.000669913901837928
arguing	-0.0006698223088377367
Concurrent	-0.0006694633365696574
avoided	-0.0006691296054309721
neighbor	-0.0006689341333316077
adult	-0.0006688952115698555
Ocean	-0.0006686243048391097
endorsed	-0.0006685599491861237
hoping	-0.0006684764056480077
Green	-0.0006681472393297526
importations	-0.0006681097951658613
militia	-0.000668078820030187
enrolled	-0.0006678420992443348
succeeding	-0.0006678120442984013
childrens	-0.0006676950232974549
airports	-0.0006676265203069521
faithfully	-0.0006670444791557832
missions	-0.0006669384332153452
mileage	-0.0006668526938840697
band	-0.000666743845636036
acknowledged	-0.00066665560663471
neutral	-0.0006665617274902158
characterized	-0.0006662820782518332
overlooked	-0.0006661259905185995
scene	-0.0006660942671645245
posts	-0.0006660631315021421
Presiding	-0.0006660404846950237
medium	-0.0006659489399432087
1991	-0.0006659021382054717
Douglas	-0.0006658040951526827
borrowed	-0.0006656088372114134
salute	-0.0006654014813500667
Maritime	-0.0006647212245575337
engrossment	-0.0006645886663705608
signs	-0.0006645207840865426
Declaration	-0.0006644659222069162
freedoms	-0.0006638514056314098
75.000	-0.0006637668311408882
Buildings	-0.0006635214797275945
worthwhile	-0.000663375923172085
recreational	-0.0006633020379572549
insufficient	-0.0006631368654145053
flour	-0.0006631275166598833
recipient	-0.0006629983001904783
1959	-0.0006627509897492581
waterway	-0.0006617682006563399
renewed	-0.000661762501627555
Taylor	-0.0006616676163410555
concentration	-0.0006615220392819467
confront	-0.0006614026221423239
doubled	-0.0006613732211624138
Greek	-0.0006613575000465422
outlays	-0.0006613189403364025
nurses	-0.0006613079739780382
Col.	-0.0006612469455725813
19.	-0.0006611767617819028
substituted	-0.0006609983408442104
5year	-0.0006608542312544598
exhibit	-0.0006607472625197481
commissioned	-0.000660628678781503
foregoing	-0.0006605713558575033
consequently	-0.0006605197519665566
suspicion	-0.000660431142017168
Bar	-0.0006603994647273243
sends	-0.000660195325350189
march	-0.0006598833980308743
occurring	-0.0006598738381131959
shelter	-0.0006598683137249075
examining	-0.000659852027527984
IV	-0.0006597446279363389
convey	-0.0006596656630373269
Basin	-0.0006593947911322171
sells	-0.0006587543937191816
Morgan	-0.000658501869718506
affidavit	-0.0006584752191041721
farreaching	-0.0006583150430093276
replied	-0.0006581116459327817
pocket	-0.0006579853237283708
trains	-0.00065798468342697
halt	-0.0006578740237223419
72	-0.0006575819077106744
spot	-0.000657481545845256
49	-0.0006569250566202285
Lithuania	-0.0006568948490587374
solved	-0.0006567603841405627
tested	-0.0006566869178661381
participants	-0.0006564906587959539
mountains	-0.000656437806221181
artificial	-0.000656327828854197
coins	-0.0006562780970793386
Co	-0.0006562718454556892
instant	-0.0006560920612227137
leasing	-0.0006559569887331987
Presidency	-0.0006552840833236661
advancement	-0.0006552696017919508
munitions	-0.0006551614820421467
framework	-0.0006550629982340765
consult	-0.0006548204444372317
Hamilton	-0.000654788488848487
lists	-0.0006543477638145
renewal	-0.0006543031520033595
starts	-0.0006541430589876506
cap	-0.0006541058768709959
federally	-0.0006539008564455136
tract	-0.0006537627666583934
Hitler	-0.0006535052456493666
oppression	-0.0006534501008245251
Everybody	-0.0006533833164657043
Space	-0.0006531611018750366
errors	-0.0006531430290592619
reciprocity	-0.0006529037528656741
8.000	-0.0006528168412597444
tide	-0.0006526011986651149
Natural	-0.0006522996309178212
pace	-0.0006517955807812924
irresponsible	-0.0006515746413224265
1934	-0.0006511215614478171
brilliant	-0.0006507403871006854
exceeds	-0.0006507284139907821
assurances	-0.0006503693733058766
Taiwan	-0.0006502875639936028
Independent	-0.0006501546319207697
Atlanta	-0.0006501380984397314
isnt	-0.0006499418203862225
servants	-0.0006498141490870959
Legislative	-0.00064971390124899
Yesterday	-0.0006496415037262947
1932	-0.000649590343861721
collector	-0.0006495521492097755
Tom	-0.0006492161983705052
airplane	-0.0006491242411156661
1929	-0.0006490865726954004
neglected	-0.0006490144356597923
automatic	-0.0006489701768834628
professor	-0.0006489105459428938
viewpoint	-0.0006483141310760156
ceased	-0.0006482293753764076
push	-0.0006480097741774661
depreciation	-0.0006478547995701668
Father	-0.0006467988522562252
legislators	-0.000646766063700103
regiment	-0.0006465815923011211
Brazil	-0.0006462598977128914
60.000	-0.000646087804997158
truck	-0.0006458704891594418
speculation	-0.0006458041517836816
1949	-0.0006457308551771468
plainly	-0.0006456869065083908
adjacent	-0.0006455459479411607
bitter	-0.0006451743720383387
Portland	-0.0006449204305010128
crew	-0.0006449170488770017
edition	-0.0006448729336962942
terminate	-0.0006444751279083837
Merchant	-0.0006444351324612411
2001	-0.0006443871265157433
indefinite	-0.0006442098590647042
peacetime	-0.0006440398482127306
Women	-0.0006431157136418058
categories	-0.0006428519403620112
20th	-0.0006426679611885418
corresponding	-0.0006426651377102145
exposition	-0.0006426313023473875
alluded	-0.0006425593207064756
Daniel	-0.0006425163749333356
coordinate	-0.0006420349251899304
tired	-0.0006420219550292699
captured	-0.0006419648142225404
Joe	-0.0006417954647034032
subdivision	-0.0006416673887261159
pursuance	-0.0006416195557709891
pressures	-0.0006415765169548536
fron	-0.0006415595193495232
Insular	-0.0006414752670204359
churches	-0.0006413618618131905
disadvantage	-0.0006412254970163577
reside	-0.0006410855310814355
instituted	-0.000640870234291386
collecting	-0.0006408664742858568
turns	-0.0006408660654814483
prevents	-0.0006408078385687277
audit	-0.0006406473177552976
experiments	-0.0006405615530377924
studying	-0.0006404533257453325
civilians	-0.0006403120179441044
Industrial	-0.0006401106547821915
pressed	-0.0006400782836747874
applicants	-0.0006397699236870898
scattered	-0.0006395827453838549
cooperatives	-0.0006395779600407822
wasted	-0.0006393133369391324
22.	-0.0006388982751932612
partially	-0.000638653438229848
rises	-0.0006384689653014723
considers	-0.0006383682033935774
disturbing	-0.0006382837197396601
20.000.000	-0.0006381565898579352
Anderson	-0.0006377520210920123
franchise	-0.0006376326073523514
vacancies	-0.0006375872725816617
awareness	-0.0006374224868844533
900	-0.0006372182525831794
steady	-0.0006371877046022341
contemplate	-0.000637086585786777
minerals	-0.0006367597161324354
Arthur	-0.000636394776391873
selfgovernment	-0.0006361296658075705
joining	-0.0006359293796807896
maritime	-0.0006359178744580872
moratorium	-0.0006356635607595778
K.	-0.0006355179066818453
Parliament	-0.0006355035946590739
shop	-0.0006354978630672942
expectation	-0.0006351948970717096
1945	-0.0006351477973029014
ordinarily	-0.0006339979698920722
Houston	-0.0006339290659047617
inflationary	-0.0006339278754930982
failures	-0.0006338274718697706
authors	-0.0006336642386452181
missing	-0.0006332852008519201
storm	-0.0006332815446680966
1996	-0.0006331772774917732
deliberations	-0.0006329576576562736
partners	-0.0006328725379910315
E	-0.0006327753206394965
match	-0.0006326997542504882
asset	-0.0006325338143696791
dinner	-0.000632441511474804
roughly	-0.0006324208692891865
consisting	-0.0006323503127154846
attained	-0.0006323379219276071
subsidized	-0.000631929256103414
beauty	-0.0006319159661452033
inspector	-0.0006317229081246816
Haiti	-0.0006313602398090979
negro	-0.000631123012735172
precinct	-0.0006309630180453917
ally	-0.0006307581328771573
vigorously	-0.0006306973748222553
commended	-0.0006300642999711344
insured	-0.0006300510096536205
habit	-0.0006296540441873861
demonstrates	-0.0006293578780584911
discriminatory	-0.0006292776430588961
plate	-0.000629269956164785
cards	-0.0006287013923766301
conscientious	-0.0006286874500787393
rhetoric	-0.0006286462160470662
honoring	-0.0006286123628853111
sixth	-0.0006280834141098737
homeless	-0.0006279710099926781
desperately	-0.0006276622001016468
grandchildren	-0.0006273344807059978
Tribune	-0.0006272817433301107
pool	-0.0006272157310989848
anti	-0.0006271629894434093
53	-0.000627062277942152
Cox	-0.0006270048942705803
arranged	-0.0006269317313794002
pull	-0.0006267558876691357
Sixth	-0.0006263760533677994
undue	-0.0006262919012929513
loaned	-0.0006262736695636248
watched	-0.0006262035403541836
affection	-0.0006261323487361831
Rural	-0.0006256397535482924
adults	-0.0006255448374156754
appreciated	-0.0006254495924182405
separation	-0.0006250927554463395
premises	-0.0006248549101571697
arid	-0.0006248099595224864
purchaser	-0.0006247253115449283
coastal	-0.0006244457397156237
shipments	-0.0006239723177840572
electronic	-0.0006238436221779432
conventional	-0.0006238329162273316
undermine	-0.0006236896383706485
contracting	-0.0006235739374313319
4.000.000	-0.0006234857800356116
induce	-0.000623403695876
onto	-0.0006233509447125727
relationships	-0.0006232957851444773
indirect	-0.000623237924456338
54	-0.0006230186189504507
techniques	-0.0006229046541732948
defenses	-0.0006228056449520856
embrace	-0.0006227791862154933
1930	-0.0006227442440454006
airplanes	-0.000622559821001523
physically	-0.0006222335314068582
structures	-0.0006220191752263888
cruel	-0.0006220094093866827
payroll	-0.0006219793863673496
indictment	-0.0006218531893752605
Frankly	-0.0006216489257590707
qualification	-0.0006216462298451885
Iron	-0.0006216246412660767
quit	-0.0006216052774513838
chooses	-0.0006207960094690582
intentions	-0.0006207866115623531
visitors	-0.000620526822132715
providers	-0.0006205131234451891
Fisheries	-0.0006201431161549191
household	-0.0006199974382707534
1.5	-0.0006199784664945019
Berlin	-0.0006197708645359665
disagreed	-0.0006196413592266946
1942	-0.0006196236524937267
pork	-0.0006193440906032292
consolidation	-0.0006190276005537825
inland	-0.0006188002327830611
reconstruction	-0.0006187925286310226
battles	-0.0006187189526650623
ratify	-0.0006186960913745844
1995	-0.0006184763194275689
600.000	-0.0006184041502435252
Appeals	-0.0006183184450253709
sinking	-0.0006181631073404401
56	-0.0006180123160362787
y	-0.0006179537930475281
mountain	-0.0006179000541845904
deployment	-0.0006177432169765492
beings	-0.0006177140317693179
conflicts	-0.000617701476064295
longrange	-0.000617112860271217
ofthe	-0.0006169271705834652
extract	-0.0006168781840890582
innovative	-0.0006168335872738189
expedite	-0.0006167975869396068
commonly	-0.0006166221701836619
Muscle	-0.0006164675075176782
influences	-0.0006162400316199795
omnibus	-0.0006160116259642322
prevails	-0.0006156586417519965
Otherwise	-0.0006156501996603613
dependence	-0.0006154478157205567
chain	-0.0006154334223683868
explaining	-0.0006153625403759804
Denver	-0.0006153125539921473
1953	-0.000614849197902391
lift	-0.0006147635901836357
menace	-0.0006146968591478868
1939	-0.0006144959123025372
stone	-0.0006144731916792797
Earth	-0.0006143352012169655
towards	-0.0006141932590729128
Allen	-0.0006141681980408945
selfish	-0.0006139126210578217
emphasized	-0.0006138686110422768
separated	-0.000613653270523869
glass	-0.0006135400881464572
drafting	-0.0006132505608531848
concession	-0.0006131580808175532
conventions	-0.0006130158241608923
withholding	-0.0006130025181702395
mainly	-0.0006129821930915999
restoring	-0.000612981117573234
Mir	-0.0006129467313945692
penny	-0.0006128148751704028
valley	-0.000612488599481483
fortune	-0.0006123527242610401
recollect	-0.000612188058009276
segment	-0.0006121744261988865
rush	-0.000612093036406494
weekend	-0.0006118444812630485
openly	-0.0006115977708196193
Democracy	-0.000611265985740991
Out	-0.0006112435118879559
coffee	-0.0006110503347994421
outrage	-0.0006102269838693484
utter	-0.0006101682298624739
marshal	-0.0006100293558671215
Andrew	-0.0006099988810666528
survivors	-0.0006098596956497695
mandates	-0.0006094831667668545
rescue	-0.0006093717481488077
complied	-0.0006093693387537214
subcommittees	-0.0006093276404635828
Columbus	-0.0006092281410029032
extravagant	-0.0006090676901857367
implementing	-0.0006084576705312047
upward	-0.000608253328550428
interview	-0.0006081032678963004
allotments	-0.0006080713625698414
flexible	-0.0006079509531887158
implication	-0.0006076365739886868
12.000	-0.000607489774742268
m	-0.0006074213297168462
Roads	-0.0006071484048593463
buys	-0.0006071370639776457
interim	-0.0006068949608657293
partner	-0.0006068523387308049
concurrence	-0.0006064799454050438
editorials	-0.0006063274978455798
Workers	-0.0006061256058104259
excellence	-0.0006059560919215342
charging	-0.000605561231283026
signing	-0.0006054508079303539
versus	-0.0006053071581750498
answering	-0.0006051888315103159
Commissions	-0.0006049458209145652
targets	-0.0006047196809869879
presumption	-0.0006046380475012244
Egypt	-0.0006040878786935412
excused	-0.0006039572204624661
fellows	-0.0006039073055198196
1952	-0.0006038416482182412
dispatch	-0.0006034058568094982
desperate	-0.000603400092227463
enthusiasm	-0.0006032670273585416
quoting	-0.000603265263286556
administering	-0.0006032148550867934
reciprocal	-0.0006030261261641328
discriminate	-0.000602936658167667
host	-0.0006028030917832406
honors	-0.00060272635421598
Still	-0.0006027051498454237
sustains	-0.000602671997423753
woolen	-0.0006025484482094338
forcing	-0.000602496027757545
Falls	-0.0006020097060236234
greenbacks	-0.0006016920083529179
conceived	-0.0006014308130903012
loose	-0.0006011622256030705
messages	-0.0006011418425868315
Standards	-0.0006007956666893715
ideal	-0.0006000903160902944
Cincinnati	-0.0005998524135427942
impartial	-0.0005997855340406885
terror	-0.0005993753189157525
financially	-0.0005993509343468942
Mitchell	-0.0005992434917523765
hides	-0.0005990179077634897
incredible	-0.0005981879468984287
Guam	-0.0005981820756801218
Salvador	-0.0005981595404514857
undertakes	-0.0005980444768649425
Southeast	-0.0005978263946669714
Harris	-0.0005975731219615245
Undoubtedly	-0.0005975028283966736
guided	-0.0005968447744336253
Everyone	-0.0005967790908123739
adjustments	-0.0005965453096152529
Mayor	-0.0005965230085145718
1994	-0.0005963499106058477
waterways	-0.0005950862975553143
foreigners	-0.0005947233721793442
evaluation	-0.0005946046811517175
inferior	-0.0005945566513602926
Grounds	-0.0005942797757484008
signature	-0.000594102795252611
Alexander	-0.0005940949068491
literature	-0.0005939963658489703
brothers	-0.0005937808727866442
commence	-0.0005934620422424155
alliance	-0.0005932318417080096
predict	-0.0005932299146498254
laboratory	-0.0005930414202319994
delegated	-0.0005928752035789237
dying	-0.0005928738168206192
lake	-0.0005924793744093014
Training	-0.0005922449267143765
mostly	-0.0005922447120061586
grows	-0.000592212438780573
V	-0.0005920282722466664
complaining	-0.000591998781242793
complained	-0.0005919322494561376
Brooklyn	-0.0005918154666550555
ensuring	-0.0005916901009039978
1917	-0.0005916450413368772
dates	-0.0005914089983545047
drew	-0.0005913721345480016
fired	-0.0005913114799530681
budgetary	-0.0005910371478854763
Big	-0.0005909540293543917
experimental	-0.0005908585385117287
23.	-0.0005905162093474041
frauds	-0.0005903615758935656
mixed	-0.0005902114667191122
indulge	-0.0005900072051010513
2002	-0.0005899560076898917
threatening	-0.0005899515024781359
wear	-0.0005895456073634417
dispense	-0.000589370205646414
depending	-0.0005893588505306761
lengthy	-0.0005892067142935354
160	-0.0005891840438496668
desiring	-0.0005891230802500841
wartime	-0.0005891181284285091
nutrition	-0.0005890607614341828
Australia	-0.000588995746044854
hunger	-0.0005888611303008026
assumes	-0.0005887524924590711
bold	-0.000588622681525071
cent..	-0.0005885832486988324
holders	-0.0005885613873483013
pretend	-0.0005881990741621673
1921	-0.0005880210771127782
Acting	-0.0005879392325988091
pilots	-0.0005877835019641978
thrust	-0.0005877737512222273
gathering	-0.0005874694493634116
safer	-0.0005873961361791315
drilling	-0.0005873246311812867
minorities	-0.0005872251311378359
implied	-0.0005872075876094442
assisting	-0.0005871485416694925
interior	-0.0005870006845249269
troubles	-0.0005869296748896498
objecting	-0.0005868781172625772
Buffalo	-0.0005867746152746552
deciding	-0.0005867432367222944
beat	-0.0005867227853974074
scrutiny	-0.0005867053994197208
footing	-0.0005862570912035202
prosecute	-0.0005861595950408456
diversion	-0.0005861332504151505
bigger	-0.0005861028458698424
influenced	-0.000585986905615598
neutrality	-0.0005858712401465937
Circuit	-0.0005856221011308447
deductions	-0.0005855283039708221
conversion	-0.0005847617530142534
soft	-0.0005846467461037427
insists	-0.0005845716024486334
hut	-0.0005844266127461893
Wildlife	-0.0005843653519675382
exempted	-0.0005843614615060938
gladly	-0.0005843287604856011
25.	-0.0005840923840241024
Mountain	-0.0005840340473189156
incumbent	-0.0005838612661451065
outrageous	-0.0005837099897165998
constituency	-0.0005834403175603261
senate	-0.0005833204893791778
spirits	-0.0005828627968304677
24.	-0.0005827490939394034
2005	-0.0005826472414816442
consular	-0.0005824966743714182
1935	-0.0005822393681187919
interpret	-0.0005820758902447331
aye	-0.0005819309601094422
commanding	-0.00058172576884148
wells	-0.0005814918157607242
abundant	-0.0005813434968573172
exposure	-0.0005812561853099112
Far	-0.0005812492677220396
Tie	-0.0005812361436103844
Prime	-0.0005809691568877382
fraction	-0.0005808657018137284
misleading	-0.0005807656289670739
Reed	-0.0005804729640443726
lock	-0.0005802679354186126
Project	-0.0005802658611232303
Courts	-0.0005798267717384986
weekly	-0.000579545448981671
reversed	-0.0005795214843407517
deeds	-0.0005793350548159746
grazing	-0.000578814801332326
extravagance	-0.0005787540074460397
proportions	-0.0005787151277107631
retiring	-0.000578243046642423
talent	-0.0005781471122172546
expresses	-0.000577614641876861
SMITH	-0.000577144107090738
expects	-0.0005769367838061192
defendants	-0.0005768031029074265
revolutionary	-0.0005767513135219781
enlarge	-0.0005763716566201415
remedies	-0.0005762015772267144
fires	-0.0005761320957139099
erect	-0.0005753083524896816
prospective	-0.0005752912413940326
terminated	-0.0005752748930246667
CIA	-0.0005748320771959687
domination	-0.0005747914421571608
1941	-0.0005746658786492996
iii	-0.000574641791094332
imagination	-0.0005746227999692793
tolls	-0.0005745873280191043
Production	-0.0005744800954042257
Prior	-0.0005741803717628673
1922	-0.0005741782684712765
index	-0.0005739835825739652
institute	-0.000573936028654651
enumerated	-0.0005739063460544791
frame	-0.0005738643370690542
resignation	-0.000573590899000089
replaced	-0.0005735478013037349
yourself	-0.000573499375373824
attractive	-0.0005734538295799836
violates	-0.0005732571796121239
Wallace	-0.0005729235470267529
constructing	-0.0005728791516230498
Youth	-0.0005728457092913148
Jobs	-0.0005727851297190388
imposes	-0.000572673241407524
Life	-0.0005726594961394112
replacement	-0.000571834354251525
HUD	-0.0005717351451849702
lakes	-0.0005716101191672607
Sea	-0.0005714834110811127
herewith	-0.0005711833207667087
ignorance	-0.0005711251363700751
potentially	-0.0005711009042275596
village	-0.0005709724369963145
Men	-0.0005708481190920879
dealer	-0.0005707921525453781
-that	-0.0005707588114173239
KENNEDY	-0.0005706434036856637
Pakistan	-0.0005705999514744423
entertained	-0.0005705789606320645
Herald	-0.0005703695452590404
fisheries	-0.0005697729906364721
confronting	-0.0005697279087680108
deferred	-0.0005695687558199391
enforcing	-0.0005694498704849223
Christmas	-0.0005694397962065285
Uncle	-0.0005693395286311035
History	-0.0005692278513430086
withheld	-0.0005690740138144416
aim	-0.0005687952555713334
bind	-0.0005687680718798229
Investigation	-0.0005685845095756527
fullest	-0.0005685357950451781
Clean	-0.0005685215039880301
threatens	-0.0005685114700782079
Continental	-0.0005682565448768313
lobby	-0.0005681536661791188
hogs	-0.0005677784444911326
certify	-0.0005676311265151203
devised	-0.0005675185781794679
labors	-0.0005673219697295174
liquors	-0.0005668295721136017
concludes	-0.0005667257103507459
inquiries	-0.0005667072639836761
incidental	-0.0005666656802214547
transported	-0.0005665442185873882
Sometimes	-0.0005661303225018403
restrictive	-0.0005660648672926883
insisting	-0.0005660552056331029
accountable	-0.0005660502150376401
entitlement	-0.0005658930990378421
occupying	-0.0005658734944293635
15th	-0.0005658461501546814
bargain	-0.0005657384133749919
champion	-0.0005656664553091338
confused	-0.0005656320696332784
bombing	-0.0005655982379836514
elaborate	-0.0005655543426279696
firstclass	-0.0005654269890589024
diverted	-0.0005653849836501171
1938	-0.0005652468249488716
Zone	-0.0005652173441697631
Jack	-0.0005652143345859921
aided	-0.0005644584886291379
overdue	-0.0005644435492939292
lessons	-0.0005643186629606658
star	-0.0005640016846887035
R	-0.0005638795541084095
speakers	-0.0005638694820948789
degrees	-0.0005636465286783642
occupant	-0.000563538521766801
prudent	-0.0005634123449009256
congratulations	-0.0005631359257730419
originated	-0.000562691394018137
satellite	-0.0005626586210347811
strengthened	-0.0005626563903845576
onefourth	-0.0005626004513633008
enhanced	-0.0005625347256779341
ho	-0.0005624707001333157
filling	-0.0005624410887880654
heroic	-0.0005623479217157996
Part	-0.0005621364283819196
aforesaid	-0.0005621014349321725
spiritual	-0.0005618709623803036
Reservation	-0.0005618172168092345
Saddam	-0.0005617274095798835
illegally	-0.000561590423142483
1936	-0.0005614151806967731
submission	-0.0005613181713592208
symbol	-0.0005612596774675995
forum	-0.0005612114510175745
Up	-0.0005608207479045989
juvenile	-0.0005605438914979577
sorrow	-0.0005604633032513159
Deal	-0.0005603607771597147
custody	-0.000560274074867491
21st	-0.0005600374109044592
packages	-0.0005598059974255213
reservoir	-0.0005597913991721748
economists	-0.0005596309776265257
hired	-0.0005592274575840316
disasters	-0.0005590800931767626
salt	-0.0005589193536105549
Irish	-0.000558778913061465
wishing	-0.0005586181304070755
threefourths	-0.0005583012288590829
tree	-0.0005581500562344713
Though	-0.0005579468713109545
lien	-0.0005578146659319734
adjourns	-0.000557425136282075
Medal	-0.0005574141262214334
1997	-0.0005570531494884799
creditor	-0.0005570146710029163
reauthorization	-0.0005569651810779805
hardworking	-0.0005568444105727186
heroes	-0.0005567306804365514
gifts	-0.0005566684532715292
baby	-0.0005565896447354174
consist	-0.0005562412385494057
certification	-0.0005561568552438238
stopping	-0.0005560656889251543
hotel	-0.0005560622858512302
Revolution	-0.0005560596593577802
nonpartisan	-0.0005560124535406508
green	-0.0005556758820667205
Income	-0.0005554440834458164
younger	-0.0005553672666606635
businessman	-0.000555356039394116
hat	-0.0005552721995411453
contestant	-0.0005551613885868302
apportionment	-0.0005550339460062296
modifications	-0.0005548690943791699
workable	-0.0005547822946377524
Sioux	-0.0005547392314234896
Personally	-0.0005543150526996395
lunch	-0.0005538833460591691
assistants	-0.0005538510625977431
volumes	-0.000553770271072855
licenses	-0.0005537075171082413
legislator	-0.0005536858120904084
declining	-0.0005534797547786916
empty	-0.000553467496835663
colonel	-0.000553302520505724
gambling	-0.000553164550530343
Womens	-0.0005528888101168248
shortterm	-0.000552652132884381
tanks	-0.0005526445391007103
shortages	-0.0005526060938853175
faster	-0.000552590018237042
frequent	-0.0005524500834571336
Field	-0.0005524437809954669
heading	-0.0005522040124827328
Cotton	-0.0005521875955184727
hardships	-0.0005519163977937241
abused	-0.0005517938015258184
58	-0.0005515995374037209
Consumer	-0.0005515194963717168
allegations	-0.0005513181437170051
uphold	-0.0005512080392428657
SALT	-0.000551117900755686
Communications	-0.0005509392592340762
favoring	-0.0005508266683618223
wasteful	-0.0005507503439986779
electrical	-0.0005507449637601209
wellknown	-0.0005507404474390546
principally	-0.0005506520031851642
urgency	-0.0005506268128319194
Alliance	-0.0005504323343171038
Volunteer	-0.000550381286223808
subsistence	-0.0005503188591603161
waited	-0.0005502829004968553
Saint	-0.0005498328136647153
components	-0.0005497654533879806
allied	-0.0005491738272911479
Notwithstanding	-0.0005490901954607199
FDA	-0.0005490753122833856
ternpore	-0.0005489322965099186
Filipinos	-0.0005488398707605518
Arts	-0.0005483782546420151
bed	-0.0005483576296016132
discount	-0.0005483501827877396
default	-0.0005482823417365152
burning	-0.0005481143202261433
override	-0.0005478996333665956
foolish	-0.0005478092867241099
wives	-0.0005475349229886496
1918	-0.0005472921747224858
defects	-0.0005472376642669348
attract	-0.0005472095247713577
decides	-0.0005470780401509336
depositors	-0.000546738437574358
advocacy	-0.0005465278132643432
destiny	-0.0005465140225241806
diminished	-0.0005464631636290489
avenue	-0.0005459333362563193
entrance	-0.0005457987334654261
vicinity	-0.0005457354377077995
sorts	-0.0005456294752846003
mercy	-0.0005456046404931725
bright	-0.0005454025321370746
Additionally	-0.0005453865246822074
customary	-0.000545354559508155
defended	-0.0005453409913996503
Standard	-0.0005450860941846764
sports	-0.0005449841942705409
prosecuted	-0.0005449516880336603
retaining	-0.0005448907781369932
engine	-0.000544687593728349
dismissed	-0.0005445681553538128
craft	-0.0005443362169069044
publish	-0.0005441512339215885
foundations	-0.0005441160943924302
republic	-0.0005440723736292812
wanting	-0.0005439310947096686
holiday	-0.0005438253214584975
Seattle	-0.0005437694357202135
Abraham	-0.0005436554682682608
gallons	-0.000543614569829774
planted	-0.0005435902299363147
shippers	-0.0005434893477853854
erroneous	-0.00054252973165743
coordinated	-0.0005424951140267807
harmful	-0.0005423401330784996
solar	-0.0005418084468963981
Legal	-0.0005417931636959761
1924	-0.000541632023641777
airlines	-0.0005415830441186353
proclaimed	-0.000541547897535181
potatoes	-0.000541313342117646
125	-0.0005409157274139487
postwar	-0.000540787855676225
Agreement	-0.0005407780243000575
sharp	-0.0005406160066572954
Germans	-0.000540552179167608
displayed	-0.0005404652801097284
refined	-0.0005404487146995632
Child	-0.0005403559670667042
Negroes	-0.000540294551123289
graduates	-0.0005397976891652712
sickness	-0.0005387140963725326
legislating	-0.000538649677879649
Head	-0.0005385173931770944
57	-0.0005384776185788056
blue	-0.0005383443025973737
sympathetic	-0.0005381562891724864
celebrated	-0.00053793047609381
professionals	-0.0005379255572286822
supplying	-0.0005378949460265774
readiness	-0.0005378367822760959
chaos	-0.0005372484578742591
examinations	-0.0005372160638486937
.to	-0.0005371953183909988
1998	-0.0005369752944237357
vain	-0.0005368406994909601
belonged	-0.000536837599604709
assent	-0.0005367710163640609
theirs	-0.0005367306520937531
relied	-0.0005366985491617971
praying	-0.000536683732543632
empire	-0.00053656108568696
refund	-0.0005365270089720037
panel	-0.0005363926538735953
specifications	-0.00053630095041649
tin	-0.0005360449801529476
speedy	-0.0005360167160852883
Miami	-0.0005359193980421364
cloth	-0.0005358562855560478
coined	-0.00053584933098942
forma	-0.000535579373867217
.and	-0.0005354914576522466
talents	-0.0005354050481225292
differently	-0.0005353478693722107
giant	-0.0005349852500194345
phases	-0.0005349720266913606
privacy	-0.0005349211079092009
trials	-0.0005348595329311524
relatives	-0.0005348136534796831
diverse	-0.0005347085870387734
Never	-0.0005344444307566628
Sugar	-0.0005343982803026618
ethnic	-0.0005342767117328555
breaks	-0.0005342374941571353
contemplates	-0.0005341583677293364
supporter	-0.0005341144649214374
score	-0.0005338644740922214
approving	-0.0005335635287380065
concurring	-0.0005335142522102655
contents	-0.0005335131062090795
airline	-0.0005331213753013761
Review	-0.0005330791589472151
cultivation	-0.0005330259470645327
collapse	-0.00053299618829859
obey	-0.0005327943260870685
locate	-0.000532712793375927
fbr	-0.0005325616774253168
disadvantaged	-0.0005323242906571724
presiding	-0.0005322457773256637
Please	-0.0005322432345266275
amazing	-0.0005321842923529065
Kingdom	-0.00053214158257287
Port	-0.0005320310069785051
backs	-0.0005319654557455194
intelligently	-0.0005319385745127979
ordering	-0.0005319305956752415
enters	-0.0005318775856905763
employing	-0.0005317640248116887
beneficiary	-0.0005317332145013762
2003	-0.000531357550832897
credentials	-0.0005311680048689495
desert	-0.0005311384633777844
games	-0.0005310665802288624
marshals	-0.0005309878136397244
voices	-0.0005307945920092089
targeted	-0.0005307556906555524
heating	-0.0005307365624091485
sister	-0.0005307229112183278
ant	-0.0005307226944287378
repealing	-0.0005306152484324845
libraries	-0.0005305699153564578
stem	-0.0005301133141229664
overtime	-0.0005298893375543063
football	-0.0005298564098663285
obligated	-0.0005297832057069197
1873	-0.0005295039657481066
Potomac	-0.0005293676114500739
1951	-0.000529313677089928
preceded	-0.0005290375865182287
repayment	-0.000528897177721629
Others	-0.0005287821359423148
110	-0.0005287029216032186
coalition	-0.0005286646256082732
Reorganization	-0.0005286108094133754
multiple	-0.0005284934456619845
refuge	-0.0005284010163017467
isolated	-0.0005283213363035108
Regiment	-0.0005283201676024217
rightly	-0.0005281863537145249
unacceptable	-0.0005280953160731167
Secretarys	-0.000528026666965205
distressed	-0.0005279942458045615
circumstance	-0.0005278583185911403
morale	-0.0005278397885095228
Liberty	-0.0005277746707607377
cared	-0.0005276331030455508
combinations	-0.0005274509977749091
et	-0.0005273156074566521
Milwaukee	-0.0005270347831820659
Fish	-0.0005266264447477572
auto	-0.0005263833149886477
retention	-0.0005263560391285391
instruments	-0.000526302114142908
Area	-0.0005262103211002907
Next	-0.0005259837621658179
unwarranted	-0.0005257452219776962
recommitted	-0.0005256437397241443
Secretaries	-0.0005253002731409751
Internet	-0.0005251014093958429
Saudi	-0.0005250828352387948
64	-0.00052500319272934
peril	-0.0005249340066360701
10th	-0.000524869418152332
converted	-0.0005246755620188387
Care	-0.0005245806162705899
VicePresident	-0.0005245410718786206
Russell	-0.0005244965486764172
L	-0.0005241754612132246
reconsidered	-0.0005241448062947981
transfers	-0.0005236917474520539
sex	-0.0005233175000962997
1937	-0.0005233000045226964
ayes	-0.000523283195470284
ice	-0.0005232786188324733
Evidently	-0.0005232011127285124
preclude	-0.0005229456480473221
continental	-0.0005226892618636772
commonsense	-0.0005221819627179768
engaging	-0.0005221153893907884
fed	-0.0005220786681912732
acid	-0.0005220549547715331
foremost	-0.0005220514041093402
cosponsored	-0.000521999154248131
picked	-0.0005219307456450111
locks	-0.0005218770495567147
pictures	-0.0005214871233682021
harsh	-0.0005213914636486332
denounced	-0.0005212054547698898
midnight	-0.000520952393121171
conformity	-0.0005205583590266947
courses	-0.0005205479989698687
concentrated	-0.0005204395098592065
Confederate	-0.0005203031528297174
womens	-0.0005202072254507752
generosity	-0.0005201580092867056
brain	-0.0005201348936022896
battleships	-0.0005200834371415366
harder	-0.0005200438240247926
worried	-0.0005199928919827389
Territorial	-0.0005191771461757531
administrators	-0.0005188945275113959
resumption	-0.0005188863651479532
launched	-0.0005188793892316731
compassion	-0.0005188761740764676
steamship	-0.0005186889421683543
Reverend	-0.0005186459621197321
critics	-0.0005184509394550247
continuously	-0.0005183198495643526
Harrison	-0.0005181931038796307
core	-0.0005176059417677446
unavoidably	-0.0005175659813830185
disarmament	-0.0005175293619375928
declines	-0.0005173946133951164
vs.	-0.0005172252026865241
1928	-0.0005171129275379754
club	-0.0005170916759640443
founding	-0.0005169828217466971
dictate	-0.0005169348737844951
procure	-0.0005169263457544104
MX	-0.0005168661660355551
1944	-0.0005167467890530993
intimate	-0.0005161417062182756
abundance	-0.000516111755141318
fixes	-0.0005152342108344522
legaltender	-0.0005151755651457694
broadcasting	-0.0005149024421645498
appoints	-0.0005146036576644422
innovation	-0.0005145563382553604
theater	-0.0005143528371776015
Ten	-0.0005143191545965823
distributing	-0.0005142778171528415
analyze	-0.0005141347371296596
eloquently	-0.0005139847932280237
inches	-0.0005135965145096176
modernization	-0.0005135039798812422
describes	-0.0005133251859040206
teams	-0.0005132510134732216
1880	-0.0005131772746031173
sits	-0.0005131560924103151
duplication	-0.0005131163933325748
obsolete	-0.0005128145112492058
Caucus	-0.0005128042037043039
enlightened	-0.0005128006417476786
Samuel	-0.0005127148475997156
silence	-0.0005126436786690241
Customs	-0.0005123798170563376
burned	-0.000512361257021155
Specifically	-0.0005119194230720427
quo	-0.0005116979678029527
canceled	-0.0005115219618410701
trusted	-0.0005113793808180564
operator	-0.0005112294088512568
Improvement	-0.0005111320489650058
Group	-0.0005111254231174772
endeavors	-0.0005108793186094742
nowhere	-0.0005107100873037433
warned	-0.0005104109646932857
1890.	-0.0005102006852004378
Besides	-0.0005101888493548761
weaken	-0.000510158706734821
strip	-0.000510138939658448
trustee	-0.0005096275351326936
governors	-0.0005094540900878546
14th	-0.0005094294261697428
frontier	-0.0005092442490707705
balancing	-0.0005091995498089672
Currently	-0.0005089427140870511
poultry	-0.0005088170293704858
Issue	-0.0005088087397187858
DOD	-0.0005087054356287808
drinking	-0.0005085853804249774
7.000	-0.0005085734581084483
questionable	-0.0005084450550112299
detain	-0.0005082901366645463
responsive	-0.0005082120536019144
Harbors	-0.0005081962038227364
rational	-0.0005078330416449365
attach	-0.0005075469586087565
pushed	-0.0005072993455891102
Exactly	-0.0005072566927037989
proves	-0.0005071168754617364
launch	-0.0005067544034026906
Baker	-0.0005067063150954901
Beach	-0.0005065432128678568
hide	-0.000506497081198972
enrollment	-0.0005064953964175371
treating	-0.0005064015171038854
[...]
