TOKEN	WEIGHT
the	-595.2633760142036
of	-385.3290168121093
,	-344.03061825467705
and	-279.72269513790053
.	-274.9479725561648
to	-252.01415658668054
in	-160.1049217361217
a	-113.40637269166308
that	-105.81922186524125
is	-83.26605079424209
for	-77.05438792152164
on	-53.9852194697078
our	-48.80212838508693
we	-46.58721198182821
The	-45.799598961438086
be	-45.39284579098186
are	-43.11481547326065
with	-42.97023926736819
as	-41.87670558440986
by	-41.8470819138735
United	-40.82600874857359
have	-39.96498477232936
has	-37.45915503825938
its	-36.95028152538839
which	-36.72236190566828
this	-36.52772849979255
international	-36.169475554610734
Nations	-35.55209404891072
We	-34.75690213952966
will	-31.978215686604855
all	-31.07873253085303
not	-30.540051196175448
it	-30.175654477439263
world	-27.425596218158088
countries	-26.90973384089393
their	-26.073067953461734
an	-25.360532789109953
I	-23.740074224701722
at	-23.189790992121726
peace	-23.089635769913787
from	-20.19020677634431
States	-19.462591742376695
people	-18.739345562111698
must	-18.718988742100098
development	-18.69811146257966
In	-18.459205378516423
can	-18.310846916982438
been	-18.20059346654051
also	-17.032693351297524
It	-15.809919781577548
economic	-15.679232153391565
country	-15.548842371276525
should	-15.089391220943456
more	-14.523872155400289
security	-13.36053245632874
Assembly	-13.281407006244955
or	-13.03017358789633
new	-12.804600449978484
those	-12.726375936030145
us	-12.606903891058554
’	-12.464265670996891
would	-12.349136072723889
other	-12.25476727528381
Government	-11.956671512798952
community	-11.941394269191743
human	-11.940809918249363
efforts	-11.926424301770739
was	-11.648165636167581
s	-11.319131603742637
political	-11.09267890455615
support	-10.837248407928891
Organization	-10.831614175267894
Council	-10.809738008419073
rights	-10.660546402786608
General	-10.213566344955796
but	-10.126224047479417
my	-10.012466524847133
one	-10.002065461636139
only	-9.83893623154493
they	-9.202351733119881
between	-9.157911892225101
such	-9.154207420370083
session	-9.124063372366702
so	-9.0409463834352
Africa	-8.897666271957453
;	-8.849926619411853
his	-8.807978731422738
no	-8.73797204322591
against	-8.685718798437199
global	-8.649594586073734
Republic	-8.431838986072119
Security	-8.337807038102639
time	-8.264005993476891
years	-8.251251136685296
's	-8.130634947334782
—	-8.063576077983301
)	-8.039121544133765
(	-8.028691247149922
who	-7.982769007386416
order	-7.925857487364364
This	-7.919127175446107
region	-7.892074805095899
these	-7.79469412732602
peoples	-7.752256623394019
year	-7.655460287702514
most	-7.521011978886197
through	-7.493860965060016
many	-7.386820643775928
work	-7.378422698405246
developing	-7.315153487387666
national	-7.30731886967527
like	-7.292171895869027
there	-7.128121603309928
situation	-7.0904920877345345
than	-7.0260806664629145
into	-6.9872468601702895
made	-6.937923971421345
process	-6.9230403961266225
need	-6.8879829715530345
problems	-6.810671665598571
State	-6.804535571124196
them	-6.803392412825914
continue	-6.789859584267069
social	-6.76519243041435
now	-6.705292589659805
important	-6.456609356808963
President	-6.415355660729667
cooperation	-6.221460754514745
any	-6.186546385352242
hope	-6.177943308241841
That	-6.160888213952132
African	-6.103597642436432
nations	-6.076759550367991
respect	-6.067479426685028
do	-6.054448738280981
great	-6.031338166865766
take	-5.928064273548029
over	-5.923086032240839
make	-5.920938815372249
progress	-5.896031115463295
well	-5.862761726172445
conflict	-5.8303658682454875
war	-5.819202104248363
South	-5.765501407086372
relations	-5.664667964069426
future	-5.643959347836995
very	-5.548523099594434
among	-5.537044391950268
role	-5.476843270350068
two	-5.464131956516694
end	-5.443447392149448
were	-5.43732808722269
Secretary-General	-5.427062357265478
towards	-5.393209393179514
system	-5.384156851279943
some	-5.343488474006866
under	-5.312824044900842
part	-5.311975352587653
out	-5.306869923741807
if	-5.276291178724606
today	-5.2592555031561385
As	-5.250543109218537
about	-5.1993568725975186
nuclear	-5.190147619489179
principles	-5.1539177809014145
:	-5.11550192867336
right	-5.069724753423944
being	-5.019519031362056
just	-5.002726492174431
peaceful	-4.965992467321549
way	-4.963865814517436
resources	-4.953402421123767
first	-4.931004345404855
Mr.	-4.922657913726082
without	-4.915528685733501
Development	-4.854490027858894
law	-4.838533437483043
East	-4.821120864080646
when	-4.815000803749248
resolution	-4.808342417916554
terrorism	-4.792974349339579
own	-4.791465932267596
Charter	-4.785394996973134
up	-4.7815218726846584
solution	-4.777275419235544
action	-4.708299668132219
Conference	-4.707040777161382
challenges	-4.690467338450629
weapons	-4.6874408591064505
regional	-4.653651736855654
because	-4.553004447875327
crisis	-4.538528085059616
believe	-4.48622584016673
within	-4.480656620265505
still	-4.439183581522622
stability	-4.415224881675212
policy	-4.397815172235055
same	-4.341517680295257
ensure	-4.258989952683756
change	-4.2165362927720835
therefore	-4.208999030974032
Afghanistan	-4.184232461932258
commitment	-4.175283119039318
both	-4.1669760821935755
last	-4.149330568978152
regard	-4.138528434471993
conflicts	-4.136132195026998
poverty	-4.12224006548991
had	-4.095522646550419
including	-4.052786288133236
problem	-4.022280344780462
negotiations	-4.002448040812569
effective	-3.998353407162821
past	-3.992940892609132
Union	-3.989725195298835
wish	-3.9780196049197847
measures	-3.9714566570392855
what	-3.956067501928629
financial	-3.923427010904621
full	-3.9231715564151872
possible	-3.9131597875761646
Our	-3.872741694929635
military	-3.8545004814617663
issues	-3.8441942460402774
means	-3.8322346041269664
particular	-3.8302856664200466
Member	-3.819089358393433
place	-3.8136934599300663
But	-3.796195818846308
reform	-3.7886461099733584
implementation	-3.784437079888944
necessary	-3.7817228642815044
particularly	-3.7692155970672676
Middle	-3.741338067393858
assistance	-3.7407513442104947
even	-3.73072622653784
become	-3.716258782450384
independence	-3.684431010056596
European	-3.680440592010106
delegation	-3.6792434841317236
developed	-3.66163415993939
achieve	-3.633409076028252
dialogue	-3.6292907904739073
?	-3.6042396788909667
International	-3.6035598489419836
common	-3.6021046789372737
recent	-3.6009502255029506
taken	-3.5996120771949127
My	-3.591141942907229
since	-3.583324807892073
trade	-3.5598567570097974
could	-3.5362748862902937
fact	-3.5088403384715665
small	-3.5028360349544707
democracy	-3.5027690260490214
may	-3.4953252873230927
responsibility	-3.4937460529190587
major	-3.490663218766717
view	-3.4723600759154087
every	-3.451978570672024
per	-3.4507465542949576
where	-3.4492026144496233
based	-3.4468819212955286
opportunity	-3.440218106872205
use	-3.3873133767337746
democratic	-3.385523820230796
together	-3.384593448002753
parties	-3.3657336106882014
Europe	-3.3435143909345686
interests	-3.3415751332075025
Arab	-3.3313956832910327
justice	-3.326379411617341
special	-3.3256014983313795
upon	-3.307348368625403
For	-3.3039572531805077
question	-3.2998680060607755
``	-3.267788970586517
call	-3.253674734407174
settlement	-3.249434498362059
your	-3.2447583412657814
disarmament	-3.2433434003888344
climate	-3.2365087308884033
further	-3.2335937057758906
forces	-3.230465257571036
present	-3.2131745766340587
fully	-3.2090961026622127
There	-3.2004297265769237
resolutions	-3.179688869410965
Israel	-3.1772756568634337
me	-3.165402861366286
foreign	-3.163705683535843
long	-3.1553313932101137
welcome	-3.1552765139692376
life	-3.1550214726703936
held	-3.138300020138543
co-operation	-3.1223163499406805
concern	-3.1177080614901476
during	-3.104333084987957
freedom	-3.098832908176273
basis	-3.088994435484988
agreement	-3.0808974892613152
better	-3.0775884320503804
force	-3.070127959279504
arms	-3.0693773939062123
sustainable	-3.0608239549962644
importance	-3.051311628747851
At	-3.038202110061665
you	-3.034381605403671
free	-3.019050809369929
see	-3.0067925943537874
Palestinian	-3.00281414143729
here	-3.0026714220010944
able	-2.979275335000485
cent	-2.9630357500864446
again	-2.961067920404373
“	-2.9546269884942307
good	-2.9478117057682725
-	-2.93972825039079
before	-2.914733667557189
serious	-2.9120054901349763
members	-2.9084704390458933
express	-2.905397179833974
economy	-2.9042356673950755
ago	-2.902615321070234
growth	-2.898900283262357
A	-2.88335328782662
institutions	-2.879674335536245
''	-2.8386941823108587
adopted	-2.821862674769884
conditions	-2.8161779429654827
sovereignty	-2.8098291946776572
America	-2.7990308577376357
threat	-2.795794978303519
he	-2.7860699831062345
number	-2.778932911988589
struggle	-2.776201411229846
remains	-2.7664427839852794
history	-2.7554260131445085
establishment	-2.753899146738545
issue	-2.7442916121177716
needs	-2.741738029710656
help	-2.739437003167276
remain	-2.737188096370176
am	-2.729362402290358
However	-2.71289990817067
They	-2.705196001145365
committed	-2.7051053713257067
already	-2.702754362282156
bring	-2.68833996829738
continues	-2.687894248457353
environment	-2.675842364195395
”	-2.670873192005488
framework	-2.6701962872825824
women	-2.6690159010501473
come	-2.6525598006895716
areas	-2.649118309524968
context	-2.6460989604322416
much	-2.6450806865843224
fundamental	-2.641630893751921
World	-2.6336495533506157
greater	-2.631320646116169
solidarity	-2.6302348853116913
put	-2.628567636087625
promote	-2.6224786961679207
violence	-2.621561935929734
election	-2.6050005080393954
current	-2.59530191484998
various	-2.5948503082819308
itself	-2.5880325305087815
success	-2.587724824004444
level	-2.5740596386769234
while	-2.5680831047367514
especially	-2.5576012269105677
area	-2.541463145687003
society	-2.5404180492835247
meeting	-2.5227397271270258
comprehensive	-2.517821897582053
face	-2.5128412118037677
set	-2.5116979516562483
provide	-2.5054876102661066
effort	-2.4975977283138433
positive	-2.4904673930010133
solutions	-2.4833120295421947
Central	-2.4721114049292403
On	-2.46866300996255
agenda	-2.45636442000536
concerned	-2.4498890895867573
achieved	-2.4201278810997446
address	-2.418175187778616
forward	-2.414635764779424
clear	-2.4127741151746758
find	-2.4065745415807607
humanitarian	-2.402523341210193
Iraq	-2.4015837534234983
after	-2.398476544657224
given	-2.39797324572713
whose	-2.3936169829399425
far	-2.382711967568578
To	-2.37875035991245
each	-2.356016236637445
always	-2.3392190369201575
century	-2.337498949873995
once	-2.3347817861066202
attention	-2.324816730304954
give	-2.32045451564442
contribute	-2.30561070867831
strengthening	-2.2915158159836615
another	-2.276381926367579
collective	-2.273942777164831
result	-2.271775656247258
live	-2.2676463834897134
contribution	-2.2642923410354294
policies	-2.263852363800183
regime	-2.2560136613609774
organizations	-2.24552657324741
strengthen	-2.244029178940802
few	-2.2429400327908273
nation	-2.2188412899787227
fight	-2.2063453789948335
population	-2.205317166420262
certain	-2.1957768280304184
power	-2.193996597765711
activities	-2.186265815369451
continent	-2.1795516463828286
others	-2.1700027862526103
whole	-2.1667299064575856
mankind	-2.1496732851483733
results	-2.135352467919549
why	-2.1302845866051827
principle	-2.1289321333272095
essential	-2.1262935966545884
course	-2.1163244627124844
does	-2.0918464637218435
spirit	-2.086867152952639
position	-2.0824252976435096
aggression	-2.077372539763876
how	-2.0750768253388996
lasting	-2.074637271904924
lead	-2.0710858565674455
destruction	-2.068985477095475
actions	-2.0527263376553604
general	-2.0456383069762523
interest	-2.0347148169765514
experience	-2.0300803881143206
If	-2.0262470491233993
children	-2.0212152054159844
universal	-2.021117947375732
Governments	-2.018948205527308
armed	-2.0146270381236735
natural	-2.0078906456132515
Declaration	-2.007770231479314
too	-2.0030441094566216
initiative	-2.000290112771831
With	-1.998038605936488
affairs	-1.996036775385573
high	-1.9937334323733826
ever	-1.9920026508309117
leadership	-1.9896273125818813
increase	-1.9894172814881195
values	-1.9807126013769618
aimed	-1.9746532572746176
however	-1.971841040510499
cause	-1.9632447559275896
thus	-1.9592425030029765
multilateral	-1.9583653663983467
Powers	-1.9555529520001775
People	-1.9501935122997285
themselves	-1.9406269762877977
approach	-1.9392864565633585
legitimate	-1.9319951222205456
want	-1.927662334454
participation	-1.9227887506032522
Treaty	-1.920095462806169
act	-1.9196219731017785
established	-1.9178869297160552
significant	-1.91308508283481
real	-1.9077251699599251
Angola	-1.8997235092757743
rule	-1.8964107613678343
leaders	-1.8940129933732535
best	-1.890306388067521
Soviet	-1.8894438568924234
working	-1.886708964721696
yet	-1.8770906331481985
territorial	-1.872391067093156
These	-1.8710978823806081
three	-1.8650608562345847
lives	-1.8576233080287108
task	-1.8572220103814703
say	-1.8565730377705683
terms	-1.8502335325566113
Democratic	-1.8498289664826353
difficult	-1.8423079928439052
living	-1.8403412600427156
Namibia	-1.8383166638615236
challenge	-1.8349141374358924
objectives	-1.8323149314450655
Millennium	-1.8315546825558262
true	-1.8304365426204448
protection	-1.8280761952584257
understanding	-1.8225049654818017
Let	-1.8182396714442493
taking	-1.8164906234024598
American	-1.815829957057408
matter	-1.8072077573664134
create	-1.804673010671909
throughout	-1.803614509751166
supports	-1.7963228923927648
strong	-1.7948668270935884
debt	-1.7925135989649013
done	-1.7900606279209241
Today	-1.7885227337407184
energy	-1.7882957837205196
integrity	-1.7760257236025407
Human	-1.7742642439199985
never	-1.7731161855683097
recently	-1.7729686416453507
events	-1.7696899993553028
entire	-1.767082489549248
him	-1.761837302982166
conference	-1.759133127787966
behalf	-1.7566439161129241
initiatives	-1.7510766289151016
acts	-1.7488338101628558
goals	-1.7449187550154874
million	-1.7438423538225385
Caribbean	-1.7407907374239573
making	-1.7373353984169184
basic	-1.7370338902638494
step	-1.7364417073132914
play	-1.7320136145595089
urgent	-1.7319315404571418
territory	-1.7307794674139207
continued	-1.7291787877868772
decisions	-1.7291585617753922
permanent	-1.7238210605097397
resolve	-1.7221983521518296
internal	-1.7160178645240154
threats	-1.7140695151486043
establish	-1.713982461683464
report	-1.7114511029702562
independent	-1.7111782592126952
Economic	-1.697652212845451
meet	-1.6946128761122148
determination	-1.690355313981094
Goals	-1.684732133601521
third	-1.6822804024804452
Latin	-1.6808777437734734
membership	-1.6805026879014697
convinced	-1.6765078566838265
prosperity	-1.6753654022125852
And	-1.6751155335714576
September	-1.6672906564583574
citizens	-1.6664203941871907
New	-1.6625613235410703
Rights	-1.6592646760387202
least	-1.6549724449604981
mutual	-1.6531625126516047
member	-1.6492434465097527
less	-1.6426155064340167
suffering	-1.6412958605797356
consequences	-1.6228115417429425
pay	-1.6205420568721696
know	-1.6192670701554706
build	-1.616875235876439
Asia	-1.6098460292312669
While	-1.6069351693546223
congratulate	-1.6062993535426804
seek	-1.6013909378494486
capacity	-1.6013015761184015
commitments	-1.5990664125956273
next	-1.5981720954908312
elections	-1.5964091920782548
Members	-1.5937216233052984
public	-1.5861120969480378
agreements	-1.5840747655849972
relevant	-1.5809438712176374
building	-1.5790666058511773
return	-1.5710026039249247
large	-1.5682385952952176
changes	-1.567259265363691
dignity	-1.5622978295298184
share	-1.5607178049120616
hopes	-1.5601422534574758
goal	-1.5595945972148026
humanity	-1.5553959707887461
said	-1.5547607659074394
then	-1.5534919874299706
main	-1.5531782856829197
day	-1.5505845352067638
Palestine	-1.549786936077701
point	-1.5438654202068083
programme	-1.5438452379101368
Convention	-1.5428323100244616
equality	-1.542655082465816
open	-1.5412223599136956
partners	-1.5397421950232693
economies	-1.5395312026521135
His	-1.539004258319613
facing	-1.5380492195877857
China	-1.5375371148151853
reality	-1.5350153648914204
allow	-1.5345139322349106
example	-1.5296930278252348
All	-1.5270850352826095
field	-1.5233943009630382
different	-1.5223048391041887
control	-1.5218910878948755
education	-1.519191155049918
active	-1.5189242357603092
groups	-1.5157039451988523
reason	-1.5066569961973677
developments	-1.5038085401608436
territories	-1.5009480704369715
Those	-1.4997551147172952
Iran	-1.499526922096327
refugees	-1.495910976958189
achieving	-1.4953723008043904
Summit	-1.4949968962807516
look	-1.4945766300817964
priority	-1.4896689391438145
crises	-1.4835160666257634
race	-1.483168527413611
terrorist	-1.4814961608300339
hand	-1.4795320578698032
majority	-1.4782042331109269
times	-1.4781525430669016
aspirations	-1.4769137676814552
prevent	-1.4716446486294732
occupation	-1.4558394297522976
Peace	-1.4557700724571478
Lebanon	-1.454367640063246
island	-1.4525023234855874
creation	-1.452040641804453
requires	-1.4487669478578722
steps	-1.446672827067767
Minister	-1.4464275200614545
case	-1.4459663299906045
adoption	-1.4450962589987693
shall	-1.4411963260963803
consider	-1.4353830798585763
led	-1.4343919347569003
food	-1.4336546182939278
period	-1.4311809632322088
recognized	-1.4276720190879433
successful	-1.4273119708313073
poor	-1.4246312991833572
programmes	-1.4233290403985748
responsibilities	-1.4165077609197483
promoting	-1.4158694198295183
accordance	-1.4146249844624958
indeed	-1.413553999499801
decision	-1.4131287491738866
growing	-1.4128966078654464
legal	-1.4128386862077944
increasing	-1.41265400432191
increased	-1.4101662512897502
Cyprus	-1.4073592783772961
confidence	-1.4063071387262043
plan	-1.4060142282852433
What	-1.405152244706719
Korea	-1.4028710741366714
sovereign	-1.401680420345545
nature	-1.4014555276580567
self-determination	-1.4008896754087155
objective	-1.4008374149783849
operations	-1.3995324569501455
appropriate	-1.3969397920309339
access	-1.394959600121171
despite	-1.3922715046064313
regions	-1.3905561330730833
Group	-1.3904664807127787
apartheid	-1.3901112120384487
planet	-1.3874110453668704
often	-1.3837655432077829
beyond	-1.3797842319888223
complete	-1.3789701122617921
health	-1.3745069003597534
historic	-1.3697084340525099
created	-1.3687107135310592
levels	-1.364097665829085
unity	-1.3637735724937166
integration	-1.361222384466149
deal	-1.3598662405648303
aware	-1.3596290159990143
state	-1.3544222167342401
consensus	-1.3509071299153967
tribute	-1.350061747997272
Community	-1.3488546256322402
tension	-1.3466083253625762
response	-1.345155165000511
benefit	-1.3416136048298704
effectively	-1.3413255031889475
parts	-1.3407960780299233
North	-1.3403701076854904
potential	-1.3375212788612765
governance	-1.3317879636880077
called	-1.3304579256084608
anniversary	-1.328798336162162
manner	-1.3279862710559975
environmental	-1.3278721372261868
brought	-1.326938154764583
aid	-1.3261654690163673
conclusion	-1.324973893532617
peacekeeping	-1.324106227248612
vital	-1.322798777673031
clearly	-1.3211660723290595
presidency	-1.3210184328550105
Burundi	-1.320355954061916
Islamic	-1.3169027280860406
$	-1.3155394986827054
body	-1.3149154656774202
ourselves	-1.312361762695764
Committee	-1.311814514905252
path	-1.3116595648711538
impact	-1.310713327561678
purposes	-1.3059254691860263
reached	-1.3028237060106813
rather	-1.297606573900099
civil	-1.2965832366711758
following	-1.29457550731644
cultural	-1.2940358842494546
enable	-1.2912691053418075
lack	-1.2912634566290022
around	-1.2909588627209234
appeal	-1.2858425443641648
mass	-1.2848366187455325
recognize	-1.2788361707583986
maintain	-1.2783889498494043
reforms	-1.2734259266502836
involved	-1.271982371692274
direct	-1.2710037093393491
reiterate	-1.269653224790855
Western	-1.2691803175267855
decades	-1.2678513840522025
go	-1.2666224921749725
extend	-1.263770802009643
Commission	-1.2635047442595777
implement	-1.2602373116684074
increasingly	-1.2560669215999483
note	-1.2558607143509235
did	-1.255619417693417
opportunities	-1.254419318761459
constructive	-1.2535634693561761
urge	-1.25089405701093
welcomes	-1.2506626685416227
recognition	-1.2496901011442227
appreciation	-1.2456121073406132
protect	-1.2453985348131318
sense	-1.2430674436687632
longer	-1.2416990803624854
proposals	-1.2415154290644699
disputes	-1.2389130725446353
occupied	-1.2380548625820043
Albania	-1.2379740663605234
forum	-1.2347378821292683
soon	-1.230266142928502
form	-1.2296346344054312
words	-1.2283543166919209
reach	-1.2268904094442954
agreed	-1.2255721000342827
beginning	-1.2227061405809654
victims	-1.2226659111283167
technology	-1.218007910049588
promotion	-1.2173380361350925
seen	-1.2162180987613838
representative	-1.2156281999209062
vision	-1.2148700725408523
provided	-1.2139806066400571
key	-1.2132030599060115
Kingdom	-1.2115688334779304
Agreement	-1.2103514607509278
genuine	-1.2095266453210478
concerns	-1.208666927661009
globalization	-1.2076305971421248
continuing	-1.2015187138564662
serve	-1.2011058897716596
concrete	-1.2006287441196855
several	-1.1969554712863963
shared	-1.194393300879861
equitable	-1.1932908396915551
Such	-1.190508836078296
strongly	-1.1896808711298823
congratulations	-1.1894715061667815
forms	-1.189070932910516
effects	-1.1882879407899338
ensuring	-1.1861782083428094
overcome	-1.1815806938938764
existence	-1.1813827908562267
southern	-1.1776384684682308
believes	-1.1770622546529033
calls	-1.1764855123650027
account	-1.1733643408694705
reconciliation	-1.1733085770767937
Azerbaijan	-1.1718955262828101
desire	-1.1657099739008094
needed	-1.1656307132851151
having	-1.1646254431323027
borders	-1.164524670860721
stand	-1.1641704176422971
equal	-1.1610491016419313
firmly	-1.1610235986481503
develop	-1.1567124400481406
improve	-1.1562085552766403
turn	-1.1552970530399838
might	-1.154473674662855
critical	-1.1544589982289466
responsible	-1.1539547537369332
Sustainable	-1.1529729739751424
sincere	-1.15173648235503
secure	-1.1504330835186292
men	-1.1500173777707376
situations	-1.147281389161768
achievement	-1.1455811235013735
supported	-1.1454477601321158
production	-1.1433194155786761
West	-1.1409690660654541
individual	-1.1392697029413998
pleased	-1.1375264606156787
causes	-1.135656331915615
difficulties	-1.1354898702931824
strategy	-1.1344395723724352
used	-1.1323303503558753
firm	-1.131518284549255
crucial	-1.130057085858935
troops	-1.1299315257703797
total	-1.1295746051366342
deep	-1.1282566830933043
One	-1.1275969970121495
debate	-1.1235324350590816
former	-1.1228130168613562
exercise	-1.1220710846657964
guarantee	-1.1193015915672302
domestic	-1.1131232554259647
crimes	-1.111535766640888
ready	-1.1112755741612197
months	-1.1085164008767368
[	-1.108334520446655
expressed	-1.100082700561419
existing	-1.0964306848006862
obligations	-1.0962648547609712
ways	-1.0950787746321466
determined	-1.0948060664697619
side	-1.0944461053573145
join	-1.094022850731178
joint	-1.0926348441509213
Agenda	-1.092483673363679
societies	-1.088397734950237
summit	-1.0882927517091063
billion	-1.0876309119297578
focus	-1.0851862132686745
group	-1.0842471394003876
Australia	-1.0831562862031245
immediate	-1.0794012464008864
crime	-1.0789072516988967
second	-1.0788364095861274
search	-1.0774608805421897
reaffirm	-1.0769497204846794
close	-1.075811565129408
withdrawal	-1.0729106162374584
statement	-1.0710196640296805
actively	-1.0706986739563191
humankind	-1.0686864672950367
Indeed	-1.0648753781014064
early	-1.063888625101025
Since	-1.0622565268943018
partnership	-1.062183465312468
agencies	-1.060577370049609
require	-1.0592362979689984
standards	-1.0588033889927861
wishes	-1.0587652327348462
down	-1.0578665309843907
participate	-1.0559965708366494
move	-1.0550462812799226
Israeli	-1.0526012709422237
investment	-1.0520867441098982
balance	-1.0510575581079105
land	-1.0502426243406113
status	-1.0501946622591776
trust	-1.0457297393772311
]	-1.0455363128083066
millions	-1.0419844427963882
Programme	-1.0388493507361158
management	-1.0358563271185373
talks	-1.0349353681505824
addition	-1.034628080971097
specific	-1.034321598576823
proposal	-1.0340041825713728
mission	-1.0328576453245137
affected	-1.0313366780209554
era	-1.0311766421457973
subject	-1.0311280938017988
Bosnia	-1.0305687924139701
undertaken	-1.030546783024708
Syria	-1.0287328658148718
fair	-1.0285563593731673
maintenance	-1.0271443826503253
Afghan	-1.0269062021307231
reduction	-1.024540094934621
final	-1.0205383357685667
almost	-1.0189129574201503
along	-1.0179600984649215
predecessor	-1.0173008913026516
alone	-1.0121423010591803
sanctions	-1.0118603981520404
capital	-1.0094937896200948
Foreign	-1.007770117327803
rise	-1.0052175204122888
mechanisms	-1.0021548555595932
nor	-1.0013595096501542
dangerous	-1.0010331707586966
trafficking	-1.001009043599739
presence	-1.0009722590876813
due	-1.000228892111219
ethnic	-1.0002001580288473
complex	-0.998516206015843
five	-0.9950547693277023
confrontation	-0.9943973787059238
generations	-0.99316494092356
took	-0.9927250978687774
rich	-0.9922308395401058
light	-0.9920234096909439
ability	-0.9916319835897746
mandate	-0.9912732336096831
achievements	-0.9902390290598102
thank	-0.9902315825071862
external	-0.9889591848254277
diplomatic	-0.9888622551439491
May	-0.9875948205785173
man	-0.9870700982655793
leading	-0.9864289298176488
purpose	-0.9840802733222471
whether	-0.9833313736037677
doubt	-0.9815366542701754
road	-0.9809610929039554
faith	-0.9789567956810675
illegal	-0.9782222744826639
combat	-0.9765620508835673
drug	-0.9736796237317543
source	-0.9718652671501549
wars	-0.9704320176550049
primary	-0.9694933872005892
Pacific	-0.9687907947460035
outcome	-0.967020748853094
circumstances	-0.9662444447400923
shown	-0.9622891176575052
central	-0.9622788429732752
attacks	-0.9619075274904254
Therefore	-0.961420446087573
caused	-0.9609894830371701
questions	-0.9600477283271258
let	-0.959712706972875
accept	-0.9589068910509349
found	-0.958270000586953
concept	-0.9574683411287729
strategic	-0.9557711738044513
neighbours	-0.9548880793686888
above	-0.9548497804109228
demand	-0.9528502752191987
honour	-0.9523336490114118
Court	-0.9503178482252439
representatives	-0.9489788175255088
effect	-0.9482989785807902
systems	-0.948215435051086
National	-0.9462194313949296
Argentina	-0.9454095255815603
Action	-0.9440283084379154
vulnerable	-0.9434435366016972
moral	-0.9421293160128824
decade	-0.9407879977495104
bilateral	-0.9401411100420859
signed	-0.9400526780950715
demands	-0.9394942770860525
Cuba	-0.9377887681212891
differences	-0.9377690211601141
back	-0.9369409499915525
effectiveness	-0.9341757594284499
encourage	-0.9322260295267173
Thus	-0.9304352151782944
reduce	-0.929893784915875
imperative	-0.9296849759174252
movement	-0.929129180531932
organization	-0.9285893344702406
Congo	-0.9276490669059443
coexistence	-0.9275921361056068
market	-0.9268209604022797
gratitude	-0.9262453877819365
realities	-0.9258793338480195
interference	-0.9227167227873444
opinion	-0.9223928226273398
truly	-0.9184566456520842
authority	-0.9165629690631327
required	-0.9158841404524122
Despite	-0.9151170764962561
10	-0.9140663799122493
days	-0.9137354989677087
young	-0.912422105100736
violations	-0.9122096650437926
thousands	-0.9121524145996347
reconstruction	-0.9119952484046406
instrument	-0.9119212118670267
review	-0.9100888651310567
outside	-0.9051512166951969
grave	-0.9048623430981213
liberation	-0.9044474237809595
feel	-0.9044007986672392
hunger	-0.903861404219816
offer	-0.9035648174475592
No	-0.8998158366316895
greatest	-0.8980941956672288
Somalia	-0.8980429342766353
communities	-0.8964714280950017
practical	-0.894438135140687
include	-0.8941987889056494
ongoing	-0.8932720054333017
June	-0.8931814408920035
respond	-0.8931034655582859
known	-0.8908657748609037
rules	-0.8906155366226891
Bahamas	-0.8876138528550824
Haiti	-0.8869012699787789
Trade	-0.8860485124587058
confident	-0.8852187478641744
duty	-0.8821302304756228
demonstrated	-0.8811580976252735
markets	-0.8802632458481845
When	-0.8785278464967466
friendly	-0.8762499152641576
prevention	-0.8747661341895487
carried	-0.8734568947273739
bodies	-0.87142430921639
transition	-0.8711660246259337
stage	-0.8695096565359833
multilateralism	-0.8683874462380639
persons	-0.8660008120630687
Countries	-0.8650212811766694
connection	-0.8646526408782768
thanks	-0.8646137897133237
Herzegovina	-0.8637252634838224
creating	-0.8632112594338469
reflect	-0.8626831758330757
begin	-0.8617777583432769
addressing	-0.8593473417125338
limited	-0.8586164854050229
becoming	-0.85747825343761
Kosovo	-0.8569746256485655
industrialized	-0.8557767396004352
deeply	-0.8545671220309358
detente	-0.8532250582149364
establishing	-0.8529366499159011
failure	-0.8504206294292532
imposed	-0.85026484182004
Cooperation	-0.8496101851361348
think	-0.8486397436229394
Fund	-0.8473406663391895
speak	-0.8468218687028658
providing	-0.8449043994252
family	-0.8439000908791097
Pakistan	-0.8431979384229571
well-being	-0.8424883106069158
de	-0.8424189999325558
July	-0.8424081783678808
financing	-0.8420649216892405
aspects	-0.8388966267475699
profound	-0.8371833426491629
'	-0.8341196148542641
danger	-0.8338826073418633
sector	-0.8327874324109752
discrimination	-0.8327521058450109
provisions	-0.8314024765611998
powerful	-0.829770174314145
ideals	-0.8273994562833048
implemented	-0.8271611241366169
consideration	-0.8265868083340524
Gulf	-0.8260765825292151
represent	-0.824945695522102
seriously	-0.8246750567340198
constitute	-0.8244346169879876
culture	-0.823392022277347
tragic	-0.8231868566095365
Armenia	-0.8216593960960097
He	-0.8211761233134167
office	-0.8200557351752533
enhance	-0.8197194334581906
scourge	-0.8190875606068776
War	-0.8185285200021699
united	-0.8175716056274049
single	-0.8173405476421571
Bangladesh	-0.8168991592179102
religious	-0.8163776380465175
seeking	-0.8163312461536794
priorities	-0.8153271681073695
intervention	-0.8149297111812956
Climate	-0.8148274049342515
services	-0.8133922442557402
proposed	-0.8118984792991828
assist	-0.8093906411756162
until	-0.8056085221153142
tensions	-0.8048401782798583
nothing	-0.8041157984461993
twenty-first	-0.8037866183259451
assure	-0.801706321828428
implementing	-0.8011299877241506
contributions	-0.8011173299451922
encouraging	-0.8006236174901562
prepared	-0.7988161250609356
agree	-0.7984309882608918
rostrum	-0.7976957839179137
satisfaction	-0.7973475127713767
show	-0.7969109346723019
strengthened	-0.7953686725211042
innocent	-0.7940751258725167
colonial	-0.7935007553228857
modern	-0.7929592103532056
doing	-0.792326943727026
matters	-0.7919684799725298
stable	-0.7909585255811065
enough	-0.7898407617801654
restore	-0.78885542227465
proliferation	-0.7886157199881182
Japan	-0.788560704214617
Geneva	-0.787613946952225
organized	-0.7871761010406491
peace-keeping	-0.7866627699138309
four	-0.7861856196209387
represents	-0.7860720358981285
stated	-0.7850183674592174
elimination	-0.7828045420876368
hold	-0.7819546476896184
freedoms	-0.7818329015487734
carry	-0.7797914385871657
elements	-0.7794801858093788
France	-0.7792571969603734
Excellency	-0.7791667063188197
understand	-0.7790969867562172
material	-0.7788954282375644
Second	-0.77766884252462
instruments	-0.7766311317789942
conviction	-0.7746738443372287
Furthermore	-0.7744134515161983
historical	-0.7728188032964073
private	-0.7724243323122832
20	-0.7714896712285152
Paris	-0.7708818381173868
exist	-0.7702063291554135
highest	-0.7701368305021815
fighting	-0.7699717306561177
disasters	-0.7699587268813299
First	-0.7689526873913838
attempts	-0.768715112499668
negotiation	-0.7677552831157971
tragedy	-0.7671930033709043
preserve	-0.7671180219951269
related	-0.767116504451366
pursue	-0.7664668238146807
old	-0.7658326212830332
exploitation	-0.7654723911292189
kind	-0.765324076850385
finally	-0.7616730988145942
enormous	-0.7616096741888669
cold	-0.7592600004497945
unprecedented	-0.7591434300451763
Yet	-0.7583538107922435
Special	-0.7571116603325748
term	-0.7565480918946244
Sir	-0.756392988982132
survival	-0.7548290665687792
Korean	-0.7545856515991347
faced	-0.7521810693477838
prices	-0.7518875589392079
tolerance	-0.7511362064984873
violation	-0.7506737108337277
neighbouring	-0.7497391785043427
risk	-0.7487172600986317
namely	-0.74856648809243
adopt	-0.7477195665290868
treaty	-0.7472511766717935
noble	-0.7470892606844608
zone	-0.7470580960222626
decisive	-0.7461196761593848
colonialism	-0.7457491315621387
sea	-0.745701609370021
vast	-0.7456665731708795
commend	-0.7455554671298118
coming	-0.7443205594162023
burden	-0.744152483123556
structures	-0.7437393631156847
Germany	-0.7436208090785167
authorities	-0.7433153657434987
water	-0.7427146075693218
half	-0.7424056384129967
simply	-0.7421525177521798
Barbados	-0.7421382388024291
Egypt	-0.741961448252755
left	-0.7418640835535186
regarding	-0.7418633184442671
suffered	-0.7414136886824549
Austria	-0.7402219456380614
rest	-0.7395419362319096
official	-0.7381124914945998
fulfil	-0.7377436805936871
mind	-0.737409059807441
played	-0.7371403849566768
gross	-0.7366950977034501
service	-0.7357678076633247
previous	-0.7329224646173401
super-Powers	-0.7317951175399371
ideas	-0.7310743978112366
realize	-0.730357147134415
Secretary-	-0.7300024558842528
Its	-0.7295329564879102
seems	-0.7292891178937154
aim	-0.7285325388542121
August	-0.7282547619863762
fear	-0.7266501483506352
benefits	-0.7253006295017815
Brazil	-0.7252644021154689
Bolivia	-0.7247015065197038
December	-0.7239571902353261
Sudan	-0.7234762483537982
infrastructure	-0.7232961981517996
bringing	-0.7231017843636635
decided	-0.7230766164450907
fields	-0.7216424508508436
proud	-0.7215762659782972
idea	-0.7211737916066542
processes	-0.7196421257319447
Chile	-0.7193882600039373
closely	-0.7186022637925304
beings	-0.7178014204106602
moment	-0.7146138512869468
occasion	-0.7131474816504683
available	-0.7127147637112426
designed	-0.7126760871535609
numerous	-0.7123188874111603
so-called	-0.7118720211746978
currently	-0.7103863969172775
pleasure	-0.7095578914574945
ask	-0.7093927953432988
behind	-0.7088866996469505
direction	-0.7083253500288876
imperialist	-0.7082229550674894
resolved	-0.7075104411369113
solve	-0.7071042915621258
views	-0.7062547994104333
attempt	-0.7058151330354814
recovery	-0.7055583892245096
accepted	-0.7046135919484826
1	-0.7043958684091376
witnessed	-0.7043481702948602
harmony	-0.7042173412444948
negative	-0.7029264527588056
Social	-0.7019682735824647
information	-0.6998340971077088
outstanding	-0.699568983992974
pressure	-0.6978941332542402
addressed	-0.6969540989152533
sustained	-0.6952503145895993
Bulgaria	-0.6950368312014027
racist	-0.6949398094332603
Prime	-0.6938664402081551
constant	-0.693366984680501
meetings	-0.6931689507945179
Guinea	-0.6929768976535949
India	-0.6921518164311443
instability	-0.6919289701892986
represented	-0.6918025100678631
death	-0.6916731112285874
value	-0.6912483998734107
reasons	-0.6909519649770985
bear	-0.6901307154298884
provides	-0.6890667960272225
avoid	-0.6881663681224739
line	-0.6880366481193123
eliminate	-0.6861457684159681
wealth	-0.6836624618569388
factors	-0.6834115586982167
An	-0.6833567228702312
strength	-0.6814122064130311
gives	-0.6809691264235084
directly	-0.6804218754110511
Weapons	-0.6799851673593119
constitutes	-0.6797330673472285
improving	-0.6794162514354263
dispute	-0.6789595447668373
local	-0.6782132734621124
unique	-0.6779714627494045
Moreover	-0.6776164304160521
extent	-0.6776041543532896
practices	-0.6772743502273351
sectors	-0.6769230578032289
considered	-0.6768375842668178
fail	-0.6767232726980067
influence	-0.6762118702833243
drugs	-0.6759072861954958
lost	-0.6747356510041487
condemn	-0.6732763331728014
concerning	-0.6715058839784813
highly	-0.6714533332576069
stop	-0.6714406571997857
practice	-0.6712807843667096
prospects	-0.6711552137279432
maintaining	-0.6709462496336009
recommendations	-0.6698583614715486
Canada	-0.6694336136162599
spite	-0.6694074630005528
obstacles	-0.6688411112762723
indispensable	-0.668613002204313
transfer	-0.6675873373717633
product	-0.667576835810939
met	-0.667502928920886
cases	-0.6673421415385208
recall	-0.6669460783282727
long-term	-0.6666769568664974
diplomacy	-0.6663763321377905
expression	-0.6662639060433115
away	-0.666214707205782
short	-0.6661687595644739
ground	-0.6651117207293948
Bank	-0.6650820098422233
chemical	-0.6641668028270766
spread	-0.6629902555011208
legitimacy	-0.6621240169479917
expansion	-0.6605001454634145
norms	-0.6603126209311745
improvement	-0.659249324772296
rate	-0.6590203399127347
threaten	-0.6586022633680011
keeping	-0.658418871360927
Islands	-0.6581139591763044
equally	-0.6567751361058844
everyone	-0.6564918840664752
document	-0.6558876101390024
destiny	-0.6557082223598422
lies	-0.6547357586277829
stress	-0.6544383791748476
OAU	-0.6541622494019872
conduct	-0.6528228659721967
little	-0.6519392752504829
makes	-0.6510931096852165
By	-0.6489785072097186
Emirates	-0.64888427556875
contrary	-0.648804377706145
convention	-0.6485601311310557
similar	-0.6481699946212729
enjoy	-0.6478261528941452
extreme	-0.6474395684858869
From	-0.6474147628717852
substantial	-0.6466647949730482
belief	-0.6465884817720439
populations	-0.6447997654138556
Only	-0.6447373487313846
restoration	-0.6439816682174956
domination	-0.643645060869441
criminal	-0.6435157656797087
contributed	-0.6432786013883605
certainly	-0.6430951184844674
Iraqi	-0.6430788048762672
Heads	-0.6425386076734244
interdependence	-0.6422666168692247
Kampuchea	-0.642026987405875
loss	-0.6420076074143968
dealing	-0.6418120827503248
voice	-0.6413805790206628
During	-0.6403085630826515
linked	-0.6395903574746286
friendship	-0.6394225216770841
imperialism	-0.63864129073615
favour	-0.6381595631347927
space	-0.6361955495039284
institutional	-0.6349362593404361
considerable	-0.6348180782270603
capable	-0.6333751107166804
projects	-0.632501946373002
ahead	-0.6309469459820229
allowed	-0.6307947045853439
inclusive	-0.6306926308270908
efficient	-0.6301938466983026
emerging	-0.6301049349347599
tasks	-0.6297417055757175
expect	-0.6291809081717773
finding	-0.6286567584336352
Annan	-0.6285213746901622
foundation	-0.6275850818459539
attack	-0.6275835322353982
technical	-0.6271901665758038
York	-0.6269574582108307
11	-0.6268776627105084
October	-0.6248729437785518
civilian	-0.6241544253933954
successfully	-0.6240660525486396
Sahara	-0.6240610510429243
going	-0.6239262485186149
mention	-0.6232739903612308
structure	-0.6229208100941043
Nuclear	-0.6224534492400087
defend	-0.6217143176584098
gap	-0.6216954148617532
Although	-0.6196197521106802
attitude	-0.6195922812173883
keep	-0.6188173976547737
encouraged	-0.6165167276874746
activity	-0.6163398905718559
mechanism	-0.6159503065060231
injustice	-0.6158844597127097
elected	-0.6154341714162503
convening	-0.6152925643324249
positions	-0.6149483291967662
across	-0.614552157344028
Cambodia	-0.6144054276573525
draft	-0.6143334326639792
renewed	-0.613273199761835
1967	-0.613000290756401
centre	-0.6115135571724752
terrorists	-0.6112703527446304
30	-0.6107545897319064
emphasize	-0.6096994690895349
start	-0.6091538265111553
placed	-0.6088700776623469
adequate	-0.6084711627839096
holding	-0.6067742047988068
courage	-0.6059705857689385
non-aligned	-0.6054842023754241
oil	-0.6051197710756423
Palestinians	-0.6044301411686741
home	-0.6023380769174805
prevail	-0.602096067789779
2015	-0.6019327507119677
thereby	-0.601503066498237
conclude	-0.5985615923406887
followed	-0.5960212572102381
constitutional	-0.5956803295607047
Change	-0.5956727214272983
advance	-0.5954962707324232
concerted	-0.5950176287565012
event	-0.5947529596468014
extremism	-0.5945505429466843
atmosphere	-0.5939720388257741
devoted	-0.593698591437453
government	-0.593422031387648
broad	-0.5934135115481799
phenomenon	-0.59328112922355
terror	-0.5921504133736126
structural	-0.5916579064051739
trying	-0.591514285642786
everything	-0.5911526280286701
plans	-0.5909228169945128
takes	-0.5892630571752783
Belize	-0.5892025607910236
islands	-0.5890146493932621
care	-0.5872348719187198
cost	-0.5868658783019443
50	-0.5861414268946502
Kofi	-0.5859829597643172
deliberations	-0.5854381886738429
Unfortunately	-0.5853830410408816
affect	-0.5850741196924274
defence	-0.5849514329363344
hard	-0.5845309445206772
scale	-0.5843654177857042
Now	-0.5831816750149456
extremely	-0.583028477194671
earlier	-0.5817729329177286
Unity	-0.5811865334661511
awareness	-0.5805225317015112
founding	-0.5797913704251871
factor	-0.5782740067834171
MDGs	-0.5782315527751658
acceptable	-0.5777845189940475
d	-0.5776580620432702
individuals	-0.5776570946287026
realization	-0.5770133583547576
Sea	-0.5765019351084206
week	-0.575956896262803
heart	-0.5755966038773402
consistent	-0.5755497645835809
rapid	-0.5755330418023631
relationship	-0.5754704948821124
additional	-0.5750451086833464
daily	-0.5748908235023054
things	-0.5743054677360188
Mission	-0.5735140508708907
expectations	-0.5735008460855533
marked	-0.5725078732261701
foundations	-0.5724661042019004
transparency	-0.5693936510416653
signing	-0.5693510254166368
cooperate	-0.5681690900393043
choice	-0.5675187909933977
concluded	-0.5674032204868061
revolution	-0.5660246021923651
Libya	-0.5654378865030603
migration	-0.5653030459323867
2030	-0.5651593300077427
balanced	-0.564725375312586
although	-0.5645384444283426
name	-0.5641211462469122
her	-0.563729196193525
launched	-0.5635782806675932
Kuwait	-0.563493538511123
displaced	-0.5632483308473439
disease	-0.5617574524225337
sources	-0.5617535965512497
Benin	-0.5611556934759314
later	-0.5606359763304422
Constitution	-0.5605260370531138
unless	-0.560082905262797
off	-0.5595169535010227
Asian	-0.5593052795459595
failed	-0.5588831731731664
either	-0.5585890862354314
threatened	-0.5571279050382814
resolving	-0.5560351149347948
millennium	-0.5543345209735344
party	-0.554265256660846
negotiated	-0.5540583502112132
Earth	-0.5540293128991249
admission	-0.553787159579456
Albanian	-0.5534546497331111
racial	-0.5533043361576779
sides	-0.5531360511994164
personal	-0.5526137488391252
Spain	-0.5522378598591889
engaged	-0.5516464829549385
resulting	-0.551612481066714
follow	-0.5516029527453941
methods	-0.551398977143288
greatly	-0.5510813203289949
discussions	-0.5507839230524078
Ocean	-0.5507619390326096
income	-0.550472351474929
Many	-0.550337231432424
regimes	-0.54911201884235
conventional	-0.5475207183678105
combating	-0.5473788365983857
refer	-0.5469048453065849
perhaps	-0.5468712893276224
begun	-0.5468017846082256
welcomed	-0.5463421331415259
representation	-0.5462003795249606
genocide	-0.5450606276173624
facilitate	-0.5450014909790073
theme	-0.5448797120004004
quality	-0.5444477729982492
convey	-0.5441621883398349
consolidate	-0.5436937352595593
civilians	-0.5435294800854771
quite	-0.5427421811362396
non-proliferation	-0.5425579741958402
pursuit	-0.5424217404283029
Global	-0.5422765255626324
experienced	-0.541825462994987
supporting	-0.5416041502652811
Allow	-0.5393394904735599
truth	-0.5382000447261571
contributing	-0.5381601021138842
though	-0.5378276892307688
How	-0.5373584807225884
negotiating	-0.5371805894035143
hands	-0.5369097932696344
wisdom	-0.5358025765189464
agricultural	-0.5356550006084622
stands	-0.5351375689443738
inalienable	-0.5325774569121218
Their	-0.5319024716174497
November	-0.5310316200960696
trend	-0.5307161582525964
opening	-0.5306555928801904
reducing	-0.5302248186573015
demonstrate	-0.5299179758963838
internationally	-0.5291465006797159
Federal	-0.5285649516473403
succeed	-0.528560096508351
transparent	-0.5285515507392512
obligation	-0.5282335054475835
universality	-0.5275229646765142
respected	-0.5274792936431025
Some	-0.5262646745341748
Affairs	-0.5252995468607896
meaningful	-0.5251108216225431
arrangements	-0.5248815185909952
sure	-0.5245773357128765
Taliban	-0.5240288757531865
valuable	-0.5237787756839953
assume	-0.5234117681738916
outset	-0.5232162035540643
Ethiopia	-0.5229587659870079
whom	-0.5224920885444096
price	-0.522446948808224
model	-0.5223485059750527
Syrian	-0.5220041179374002
dangers	-0.5218480161041883
strategies	-0.5212928798605682
safe	-0.5212424655211654
More	-0.5211862639577886
urgently	-0.5206056140099938
damage	-0.5203732964086565
ones	-0.5199956473589188
declared	-0.5198515899738637
date	-0.519373829363135
timely	-0.5192971212315738
After	-0.5190749527838613
Yugoslavia	-0.5190309695161328
technological	-0.5183939109231546
principal	-0.5183369628450981
violent	-0.517300747567758
delay	-0.5172903783476338
Andorra	-0.5171944619639317
Movement	-0.51689973470146
conferences	-0.5168779106719109
application	-0.5167892611928222
mediation	-0.5162908170189199
realistic	-0.5149906482835938
knowledge	-0.5142408292036408
suffer	-0.5139777947630101
Nevertheless	-0.5139111505062867
families	-0.5135974460697724
engage	-0.5133921905936257
Pretoria	-0.5130795928027028
measure	-0.5130054815933113
Over	-0.5127267835004099
forced	-0.5122024007364089
constantly	-0.5119704380639426
age	-0.511837918615883
root	-0.5118060127885786
improved	-0.5115430501922449
Of	-0.5112895282464545
dynamic	-0.5110720296605215
confront	-0.5105577549619971
Disarmament	-0.5105380174619253
host	-0.5096622224436466
products	-0.5090690959988747
credibility	-0.50899540071505
integrated	-0.5087256399572794
discussion	-0.5083157371648616
appreciate	-0.5081135347686125
Bahrain	-0.5073316012773196
obvious	-0.5073078243370907
April	-0.5072520799475052
draw	-0.507064428802608
socialist	-0.5070422592636545
closer	-0.506475819516834
overall	-0.5058171820111764
exchange	-0.505035338573943
movements	-0.5047766766724492
mean	-0.5047285288088852
Zimbabwe	-0.5046358804118387
Here	-0.5038792778431329
reflected	-0.5033998945281407
seem	-0.5025340941597493
institution	-0.501487377151913
sought	-0.5014687859423114
record	-0.5013528689377159
traditional	-0.501000064110772
border	-0.5008859540079633
Mediterranean	-0.5005129335823764
consolidation	-0.5002134300954405
came	-0.500164269052482
prosperous	-0.5001101394056195
brothers	-0.49974905991204266
viable	-0.49957476563648834
giving	-0.49924998463628795
sincerely	-0.4989370696385469
possibility	-0.4980412966672669
auspices	-0.4979635459995602
built	-0.4974188779606082
massive	-0.49723965510040447
Colombia	-0.4963378222349817
quest	-0.49590951113142867
machinery	-0.495785156746707
Ban	-0.495747551191298
calling	-0.4955306979615749
2001	-0.4946810814446162
Finally	-0.4945547201059781
significance	-0.49417772320640085
15	-0.49416903155556424
merely	-0.494149121410727
12	-0.494000839773759
Indian	-0.49360537211644756
neither	-0.4934290491250273
leave	-0.49315576722497456
missions	-0.49233566285715386
oppression	-0.491618058554262
heavy	-0.4914967821927762
declaration	-0.49115224875101293
willingness	-0.4907278656779298
scope	-0.4906284220749232
core	-0.4891721470340764
happy	-0.4890142642796118
decolonization	-0.48895272726995936
minority	-0.48855064054419145
condemned	-0.4883443004033347
alternative	-0.4871002243749169
received	-0.4863958620946124
preventing	-0.48633628015568253
efficiency	-0.48622287845110723
diversity	-0.48609198663144326
Barbuda	-0.4857354235794619
setting	-0.4848722413672085
generation	-0.4848664694505203
HIV/AIDS	-0.4834490819750753
Last	-0.48321899966542675
claim	-0.48309164689809864
immediately	-0.4819716331476689
Non-Aligned	-0.4817670467757552
politics	-0.4816090154822337
industrial	-0.4813005013068294
endeavour	-0.48101792790716225
impose	-0.48082296144004827
Liberia	-0.48078095217475003
1978	-0.4807287596168716
civilization	-0.4807164342130189
proved	-0.4806582450260413
unilateral	-0.48027990651147084
endeavours	-0.48026783044226534
guarantees	-0.4788928463105127
NATO	-0.47878659969530013
places	-0.478596632759078
laws	-0.4781309830550984
utmost	-0.47798364270127625
thinking	-0.47715895312348433
resulted	-0.4770622355360662
deterioration	-0.47681181660154515
Antigua	-0.4759949136478599
Balkans	-0.47595558350708206
guide	-0.47573387669733797
changing	-0.4747860471081183
pressing	-0.4745010488732362
decision-making	-0.47367539533336894
coordination	-0.4733446391193769
participating	-0.4730715044011005
reaching	-0.4730443387418816
friends	-0.4729842115242465
changed	-0.47278542825576003
produce	-0.47278518018426535
Guatemala	-0.47148291085570426
joined	-0.4704309109457565
victory	-0.4696082766768002
homeland	-0.4694842655577389
eradication	-0.4690996262314081
stronger	-0.46875159953051604
relief	-0.4670767242576608
conducted	-0.4669809445507918
Ambassador	-0.4667827686059653
Georgia	-0.4667168104867732
aggressive	-0.46611962862382006
month	-0.46600788535897214
characterized	-0.46594971355681986
guided	-0.46589998721604925
message	-0.46577846075222895
ties	-0.46562577148758133
illicit	-0.4652578441138229
Forum	-0.46471526604585706
relating	-0.4645906286991241
preventive	-0.4643514608950231
Mexico	-0.46350475940857755
disaster	-0.4634174753369629
corruption	-0.463155290611993
South-East	-0.4630035640249958
instead	-0.46294501453665776
Belgium	-0.46259879156411754
goes	-0.4621643474986027
considers	-0.4616266373947963
transformation	-0.46141683147819884
worldwide	-0.4610198817610992
aims	-0.4609901151394821
Vienna	-0.4609387633167105
dialog	-0.46022241746126186
Timor	-0.4585928971419301
funds	-0.4585622032025289
phase	-0.4583727446456799
racism	-0.4579354261229525
conscience	-0.4578013412120333
rates	-0.45695135350638344
compliance	-0.45577074249476374
affecting	-0.4556174726906201
Ecuador	-0.45529891228876507
Turkey	-0.4546706042304335
urgency	-0.45449772608604566
try	-0.454486791597207
cultures	-0.45374487431778504
comes	-0.45274831724298836
Fiji	-0.4527141791994037
undermine	-0.452274467705453
tackle	-0.45216325337730007
Jerusalem	-0.45214134891012553
momentum	-0.4521214398627973
necessity	-0.4516770692362075
German	-0.45166462640066074
entitled	-0.45153051935777666
Even	-0.45111215275048666
organs	-0.4508852211379247
unacceptable	-0.45053775068731217
Universal	-0.45019659507195325
requirements	-0.4496306764317313
unfortunately	-0.4495925107156298
enshrined	-0.4487865168212187
advantage	-0.4487606138132202
High	-0.4484645675294262
helping	-0.44845130031039954
sometimes	-0.44763411744895343
dedication	-0.4475925003445591
settle	-0.44747665196622255
impossible	-0.44712517396511625
reduced	-0.44707080111034225
personnel	-0.4468189044917674
2	-0.4467754806118189
save	-0.44648300457286266
hundreds	-0.44647366777486375
reunification	-0.44608537888641775
began	-0.44572375170143386
submitted	-0.44556820498535477
forums	-0.44534896946647434
pursued	-0.4452940355535602
sound	-0.4449337199158376
strive	-0.44451568106176775
export	-0.44434643012286923
preservation	-0.4440240989892104
ideological	-0.4437022207881523
faces	-0.44349346369237275
completely	-0.4432362678786513
advanced	-0.44241599615377847
Eastern	-0.441532779960303
goods	-0.44130958002100257
big	-0.4408502743096231
something	-0.440498297717305
training	-0.4401257901829772
carrying	-0.43974990598798763
bases	-0.4394420009005161
involvement	-0.4388836908773301
Great	-0.438497415926263
proper	-0.4383073054389787
gender	-0.43825429273168326
resolutely	-0.43821381629820505
get	-0.4381041750321894
productive	-0.43806860663712094
forget	-0.43759714947983075
ambitious	-0.4370851024527368
determine	-0.4368478945690872
commit	-0.43683893103859817
restructuring	-0.4367419428986032
series	-0.4366278039679063
undertake	-0.43532886760168665
presented	-0.43524401806267543
shows	-0.4350827470915768
Ki-moon	-0.4348320198889388
paid	-0.4346222301012718
element	-0.4335354524975152
heads	-0.433265171061026
inequality	-0.43308156459861724
diseases	-0.43238171951842674
city	-0.4319646675934346
quickly	-0.43166931871448283
largest	-0.43162407859710344
facts	-0.4316119913567675
unemployment	-0.43151796209648247
deserves	-0.4315122211639481
business	-0.43129940249114446
mutually	-0.4312637711760376
worked	-0.43089215377591455
attain	-0.43061244031666035
acknowledge	-0.43051326832863296
absence	-0.4304174614696408
reaffirms	-0.43016904803300704
heritage	-0.43011982006877264
homes	-0.4300879925782694
Rwanda	-0.42962453267964945
Atlantic	-0.42951872929350293
peninsula	-0.4294812018014945
Terrorism	-0.429477683922099
emerged	-0.4293242905603712
March	-0.42912320287896005
embargo	-0.4283031832184479
whatever	-0.42805954899058873
armaments	-0.4277847991249689
functioning	-0.42767654650949605
reflects	-0.42738714741818185
maintained	-0.42732012842688294
Protocol	-0.4272935975445253
40	-0.4268211679896472
compromise	-0.4266863864106652
elsewhere	-0.4264437978441381
eradicate	-0.4262199709056496
progressive	-0.4260727051723304
Burkina	-0.4251738681776623
mere	-0.4250382388069989
Hall	-0.4246606150554749
specialized	-0.42460492690536084
undoubtedly	-0.4241107083758821
safeguard	-0.4237091880757229
protecting	-0.42356962787484165
veto	-0.42326158793300117
warm	-0.4232589788092925
So	-0.4231880832969831
attainment	-0.4224251256077213
Lebanese	-0.422076181699448
expected	-0.4216321918928906
opposition	-0.421077909501805
fate	-0.42074169640211734
insecurity	-0.42043608210567773
2005	-0.42017127860408043
operation	-0.41979422653614534
Costa	-0.4195556949981209
sign	-0.41941778030903093
offers	-0.4194034693081387
reaffirmed	-0.41931986599942606
evidence	-0.41917094911787933
Mozambique	-0.41907298023614703
religion	-0.41860855723469775
emergency	-0.4184830403750308
scientific	-0.41803424236084336
finance	-0.4176726612992323
materials	-0.41679647323103586
tireless	-0.4164827316985602
sufficient	-0.4164709106718758
Non-Proliferation	-0.4164189055165809
Faso	-0.41623369757768985
Office	-0.4160203221430458
heard	-0.4151507697757657
Rio	-0.4139892750699386
excellent	-0.41374154641786876
weeks	-0.41343938695660903
sole	-0.41340379495929874
Taiwan	-0.4132837812852809
using	-0.41327958094766887
depend	-0.4131830253845909
25	-0.4130013050434007
warmly	-0.41268725215734614
fall	-0.41264294189248146
zones	-0.4124713321473261
leader	-0.4120429232206109
points	-0.4119773363790686
high-level	-0.4117814793676072
consistently	-0.4113238988238894
freely	-0.41125724802650465
depends	-0.41121752755000057
evident	-0.41111399336590987
pursuing	-0.4110713007884182
Belarus	-0.4104328172091892
gave	-0.4093816703672839
fiftieth	-0.4092793780797073
confronting	-0.40909118268351835
near	-0.4088705139098681
Similarly	-0.40814080891642823
six	-0.40769835088150197
focused	-0.4073714505865216
Ireland	-0.4072266940887736
useful	-0.4071552127350998
Saint	-0.40615548136212115
Viet	-0.40499390921753586
police	-0.40464615941520876
campaign	-0.40449301758974965
fruitful	-0.40411853517058527
putting	-0.4039442351947465
emergence	-0.4034732590601065
Justice	-0.4030604323749601
noted	-0.4027972963378169
add	-0.4026786269606167
devastating	-0.40225174129878355
safety	-0.4022317475707893
person	-0.4021782897723024
Grenada	-0.40186998303392835
range	-0.40181221610144513
threatens	-0.4016871165086899
inhabitants	-0.4016828479244678
Law	-0.40111332153054025
monetary	-0.40082881675750137
perspective	-0.4005807645702238
flows	-0.4005002548860853
optimism	-0.40037977235486344
request	-0.4002555385351155
Secretariat	-0.3998421607292665
continuation	-0.39969905741999256
everywhere	-0.3996637146049359
unanimous	-0.39962321690284697
directed	-0.39935613242126555
moving	-0.3991734812207085
identity	-0.3991317820230309
chance	-0.3990433399760565
regret	-0.3987273120080242
approaches	-0.39860582865622946
targets	-0.39848232163351316
wider	-0.3982840851716415
target	-0.39809757773977744
twentieth	-0.39750473309436946
readiness	-0.3973775146812499
became	-0.3972018269044859
welfare	-0.39712769497511674
impetus	-0.39682279140927645
felt	-0.3966630400126948
character	-0.396459079199751
Nam	-0.39642258603412034
Argentine	-0.39602714803129585
post-2015	-0.39591901265321555
globe	-0.39535071746437334
really	-0.3953212102484896
higher	-0.395210975345363
Given	-0.3947958595141413
dimensions	-0.3944702812475211
impunity	-0.39440747361144385
child	-0.3942990640613623
receive	-0.3941993053689792
deserve	-0.3935047457937026
exists	-0.3932401787817435
remarkable	-0.3926289094323877
grateful	-0.39253232155298007
democratization	-0.39250345576819756
Without	-0.39236639686415725
treaties	-0.39233701022255973
signs	-0.3922489364278051
enhanced	-0.3918960764164981
posed	-0.39181678688736915
reiterates	-0.39166508328612376
defined	-0.39162979837575257
equity	-0.3914237966289529
degree	-0.3911780988960205
geographical	-0.39112348541109443
foremost	-0.3902465139654437
test	-0.3902046342531302
favourable	-0.38958334821506013
regular	-0.38855031707541393
choose	-0.38817403779723814
administration	-0.38808000762215716
interested	-0.38751817838674396
Another	-0.3872142034958358
Decade	-0.3871704418864499
treatment	-0.3871618498933123
helped	-0.38712218783912083
extended	-0.38708013471946034
budget	-0.3869622226287633
promise	-0.38678772264882905
late	-0.38677539114004406
wide	-0.38654291191836165
Morocco	-0.38653649083527286
initiated	-0.3862430991779743
regards	-0.3859799624079249
conventions	-0.3857111296078568
thought	-0.38554244422005424
employment	-0.38499926979468696
willing	-0.3848621427834393
durable	-0.3846598343466164
youth	-0.3844423726500395
founded	-0.3839639631242612
laid	-0.3838276411326887
annual	-0.3835171286934001
1993	-0.3834389000040177
fraternal	-0.38299420761804204
agriculture	-0.3828370192341565
2000	-0.3827326986010532
1992	-0.3824456989493336
distribution	-0.3823312703926694
January	-0.3817111449989391
seeks	-0.3808924262200583
attaches	-0.38081225879392555
Côte	-0.3804449375054742
abuse	-0.3799611210986598
size	-0.3797908628295264
transnational	-0.3796187854820195
condition	-0.379586138048996
solid	-0.3790411026579602
Commonwealth	-0.3787262575829152
significantly	-0.37852643262454033
Criminal	-0.37816356304694015
mentioned	-0.37768096441133936
precisely	-0.37741414545753693
socio-economic	-0.3763549407029691
map	-0.3762472356273371
Ministers	-0.3761025040774255
proof	-0.37602882142805183
hatred	-0.37566938998857524
Rica	-0.375656438370398
severe	-0.3753800408263777
started	-0.375054015783776
binding	-0.3749982062235419
contained	-0.3747439084832882
becomes	-0.3747255736975244
solving	-0.37442542940540535
Iranian	-0.3740052586086698
enhancing	-0.3739523562705508
tangible	-0.37365947685511003
Meeting	-0.37307236161558077
fragile	-0.3725416489172327
weak	-0.37231964543278206
prevailing	-0.3719879711421147
contemporary	-0.3718730608521177
forth	-0.3716727552066442
nearly	-0.3710366469948161
renew	-0.37077032231325296
poorest	-0.3707620822959097
indigenous	-0.37020093119923225
Parliament	-0.37018028842629674
actors	-0.3701411188482472
Guinea-Bissau	-0.36983253852190195
Chinese	-0.3696070733760676
Strategy	-0.3694239584907056
pledge	-0.3693777919827755
adapt	-0.3692627010233669
trends	-0.3690285745476878
uphold	-0.368975162060384
repeated	-0.36865556630424867
destroy	-0.3686341740085707
unable	-0.36859091012558753
served	-0.36804248864745914
San	-0.3679173762599763
threatening	-0.367569864137402
Women	-0.36747268073838557
statements	-0.36737734896202073
decide	-0.3672262061108436
Secondly	-0.36669869457164067
partnerships	-0.3661286586455207
emphasis	-0.36586136502054817
civilizations	-0.3647860511274493
Mali	-0.3645902622303407
Portugal	-0.3645068057747109
Namibian	-0.36419153524802833
engagement	-0.36383288905245464
division	-0.363658663703613
analysis	-0.3636330843884005
according	-0.36350135008534434
subregion	-0.363296282307893
5	-0.36301287221496187
discuss	-0.3626613632300588
apply	-0.3623441583594814
sister	-0.36223930244259217
trading	-0.36217167340626927
sacrifices	-0.36189669794719465
boundaries	-0.3618903551215302
pride	-0.3618578338800009
tremendous	-0.36180438078040283
risks	-0.36161197398288414
destructive	-0.36160541538887453
peacefully	-0.36132066673385105
spoke	-0.3610696474025702
witness	-0.3610196396752977
Angolan	-0.36095431579286946
Commissioner	-0.3598444249525778
strict	-0.35963930384614134
black	-0.35956223647422714
reject	-0.3590279971567058
4	-0.35888666915818546
Ivoire	-0.35875592964804076
French	-0.3584266751665418
study	-0.3583727050862778
Power	-0.3582293476386421
collectively	-0.3581267379919453
non-permanent	-0.35798606758102386
participated	-0.3579209410280125
rightly	-0.35762410412987855
science	-0.3572519629310729
Co-operation	-0.3569331444758965
persistent	-0.3567385645472797
money	-0.3559774085135214
huge	-0.35584234713425245
invasion	-0.3556427464536264
possibilities	-0.3555458374564889
project	-0.3554305164127722
army	-0.35540729746814637
ending	-0.35489729781178453
flow	-0.3545363849952323
procedures	-0.35451219578349985
peace-loving	-0.35425761886752244
larger	-0.3532622979601255
respective	-0.35319375828570077
evil	-0.3531586499277615
link	-0.3530143038791239
ultimate	-0.35272689814153846
Indonesia	-0.35267398888559937
immense	-0.3526622566210755
centuries	-0.35255636363420817
conducive	-0.351411464062381
victim	-0.3508103024054217
claims	-0.35056087465064184
witnessing	-0.35006830607689615
learned	-0.3498835966863008
talk	-0.3496684413407689
Turkish	-0.34962158874640603
intention	-0.3495831170662415
Plan	-0.3493633857307584
costs	-0.3493455856871855
duties	-0.34917366476268075
degradation	-0.3489475502930916
Framework	-0.34886603817195266
includes	-0.34871853634026606
sphere	-0.3486763041273196
easy	-0.34866732715851945
performance	-0.348089855554705
exports	-0.34750934369003383
acceptance	-0.34721392203663803
lines	-0.3470264495389654
pose	-0.3468503368735854
destroyed	-0.34680721348595517
Monetary	-0.34665601460940065
condemnation	-0.346198702373856
absolute	-0.3455908506207858
overwhelming	-0.34558704813132946
raise	-0.3454173112988159
property	-0.34532214829815544
condemns	-0.34515557109877365
fund	-0.3447698637771248
barriers	-0.34461859411970663
grow	-0.34451963534849966
terrible	-0.34448067399419857
raised	-0.3435799082112448
dedicated	-0.34348260696937577
scene	-0.34338890094159336
occurred	-0.3433267453243603
Secretary	-0.3432743616740211
Representative	-0.34320785126438264
entrusted	-0.3428912041060405
head	-0.3425495528038644
enabled	-0.34246725043931536
lessons	-0.34238238667371096
brutal	-0.34237102688354704
Croatia	-0.34233795492382824
underdevelopment	-0.3423191563376303
leads	-0.34216161001778533
Third	-0.34164101439687516
consultations	-0.34163657739701325
decline	-0.3410840413555591
applied	-0.3410624940462234
Darfur	-0.3404881080441545
adjustment	-0.340122043707254
confronted	-0.33993092754057896
accompanied	-0.33967216541729867
Nicaragua	-0.33967060900792484
escalation	-0.33964770486403323
yesterday	-0.33960449112346436
Russia	-0.33914032585857956
integral	-0.33890057593597545
Algeria	-0.33874507266776965
offered	-0.3384701453339166
Through	-0.33820295127613575
media	-0.3380153989022607
rapidly	-0.337809595960827
chosen	-0.3362838598830663
Every	-0.335805377644699
enter	-0.33540145652901465
qualities	-0.33531441759005154
dimension	-0.33498068539226566
assumed	-0.3348508256677759
emissions	-0.3348022201446226
Eritrea	-0.33476204317998487
visit	-0.3341568641892042
repeatedly	-0.3337802142464801
delegations	-0.3334387900063996
thing	-0.3331023146974719
raw	-0.3329984042959599
Initiative	-0.3326519939304781
forthcoming	-0.3324222713633843
Among	-0.3323226494533547
round	-0.33172647676867584
Islam	-0.33146184805721823
Chad	-0.33126509763847656
Small	-0.3312083333801788
run	-0.3309868138540487
deployment	-0.3305253342026401
entered	-0.3305251087000739
functions	-0.3302399523663663
convened	-0.3302050376378484
non-interference	-0.3297453759353263
persist	-0.3295815501095735
manifestations	-0.32955840413592574
distinguished	-0.32948098214440713
remaining	-0.32939288704903186
hostilities	-0.32926312373141636
ignore	-0.3289862045515007
High-level	-0.3280758418761605
donor	-0.32803173963533977
electoral	-0.3279518925655186
passed	-0.3278831637576311
preserving	-0.32766651047690376
mark	-0.32738469585493796
beneficial	-0.3273685887140176
opened	-0.3271715115530557
Greece	-0.3270708166514261
21	-0.32703023211827353
innovative	-0.3269146027392743
regardless	-0.32683491983392077
primarily	-0.3267007381206044
entry	-0.3263520081186395
spheres	-0.3261634965210341
restored	-0.32607245202780294
pace	-0.325785792679651
standard	-0.32577376084490656
painful	-0.32553574984236433
answer	-0.32546906275405646
comply	-0.3254299873460622
ultimately	-0.3250795651003021
tests	-0.32504477708005386
realized	-0.32485012317495626
resumption	-0.3247306944806302
successes	-0.32449758845179
technologies	-0.3242298066754846
gains	-0.32376273175957887
tried	-0.32367175893298344
seven	-0.32354272568976383
base	-0.32345890498275726
denied	-0.32266428717997764
brotherly	-0.32231352463760427
commodities	-0.3222477598886779
playing	-0.32217712769460427
commercial	-0.32096387958980366
Because	-0.3208348630304661
undertaking	-0.3207876124081199
Force	-0.32065215467284547
minorities	-0.3203598190467294
advancement	-0.3199105980234498
1973	-0.3195018760836328
repeat	-0.3192540130182833
North-South	-0.31903087321557644
3	-0.3190246764799596
affects	-0.318699738882485
Africans	-0.318636643940828
none	-0.31861329552597295
responses	-0.3185556986205255
produced	-0.3181536065223773
evolution	-0.3181415933423158
brings	-0.31809645440459045
lose	-0.31804585591656437
allies	-0.31760659075722947
prove	-0.317499901002036
Comoros	-0.3171223477857612
Honduras	-0.3170805909989528
option	-0.31611064808837636
expand	-0.3160856452395106
continents	-0.31573897541886486
warming	-0.3156327715541769
worst	-0.31560977328839473
unconditional	-0.3153520163675817
1945	-0.31500008945408287
mobilize	-0.31479590501536564
solved	-0.31456484562940257
Cuban	-0.3140565494408958
speaking	-0.3136824296785306
restoring	-0.31356607955937077
born	-0.31346343619066724
bound	-0.3133959581890154
withdraw	-0.3132828728903557
settlements	-0.31325571582401823
safeguarding	-0.3129630671460936
accession	-0.3123765274392787
Association	-0.3121562158752834
referred	-0.3119578766154025
Jordan	-0.31195297587865034
unjust	-0.3119262354571028
break	-0.311830412541366
sessions	-0.3118293785239922
inherent	-0.31160147212082534
limits	-0.3113277008005722
Hence	-0.31128476967553537
Parties	-0.3110406217502739
Liberation	-0.3108795055178622
origin	-0.3108319364935019
gone	-0.3107290955511108
foster	-0.31055684960088514
killed	-0.3105330919335309
Socialist	-0.3104196632529772
resolute	-0.3102628185005008
monitoring	-0.3099298513006426
14	-0.3096192689121313
collaboration	-0.30960200174100444
Environment	-0.3093182206381301
workers	-0.30901571987707777
inspired	-0.308868293321502
Italy	-0.3080625065527301
top	-0.3080161324100346
spare	-0.30776590685853905
aspect	-0.3074077748130975
seat	-0.30739753613675397
implications	-0.30717428743261216
worth	-0.3061674186846083
guidance	-0.30601736093868964
partner	-0.3060002851517008
1995	-0.30590867067631056
gain	-0.3055868655472717
latest	-0.30557800381278105
goodwill	-0.30539748787034215
item	-0.3053793171829533
fulfilment	-0.3053440002483878
table	-0.3049939517417847
coalition	-0.3048813199430873
eliminating	-0.3047995313800173
dealt	-0.30479478834791424
experiencing	-0.304672592866638
guaranteed	-0.30445851148683334
refugee	-0.3044392298438158
conformity	-0.3041846219160767
looking	-0.3041366876212544
drought	-0.303880234908744
acute	-0.3036894634707876
collapse	-0.3035660639212117
advances	-0.30355347613827177
emerge	-0.3032191169922984
counter	-0.3031356137179597
justify	-0.3031317471410918
reference	-0.3031277500020748
shares	-0.3030938798156994
Congress	-0.30306822128433136
legislation	-0.30304193112410527
wise	-0.30278195577638345
widespread	-0.30275677367494824
relevance	-0.3024676371006936
stake	-0.30240577759664083
remind	-0.30231724469302595
Southern	-0.30224183978237484
intended	-0.3020663642116844
ban	-0.30205002291986016
seeing	-0.30162836425318523
PLO	-0.3014514328998089
accountability	-0.30131239769535006
language	-0.30103397118213243
non-	-0.30049561017713533
associated	-0.3003792749577576
intolerance	-0.299983498076469
looks	-0.2999656767236698
concepts	-0.29982352390097755
coordinated	-0.29961624757137023
Once	-0.2994704017036742
turned	-0.29918226316463736
anyone	-0.29887743629677327
involving	-0.29854654188653934
referendum	-0.2984905719761753
resistance	-0.29843142359607705
sympathy	-0.2983649096082533
inclusion	-0.2976274860980294
halt	-0.2975902787944199
Botswana	-0.2975242044292582
saying	-0.29749945106820136
capabilities	-0.297449307959506
asked	-0.2971854725065133
Any	-0.2968425639486978
Is	-0.2967350543413795
knows	-0.2967224879822783
wherever	-0.29658557241979655
striving	-0.29649580599097597
Dominican	-0.29609336699927946
transform	-0.2960313225500945
simple	-0.2958832218715104
Territory	-0.29584838528940177
ideal	-0.2958115886802404
acting	-0.29572749146340904
divided	-0.2956845886272144
cessation	-0.2956570106965934
subjected	-0.2955411765789973
shape	-0.29544871566947356
deliver	-0.29537737405513276
Kenya	-0.2950617453749871
Energy	-0.29493578207031457
shoulder	-0.29492183196047944
urges	-0.2943967944581542
Panama	-0.29410004087035135
Act	-0.2940393220600281
...	-0.2940096904896256
word	-0.2939708739378859
tomorrow	-0.29346280493570487
lofty	-0.29340409739028633
lands	-0.2926872994073355
drawn	-0.2926690602529306
investments	-0.2924969595324533
adopting	-0.2924891717093678
Administration	-0.2924312804255295
promising	-0.2923208675650291
irreversible	-0.29208425228110557
discharge	-0.29205499990077016
religions	-0.291990390349012
adverse	-0.29166982907907035
inflation	-0.2912208240450769
rising	-0.2911408605827845
amount	-0.29113167686992164
6	-0.2910151417832314
jobs	-0.29097709316432285
won	-0.2904540204508959
understood	-0.29044194851546873
sharing	-0.2903722408648511
reasonable	-0.29033245926171547
preside	-0.29029602286775735
lay	-0.2902267508492695
Chairman	-0.29019224079963024
harmonious	-0.2901034807089948
permit	-0.2899503188493013
normal	-0.28983316100129936
administrative	-0.289562245892756
Sierra	-0.2892530847859717
kinds	-0.28924317417021767
Political	-0.2890309670731904
announced	-0.2888945580563876
Karabakh	-0.288890490051876
co-operate	-0.28856325738240984
soil	-0.28850926048782854
opposed	-0.288481158689972
ended	-0.28847295333783457
succeeded	-0.28843595138054556
construction	-0.28836162507369756
cease-fire	-0.2881941624444147
remained	-0.2877141644138246
recognizes	-0.2872821494391255
Agency	-0.28708688170843566
limit	-0.28701227116247935
myself	-0.28697778085654996
schools	-0.2868154331298471
attach	-0.28681063563801484
behaviour	-0.2866174339490936
cease	-0.2864763509572836
1994	-0.28636351203391214
ours	-0.2857026886789843
broader	-0.28563897813525096
air	-0.28552188567299264
front	-0.28547854961494107
promises	-0.2853883924285385
Just	-0.285040028327277
Ukraine	-0.28500261610218564
plight	-0.2849916735665094
post	-0.2849298625801561
labour	-0.28469592705650426
resource	-0.28441979268524475
fourth	-0.2843356419619925
congratulating	-0.28429661729523137
modest	-0.28424919156854545
League	-0.2840797886480681
celebrate	-0.2839691292941852
OSCE	-0.28389075692399
Year	-0.2835196275221639
described	-0.28341418449069233
Developing	-0.28338905312181295
appeals	-0.2833324890202375
occasions	-0.28321707385132694
emphasized	-0.2827751022055808
learn	-0.2824121794105029
count	-0.2821728767460147
interdependent	-0.2819540610066035
lie	-0.28170916231176785
100	-0.28159965617333177
subregional	-0.28142495344271923
added	-0.28140306046323477
examples	-0.2811107732225336
ratified	-0.28049187777029094
assessment	-0.28047476737388927
18	-0.28046311894799825
seventh	-0.28035058179419936
UNITA	-0.28011038739238525
completed	-0.2800920555202694
assured	-0.27975704795426376
inevitable	-0.2797045380710617
expanded	-0.2795684763363562
confirmed	-0.27938987976276436
vulnerability	-0.27925998272880953
honoured	-0.2791639269084255
experiences	-0.2789755940751415
unite	-0.2788976890311451
endorsed	-0.2788601545076997
continuous	-0.2787920255544495
God	-0.27867321427791575
persistence	-0.2786687328388222
reflection	-0.27846210331874255
likely	-0.2783471313288763
prohibition	-0.27832727551246444
soldiers	-0.2779581797581237
self-	-0.27790567418949724
Your	-0.27768543538528084
follow-up	-0.2774561486351432
disregard	-0.2774131252776512
supply	-0.27724344523813876
heroic	-0.27709776443254114
promoted	-0.27706986515080656
capita	-0.2767577964602499
peacebuilding	-0.27674720756058074
flagrant	-0.27669785687737913
remember	-0.2766645705161999
refrain	-0.27657467386046125
states	-0.2764565216289854
Doha	-0.2764404551453286
sixth	-0.27624680633616505
skills	-0.2761632162351101
managed	-0.27584303555362555
documents	-0.2755279250343136
Leone	-0.2755104222938497
facilities	-0.2754899665186139
Together	-0.27525336694916247
tradition	-0.2748179698032488
70	-0.2746920466507285
Party	-0.274604314332722
conclusions	-0.2740155177376131
Article	-0.2739327961064782
girls	-0.2738729173960497
7	-0.27368480039351845
included	-0.27364449054245893
double	-0.2735473369999348
appear	-0.2735427599194833
2006	-0.2733925281394972
holds	-0.27334198989631253
rejection	-0.27333024244450754
February	-0.2731534861946607
hoped	-0.27283922674140065
discussed	-0.2728349516642954
earth	-0.2728065288986155
protectionism	-0.2727835367121153
24	-0.27273590024278094
arsenals	-0.2726028100929915
fellow	-0.27257068041499855
advocate	-0.2725465607786728
launch	-0.27250901465036326
poses	-0.2724143134062034
arena	-0.27234559813700693
organ	-0.272250480558249
dream	-0.27218259523141286
Lakes	-0.27212729456376894
liberalization	-0.2717359545486348
meaning	-0.2717159364607934
16	-0.2715480454628478
ASEAN	-0.2714384294626164
intensify	-0.271308855849731
liberty	-0.27095672757982336
largely	-0.27094766146453564
capacities	-0.27089285037037925
funding	-0.2706414653616081
Accordingly	-0.27063744790188315
turning	-0.27057600230693113
manage	-0.2705697278884072
reverse	-0.2705139964783291
EU	-0.2704625931689083
Cameroon	-0.27040870837204156
pillars	-0.27033552315662795
British	-0.2702323882891253
totally	-0.2701182543222318
2010	-0.2701182339741592
intend	-0.2695656983185705
operational	-0.26942381573168855
links	-0.2691917472839169
neighbour	-0.2689447649038768
negotiate	-0.26876159801250243
testing	-0.2686156582465787
guiding	-0.2684657128373068
Denmark	-0.2683859089752712
Zaire	-0.26823546975307855
resume	-0.26816691038172363
Comprehensive	-0.2677809828969403
gradually	-0.26770556362624465
tool	-0.26759692724189194
worse	-0.26756047166526464
sensitive	-0.2675572765378335
Regional	-0.2674501573803053
propose	-0.2674010393034359
Copenhagen	-0.2673012510931124
picture	-0.26712517827076093
enabling	-0.26693523332898844
dramatic	-0.26676971063285115
435	-0.2666513369702327
1990	-0.26639013372375736
protected	-0.2662385321124376
criteria	-0.2662051822150104
pledges	-0.26594075247108356
alarming	-0.26585934623142404
consumption	-0.26583422886091207
identify	-0.2658273371609957
consolidating	-0.2656828891435274
ratification	-0.2656762747096362
ceasefire	-0.2655671360957546
define	-0.26548412907456326
prepare	-0.2652952758839341
provision	-0.2652626674728034
vote	-0.26520543469837005
rebuild	-0.26517541764638597
diverse	-0.26510809080413383
school	-0.26474535181012
Within	-0.2647277357914298
function	-0.26460873699383053
bold	-0.26456622396583507
systematic	-0.26441763344548075
contacts	-0.26427864678498636
speakers	-0.26409438514700284
rejected	-0.2639289671929159
essence	-0.2636353162506992
substantive	-0.26330101273963386
considerations	-0.26328908156695824
industry	-0.2632396475082501
respects	-0.2632303375006427
fulfilling	-0.2632253265392439
letter	-0.26305739158358504
latter	-0.26296508752023845
speedy	-0.2627194887567496
speech	-0.2625250101670569
warmest	-0.2622979292606062
adherence	-0.2622940988529526
defeat	-0.2622065570905714
Russian	-0.26206991445716915
competence	-0.26203646397212205
rehabilitation	-0.2618120728880299
Verde	-0.2615884409043509
popular	-0.2615278744527767
Under	-0.26144116217157004
Organisation	-0.26135974753897073
press	-0.26110116399377475
courageous	-0.26107930948406693
consultation	-0.2609085412719574
misery	-0.26087577487424396
relationships	-0.26074192496983184
satisfactory	-0.26071801548370044
inter	-0.26060975173342216
17	-0.2605805925573125
desired	-0.26010761701619006
credible	-0.2600355280540981
Dominica	-0.26002994727550827
resort	-0.260028790431134
specifically	-0.2599907730677932
60	-0.25985572079158625
accomplished	-0.259660437970429
commission	-0.2592104441905743
oceans	-0.25918098212430135
aspiration	-0.25912964657115295
El	-0.259006424254924
uncertainty	-0.2589077218658139
Zionist	-0.25879357043662743
long-standing	-0.25875330029470023
pledged	-0.2586801874776415
debates	-0.2586273313975576
blockade	-0.25849142569714967
list	-0.2582919868943656
happen	-0.25824342028362895
atrocities	-0.25807736845269175
platform	-0.25782852307826476
slow	-0.25755808097943955
recover	-0.2572861862352452
2008	-0.2571979143028229
else	-0.25719767288822565
Switzerland	-0.25707562428487385
tax	-0.2570571529617757
pretext	-0.2570316050525676
encouragement	-0.2569579144873887
sustainability	-0.256891975951535
perpetrated	-0.2567464706025586
powers	-0.2564398752994883
extensive	-0.2562164226758578
empowerment	-0.25617591676995516
overcoming	-0.25615907659462145
appears	-0.25614079999675954
traditions	-0.2561015750585003
jurisdiction	-0.25597886468720044
unanimously	-0.25596281938025023
8	-0.255858687663413
blocs	-0.2558537854716746
Gabon	-0.25576931194627556
approved	-0.2556700127646717
Washington	-0.2555727080538354
Review	-0.25532555278803704
consequence	-0.2552810990806978
Francisco	-0.25513901891172547
despair	-0.2550756608909402
reports	-0.2549657555070508
cleansing	-0.2549510372518986
Bhutan	-0.2548770533016195
242	-0.2548003033954743
Estonia	-0.2544993349944764
Ghana	-0.254353322562868
issued	-0.25418046830810215
isolation	-0.2541381092263663
non-governmental	-0.25406343605689535
communication	-0.254042395635805
constitution	-0.25397727955343163
stabilization	-0.25387930765118166
expanding	-0.25383736477103697
Two	-0.253796657461191
decent	-0.2537254807152537
Like	-0.25323186883236826
UNCTAD	-0.25306818709164436
economically	-0.25295222375622833
presidential	-0.252935547677702
deny	-0.2528324580016289
guaranteeing	-0.25281973797837687
phenomena	-0.25261583251784897
struggling	-0.25259341002013314
missiles	-0.2518463418421342
abroad	-0.2517491131767322
Gaza	-0.2516836835339468
Peacebuilding	-0.2516106172538854
East-West	-0.2515287128183832
prevented	-0.25144447326347574
killing	-0.2513799526786543
happened	-0.2512643580701404
alia	-0.25117622039391835
proclaimed	-0.25086445558020404
extension	-0.2507992278490673
13	-0.25065605449710976
hopeful	-0.2504116087736452
absolutely	-0.2502108341918257
imbalances	-0.25015820230139457
ecological	-0.25015653022576395
offices	-0.2501337460073077
afford	-0.24989694037742663
Malvinas	-0.24988715839154768
intentions	-0.24979870757010966
die	-0.249744625100025
physical	-0.24947034155585918
worthy	-0.2494317777206188
rural	-0.24942542390923586
generally	-0.2493750774381505
accord	-0.24925537134705578
convene	-0.2486098092066879
aspire	-0.24847102376869323
identified	-0.2483756452551297
legacy	-0.24831600445579766
stood	-0.24828735001470587
spoken	-0.24812046666721177
job	-0.24782655008668467
Myanmar	-0.24775399972047268
referring	-0.24733902341942182
skill	-0.24703766105841757
obstacle	-0.24690398939748903
openness	-0.24679974111099584
maritime	-0.24662355656689358
communications	-0.24659612878593568
civilized	-0.24656018456284617
fortieth	-0.246385698640343
Greek	-0.2463213523154031
proceed	-0.2462442806748427
exclusion	-0.24604603278775045
22	-0.2460068961479895
anything	-0.24600230449267543
SIDS	-0.24582375442217588
revolutionary	-0.24566774695380836
inequalities	-0.24560322833166703
type	-0.2455130671839225
govern	-0.24546050078612963
intends	-0.24531560479773165
Food	-0.24513051517053788
reaction	-0.24509488557050574
Not	-0.2450811144990643
planning	-0.2449441072668663
privilege	-0.2448858476378668
Yemen	-0.24484062413179836
composition	-0.24471494520606044
battle	-0.24468501477364482
standing	-0.2446254086431375
migrants	-0.2443803802649308
safer	-0.24424926607331848
birth	-0.24409209247425248
launching	-0.24398484429195202
Libyan	-0.2439763968030731
extraordinary	-0.24396482753411788
legislative	-0.24395900567414633
fresh	-0.2437104248585818
Why	-0.24363906549185815
1991	-0.2435241784961732
cover	-0.24346406133922519
accountable	-0.24346303025720006
marks	-0.24342697633368854
experts	-0.2434087691485817
nevertheless	-0.24333098379163268
radical	-0.2433306953096136
alleviate	-0.24324265990300287
Chapter	-0.24320490732225444
feeling	-0.2430913003601126
expressing	-0.24302964122982806
expresses	-0.2430038766533444
gas	-0.24275655743682334
prospect	-0.24271020081563488
perpetrators	-0.24247962838394482
envisaged	-0.24216376770557996
fought	-0.24196055141961162
preparation	-0.24185272381096287
prisoners	-0.24169902808600177
Final	-0.24168067076212424
waste	-0.24142402902892962
unresolved	-0.24138188693797333
2002	-0.24135444888201893
advancing	-0.2412556584735619
ocean	-0.24120627398137376
violated	-0.24111715443347598
correct	-0.24093923137740875
causing	-0.2408939370375333
Authority	-0.2407988465022957
stressed	-0.2407102349123813
release	-0.24068068755793717
cycle	-0.24063227700565776
invite	-0.2401229435989147
brother	-0.24011664782304118
hardly	-0.2401004309922822
involve	-0.24006559108663944
Refugees	-0.2399755374324217
justified	-0.23994576244130908
transitional	-0.23975266578574525
well-deserved	-0.23934093281090527
staff	-0.23929764597923392
white	-0.2388762700484928
organize	-0.2388426355047877
AIDS	-0.2387783914715401
Lusaka	-0.23871347720532354
owing	-0.2386966859578101
research	-0.23835542639585935
regain	-0.23828385050834358
inevitably	-0.2382388173467681
attained	-0.23819712463272577
bloodshed	-0.23792495634828006
Rome	-0.2378822938999502
enjoys	-0.237555190749213
disturbing	-0.23751174759558574
architecture	-0.23748931928415304
II	-0.23738265343618983
sent	-0.23718057021540748
combined	-0.23714995280014325
renewable	-0.23706503958943168
devote	-0.23681675990925402
cities	-0.23665320927613975
NPT	-0.23629374535921968
observance	-0.2362298288266403
settling	-0.2361012874443293
Salvador	-0.23605515653207634
famine	-0.23603558704933508
observed	-0.2359862145750748
entirely	-0.23590951029602042
Cape	-0.23581588518870777
enjoyed	-0.23581536450223256
minds	-0.2357771194496869
rational	-0.23573663206728365
regrettable	-0.23569747147928774
gained	-0.23549414576668798
contain	-0.23529988153944845
Portuguese	-0.23528631215815723
sacrifice	-0.23500937502427294
legally	-0.2349986836381542
CARICOM	-0.23492091563441023
highlight	-0.23491117860441163
competition	-0.23483983222215526
coastal	-0.23483000974677062
Cuellar	-0.23476564597304922
networks	-0.23470499181532148
Rhodesia	-0.23465546332873927
repression	-0.23431249550647826
types	-0.23428436208738299
remove	-0.2341654699241698
pointed	-0.23416266153839418
valid	-0.2341244600801863
Afghans	-0.2339121820354955
politically	-0.23387449164252375
complexity	-0.23376678509470086
intensified	-0.23361478052611645
underlying	-0.23360954016719265
numbers	-0.2335887328552946
essentially	-0.23337292503720214
generate	-0.23336801758413092
assumption	-0.2333572504519631
kept	-0.23319463028387896
mainly	-0.23319294450137754
dependent	-0.23312427112180018
voices	-0.23310816250294195
newly	-0.2331024446310607
Sri	-0.23304343343509185
background	-0.232924187546182
sake	-0.23280789442363256
starting	-0.23275610377341385
pollution	-0.23252752151707487
universally	-0.23215373169461792
exception	-0.23204412549269246
recession	-0.2320077435294424
participants	-0.2319899343901624
normalization	-0.23197702511613422
Helsinki	-0.23191551910490502
rely	-0.23186602685414365
Having	-0.23185041714450252
oppressed	-0.2316751630000839
eight	-0.23166592118912718
ignored	-0.23166042696510558
SWAPO	-0.23158777196805413
fuel	-0.23154941355627517
scheduled	-0.2315334726717038
instance	-0.2313870904642045
wants	-0.23123912434055327
outer	-0.2311179639401234
exclusive	-0.23109556834737296
preparing	-0.2310455479043638
Island	-0.23101696153843998
Thirdly	-0.2310054699411874
severely	-0.23097467116227455
Arms	-0.2309500417922219
narrow	-0.23093635300866625
arrive	-0.2308109689156432
donors	-0.23078165139388385
deprived	-0.2307748093339941
declarations	-0.23071130114200478
accelerate	-0.23048506313065478
Serbia	-0.2301110837140576
revitalization	-0.22985482397918441
entity	-0.22971441549980745
tools	-0.22953423822394767
eyes	-0.2293007403080449
submit	-0.22919808304888512
hotbeds	-0.22891696348913335
transit	-0.22873957844316814
spared	-0.22865353523594548
cope	-0.22850938702437307
2004	-0.22827321223013908
logic	-0.22816651624483353
declare	-0.22802128707162114
presided	-0.22786991256692257
weapon	-0.22777483743643043
abandon	-0.22757077069209294
democracies	-0.22753618686684582
seas	-0.2275102646757521
2009	-0.227468063850633
Venezuela	-0.22727445510102112
Children	-0.2271856272874975
serving	-0.227180296696483
Each	-0.22709789798712104
hegemony	-0.22700266608462763
occur	-0.22698677267656925
Round	-0.2269398857312306
sixtieth	-0.2265600880504613
grounds	-0.2263757247922757
blood	-0.2263237916185254
solely	-0.22629168785464931
love	-0.22622484896615128
Before	-0.22619967737702257
credit	-0.22612710387832885
alike	-0.22612134196792869
heartfelt	-0.22605120092981212
difference	-0.22602948703795533
bloody	-0.22587094544173666
speed	-0.22577504715312244
condolences	-0.22570000716156047
apart	-0.22565755090793957
creative	-0.22542007865806965
fiscal	-0.22505655433576927
oppose	-0.22501981799045012
renewal	-0.22499958198962544
limitation	-0.22478724197652636
program	-0.2246589916893783
serves	-0.224570787641127
healthy	-0.22456875030516152
triumph	-0.22453091000807274
Lanka	-0.22405906817111962
otherwise	-0.22372351600979606
items	-0.22357976411354225
sad	-0.2235794963591601
Armenian	-0.2234629235594785
fulfilled	-0.22331785660813327
enemies	-0.22316694840654402
Partnership	-0.22298429851954144
Presidents	-0.22292714582756123
Finland	-0.22284985694128345
memory	-0.2228327818306706
involves	-0.2227767600373611
wake	-0.22273808857075256
Balkan	-0.22262728755736721
affirm	-0.22256494817489353
Saudi	-0.2225568966199316
necessarily	-0.22240339582252433
jointly	-0.2223322012192482
obtain	-0.222304400416398
frustration	-0.22218131450877718
aside	-0.22213349147240258
King	-0.221998132250651
voluntary	-0.22196372333667888
expense	-0.22153955779654178
marine	-0.22150924044523765
demanding	-0.2214485613739976
Consequently	-0.2213793514505325
widely	-0.22113586865694213
annex	-0.22107350930002528
commodity	-0.22097172495206457
embarked	-0.22078191801087121
sight	-0.22072669935264555
world-wide	-0.22051651872811326
citizen	-0.22037484606147292
Assistance	-0.2202874516856205
Most	-0.2202695216766471
recognizing	-0.22010468271771966
extending	-0.21944104296993636
survive	-0.21930251314837734
interaction	-0.2192304722522961
23	-0.21917546153054998
generous	-0.2191726642183785
belong	-0.21915709796014066
rebuilding	-0.21887877940362696
respecting	-0.2186731260532499
paramount	-0.2186675701369768
fifth	-0.21866445724315983
Czech	-0.21852870882095893
acknowledged	-0.2184252764575974
preparations	-0.21831696280528348
gradual	-0.21827201436575233
centres	-0.2182673596385949
lived	-0.2182410190430763
proportions	-0.21815466092327437
enforcement	-0.21810335380587925
settled	-0.21809118567644456
reformed	-0.21797823590212193
saw	-0.2179391090742221
demonstrates	-0.21778377511942984
definitive	-0.21778280445778653
seats	-0.21713094341918793
divide	-0.21712216124706718
pressures	-0.21711384586671945
ideology	-0.21709900975075394
catastrophe	-0.21708964412080195
Australian	-0.21708341009049958
committee	-0.2168045206108984
chaos	-0.2164980291333331
occupy	-0.21639896199323433
advocated	-0.21639086066143687
repercussions	-0.21632571135310932
tenth	-0.21630376847562288
adequately	-0.2162592614201839
prerequisite	-0.21618664416146208
extremist	-0.2161135153636675
reforming	-0.2160069540081416
magnitude	-0.2159648284198021
abide	-0.21562114402316304
far-reaching	-0.21494843278547415
disposal	-0.21478608994175052
encourages	-0.2146975523366405
inform	-0.2146116753563582
imperialists	-0.21459074595903999
observe	-0.21454788559135757
securing	-0.21453371885870903
constraints	-0.2144532282374006
Thanks	-0.21438574819294
judicial	-0.21419577274357315
actually	-0.2141497465754168
generated	-0.21404379565900758
pain	-0.21401992143378726
ambitions	-0.21401953162077497
Nigeria	-0.21388931657273572
surely	-0.21387483521520986
separate	-0.21382295466557355
moved	-0.21372988153534478
waged	-0.21352670702273507
relation	-0.21347044640602522
philosophy	-0.21343665921341165
incumbent	-0.21325864765044103
himself	-0.21323945050999724
tragedies	-0.21305115508334438
Muslim	-0.21285362183714898
mobilization	-0.21284198690340433
observers	-0.21283643452684384
alliance	-0.21251930741793898
strictly	-0.21246954248310795
1996	-0.2123118228974734
enemy	-0.21225851272726542
2014	-0.2122491238140673
para	-0.21215106558559088
Recent	-0.21213448579760552
south	-0.21211382643481672
positively	-0.21147040300061878
formation	-0.21146621402108848
Uruguay	-0.21118478852968525
vigorously	-0.2110229976402354
Lucia	-0.21083818272564694
Guyana	-0.21078542663080535
rivalry	-0.21035691431971795
transport	-0.2102856343621532
1998	-0.20986197985535565
geopolitical	-0.20967168011230497
insist	-0.20942445286814199
Alliance	-0.20940051329724643
prompt	-0.20934712194842758
losses	-0.20931331494742889
nine	-0.20927217516327815
wrong	-0.2092369336887064
challenging	-0.20919085029104922
secondly	-0.20887929942701772
imposition	-0.20882240091626633
refusal	-0.20869258334656393
adaptation	-0.20867482936097845
Azerbaijani	-0.20857921749690353
properly	-0.2084385175993756
court	-0.20838883543596382
gathered	-0.20837953875664972
flexibility	-0.20833245742723397
roots	-0.2082201462815933
redouble	-0.20803112282931444
Other	-0.20771817278967267
bearing	-0.2075880940303724
worsening	-0.20758425256819552
Contadora	-0.20720053692148815
Arabia	-0.20715999828720688
fallen	-0.20704400909491041
happiness	-0.20696445803851066
exclusively	-0.20695568951309684
distinction	-0.2068712935736588
grown	-0.2066885011597014
definition	-0.20627202536004988
Peoples	-0.2061446227049046
arising	-0.20605846303637948
attitudes	-0.20600363834377533
seize	-0.2058978593719563
governing	-0.20564337109230046
debts	-0.20528768996122698
WTO	-0.20523081975304464
translate	-0.20521825670336385
fighters	-0.205088540638261
lend	-0.20506859233878685
diplomat	-0.20486601553562475
lot	-0.20480795014029696
nuclear-weapon	-0.20472714987831864
post-conflict	-0.20463671361265462
greenhouse	-0.20459578365132436
mandates	-0.2045745234806831
tendency	-0.20454936781629113
briefly	-0.2041562243717773
Both	-0.20357039067388072
applaud	-0.20353768755106946
Malta	-0.20350358222223494
win	-0.20307893572503716
ECOWAS	-0.2030413104768658
dollars	-0.20302229229599658
28	-0.20295304961150154
obviously	-0.2028609041422367
actual	-0.20271940516291784
confidence-building	-0.20270049838320442
embrace	-0.20269677057289975
planned	-0.20254361232451865
Statute	-0.2023296819023896
capability	-0.20227549878556278
1990s	-0.2022041281953539
spent	-0.2021182048461188
eliminated	-0.20203481569976145
guidelines	-0.2020007781349242
approximately	-0.2019662570342572
talking	-0.20189047411698502
Equatorial	-0.201878671906461
Nor	-0.20186759761637896
adhere	-0.2015934696230828
sustain	-0.2015151969603014
Panel	-0.20140744593919896
lifting	-0.20119965693451644
indebtedness	-0.20115119481786028
Poverty	-0.2011291780950039
Haitian	-0.2010639049149211
stakeholders	-0.2007354132001422
replace	-0.20065807264222443
Democracy	-0.20042033800055892
26	-0.2004171900040984
waters	-0.20038835478295883
reinforce	-0.20031390003127575
Kabul	-0.19956014252947618
Atomic	-0.1990713619995793
officials	-0.19902324349798683
introduced	-0.19897701526013775
possess	-0.19881167942904884
ratify	-0.19872327655597788
proceedings	-0.19861676689955526
tell	-0.19850883036239406
Likewise	-0.19826134816951785
Kazakhstan	-0.1982386909790061
allowing	-0.1980864778880653
deepest	-0.19802682060240812
drawing	-0.19797361464773303
milestone	-0.19797237663768352
inhuman	-0.19791716861719896
threshold	-0.19785727107126133
denial	-0.1978029839194081
front-line	-0.19772472208737038
sacred	-0.19764500180005726
applies	-0.19753960424604108
confirm	-0.1975009909178103
Latvia	-0.19737655392359335
devastation	-0.1973124864385276
connexion	-0.19720288329254893
favor	-0.1972001870516891
fruit	-0.19706509088471852
Jamaica	-0.1970367428176435
formula	-0.19683789397668544
minimum	-0.19670715927671167
embodied	-0.19643931862608008
assisting	-0.19619141694363365
Mandela	-0.1960506478100879
occupying	-0.19596922212719567
juncture	-0.19590575958257697
unfortunate	-0.19584307588225797
feelings	-0.19562301156414802
1975	-0.19543701470257868
Congolese	-0.19540936318489827
frequently	-0.19540334705352458
Front	-0.19538871131240731
footing	-0.19536934812687182
reliable	-0.19517489878490846
harm	-0.19515013706179649
smaller	-0.19499212261331994
rightful	-0.19495978356674215
Working	-0.1948587473712645
1987	-0.19484898790029087
track	-0.194734675975021
UNDP	-0.19471802959214352
low	-0.1946329337570796
companies	-0.19429379914601147
conscious	-0.19427961256195683
average	-0.1942472704692371
marginalization	-0.1941966444308082
joining	-0.19403050654182202
cooperative	-0.19399918532381574
deployed	-0.19396895362719305
bitter	-0.19360486303575933
protectionist	-0.19354721407558587
safeguards	-0.19352996657812815
exemplary	-0.1933805375010106
quarter	-0.19333768011884356
decisively	-0.19326787991225317
SDGs	-0.1932081568646517
dependence	-0.1931275991005161
Also	-0.1929896051302072
strife	-0.19298751721229163
highlighted	-0.19298425565036464
intergovernmental	-0.1929753838075793
Mauritius	-0.19289989776056163
2012	-0.1928444829615301
illiteracy	-0.19280229871399454
content	-0.19241890100316109
granted	-0.19228922306186397
heavily	-0.19224460998652168
salute	-0.19222472407833205
unfair	-0.1922145861849525
frontiers	-0.19220468347926373
expenditures	-0.19219387982393735
feels	-0.19181646878361544
forge	-0.19181420463916182
explosive	-0.19169733914799575
responding	-0.19161137986611748
considering	-0.19156996683379657
defending	-0.1915400343109175
Israelis	-0.19153658175758909
Madrid	-0.19147032639084957
yield	-0.19143849086604794
outgoing	-0.19135526299112307
removed	-0.1913536505553319
parliamentary	-0.1911858985315805
quo	-0.19113408766066478
Implementation	-0.19108070181230682
ignorance	-0.1909369259443602
paying	-0.19083368991789348
19	-0.19059037087580316
Perez	-0.19041487637746327
educational	-0.19031142182259875
friend	-0.19030317463677718
hear	-0.19024548725954593
notably	-0.19023075892142655
1997	-0.19017670333377046
complicated	-0.1900986678806554
failures	-0.18999078869508523
1980	-0.18997303649792951
fratricidal	-0.1899448075123231
VII	-0.189694281516372
2007	-0.1895912938852402
Developed	-0.18948864734106
scourges	-0.1894804610159793
Common	-0.18936691549025603
hostile	-0.18930204363442424
violate	-0.1892935446482235
1999	-0.18899010108232622
Jewish	-0.188989495165957
deadly	-0.18896132017085948
carefully	-0.18895915308321334
intelligence	-0.1886970104726944
plays	-0.18860263458419843
struggles	-0.18840771262056843
Cypriot	-0.18838929704473942
forefront	-0.18833583126863382
expansionist	-0.18826278120543286
estimated	-0.18824828192774665
reserves	-0.1879851406142671
strongest	-0.18778418168969058
Financing	-0.18773436887976042
widening	-0.18772162448924837
substantially	-0.18759966871922173
privileged	-0.18756370208450876
maintains	-0.18752567750872126
easily	-0.18749616622122536
sisters	-0.1873622311651998
exploit	-0.18719081890976721
internally	-0.18702727101671096
removal	-0.18701598314074516
You	-0.1869514095779659
arise	-0.18691864168965214
camps	-0.18663735686777025
Sahel	-0.18660021642635294
Vietnamese	-0.18644346622183502
troubled	-0.18636639708623404
IMF	-0.1862461028514462
large-scale	-0.18623576323026075
accelerated	-0.18615226405523028
went	-0.18600272287859224
midst	-0.18571881979755098
verification	-0.1856475575657824
Belgrade	-0.18561235460924874
replaced	-0.18558325468221776
Kyoto	-0.18557711099030902
Javier	-0.18556878867543258
text	-0.18549405270137018
ministerial	-0.18549326868918017
inadequate	-0.18535256908848788
embark	-0.18504590450558456
representing	-0.18483142971751407
endorse	-0.18481321038471785
completion	-0.18468736127675112
seventieth	-0.1846125824455164
biological	-0.18460703232685333
assess	-0.18460018533250833
Pakistani	-0.1844789262254868
desertification	-0.1840575813855616
eastern	-0.1839416432839585
mortality	-0.1836158287184276
greetings	-0.18356532437405787
examine	-0.1835481250514763
bridge	-0.18348546072845393
prevails	-0.18338207683476468
upholding	-0.18303730914028027
gathering	-0.1829537871624402
Joint	-0.18292331329743347
cohesion	-0.1828865390721252
tackling	-0.18284548647255616
2003	-0.18270595742153697
rooted	-0.18239071233808643
traffic	-0.1823621153245579
precarious	-0.1822829065623767
orderly	-0.182268395772757
ensured	-0.18215342697290002
focusing	-0.18212238865454441
Agreements	-0.18207520174414496
delicate	-0.18198536679695201
devotion	-0.18198211754997354
Spanish	-0.1817623577342961
2011	-0.18162779877317975
increases	-0.1815656595514257
Forty-eighth	-0.1814829386283732
outlined	-0.18141821378009818
autonomy	-0.18129814413653475
!	-0.18123721270374835
ethical	-0.18122909979876672
appointment	-0.18102311349634218
recourse	-0.18100643828120017
globally	-0.18094306878819044
Viet-Nam	-0.18081608068487975
tourism	-0.18071688705753544
entities	-0.18051438209428447
hosted	-0.18041978135540238
Instead	-0.1804191340820321
disastrous	-0.1802417441304848
Federation	-0.1801102737691327
Perhaps	-0.17993883013517775
profoundly	-0.17987327869453776
9	-0.17974727091505763
Horn	-0.1796654356680767
Much	-0.1796567288816225
nationalism	-0.17963671745448426
acquired	-0.1795130843295725
genuinely	-0.17938853322629272
defiance	-0.1793728896477555
send	-0.17922691471077776
warning	-0.17920918049171683
steady	-0.17901916828941505
fostering	-0.17886800340082867
non-alignment	-0.17882299504846708
democratically	-0.17870481843790662
original	-0.1786179481338551
cruel	-0.1786100372787871
consolidated	-0.17858629459404596
solemnly	-0.17853737793195285
ought	-0.1784582648502464
destabilization	-0.17840474825314534
Macedonia	-0.17837784884149385
hearts	-0.1781862246394742
unified	-0.17813781638883053
follows	-0.1780927476973224
Boutros-Ghali	-0.17794494584577794
forests	-0.17788581528281205
notion	-0.17774410830020548
advantages	-0.17772211512742375
persists	-0.17771921869102525
Somali	-0.17768787559413182
indicators	-0.1776544854925532
optimistic	-0.1776385337992256
Monterrey	-0.17747643085661677
1982	-0.17735907390070885
lesson	-0.17723140217245706
exchanges	-0.1772067186471055
borne	-0.17715483208656868
initial	-0.17712491032507213
slavery	-0.17710489571066337
driven	-0.1770779285115212
limitations	-0.17704451646191952
coherent	-0.17701835649498165
leaving	-0.17701535635512755
Peru	-0.1769172423992983
dreams	-0.17683116674038102
expertise	-0.17664438955129516
colleagues	-0.17635658300898366
transformed	-0.1763406330562161
Djibouti	-0.1761452943020789
Following	-0.17596936545003775
logical	-0.17592293554126653
virtually	-0.17586180381761926
floods	-0.17574387412207237
Head	-0.1757116634486437
implies	-0.17557577379253606
earnest	-0.17551492145015732
north	-0.17550066163150835
personally	-0.17543095070860237
deliberate	-0.17536717907061444
legality	-0.17509454311423858
partial	-0.1750793010375554
ambition	-0.1750593515167703
unwavering	-0.1749708032684399
relative	-0.1749349545578315
claimed	-0.1748396019935012
eventually	-0.1746607529355306
tirelessly	-0.1746537727882099
inability	-0.17455072165133456
harmful	-0.17451623372450498
patience	-0.17448688959789077
intolerable	-0.17443622151669338
conservation	-0.17437888625306874
defining	-0.17411890233800684
dead	-0.17403698886624003
attaining	-0.17400871926147074
multinational	-0.17398230170874204
solemn	-0.17365795803757614
showed	-0.17361039006154802
malaria	-0.1735427212372996
According	-0.17346224232399618
mines	-0.17341700069869248
journey	-0.17334525954088462
forever	-0.17329698910012536
invaluable	-0.17328227073004976
multiple	-0.17325182686791285
Health	-0.17324234607621497
presiding	-0.17318400288784724
deepening	-0.1731445537034973
Micronesia	-0.1731368741135767
stock	-0.17303845266614296
shortcomings	-0.17296446525469564
Hungary	-0.17291085640027978
realism	-0.17287440009634428
passing	-0.1727450106968637
enlargement	-0.17261533309427257
vigorous	-0.17255804995948734
well-known	-0.17226465335624336
CSCE	-0.17224725550879846
inside	-0.17218598139351382
faithful	-0.1721612450534101
welcoming	-0.1720354767367046
medical	-0.17190426110870427
Zealand	-0.17190357884348603
Boutros	-0.1717813511936788
indivisible	-0.1717493094629084
globalized	-0.1717253595859855
29	-0.17171263310174112
stagnation	-0.17147039990991614
27	-0.17146089448141635
Majesty	-0.17143993721801304
Poland	-0.17120627909677305
raising	-0.17114695746405803
restrictions	-0.1711272473514186
contributes	-0.17107300245793447
cut	-0.17101481414438513
energies	-0.1709966741185562
parallel	-0.1706467621481151
returned	-0.17060331508465396
weight	-0.1705921448325685
presents	-0.17049107924492907
expenditure	-0.17049098127473017
malnutrition	-0.17041925889141607
seriousness	-0.170276461367442
Muslims	-0.1701508433466376
aggravated	-0.17006645117688343
ancient	-0.17004821400239092
network	-0.17002721707263194
suggest	-0.16986852331315713
inflicted	-0.16982918887178608
steadfast	-0.16981867471335665
mine	-0.16980805609035898
deaths	-0.16965563434049333
contact	-0.16953346762968619
imbalance	-0.16952311343400536
Britain	-0.1693976284833002
northern	-0.16933766265024333
77	-0.16933537241850022
Rather	-0.16929449479823871
responded	-0.1692941353460027
answers	-0.16920251148261123
1974	-0.16916537289936665
eminent	-0.16911122968682424
green	-0.1691024425091997
successive	-0.1690959420596173
revitalize	-0.1689408590202592
spiritual	-0.16871963022489048
rhetoric	-0.16869906460121176
admiration	-0.16860310420905839
eradicating	-0.16828772153904248
housing	-0.16809305573590025
subsequent	-0.1680157263625414
excessive	-0.16794404455893194
exploited	-0.1679410750693136
circles	-0.1677981149150932
factions	-0.1677696034468811
outcomes	-0.1677546840442285
works	-0.16772755382472138
careful	-0.16770538927160775
middle-income	-0.1675840213538905
menace	-0.16746524524012638
refuse	-0.16741962027834084
formal	-0.1673519285786388
belongs	-0.1672810610272441
banks	-0.1672607735668862
news	-0.16719583515302003
happening	-0.16706861696590197
undermining	-0.16706209507601028
1980s	-0.16698642254857038
apparent	-0.16696976788688908
enduring	-0.16690619612393537
exceptional	-0.1667919190562373
image	-0.1665561726638709
render	-0.1663582151804693
underscore	-0.1663079578763238
robust	-0.16629648009873435
beset	-0.1662443750844024
considerably	-0.16623183669008645
Fourth	-0.16604427716437428
demonstration	-0.16598850829351722
Marshall	-0.16591973880688687
1981	-0.1657563824026201
Regrettably	-0.1657185027177595
announce	-0.16564493499032854
catastrophic	-0.16562282205077067
category	-0.16561479272156254
naturally	-0.16513184647379175
targeted	-0.16504016637609356
union	-0.16503396989223507
unequivocal	-0.16495933386204073
divisions	-0.16486637062441595
attempting	-0.1648280424538421
fullest	-0.16482500303740133
ideologies	-0.16479146255706795
resilience	-0.16471837500703265
imposing	-0.1645308239316486
realizing	-0.16434311677831326
false	-0.1642614792017695
ranks	-0.16405995583976601
earnestly	-0.16399455822181286
earnings	-0.16396461062013065
Nelson	-0.16394702599782068
Northern	-0.16394251086256617
outbreak	-0.16390851088296174
land-locked	-0.16387765659880077
inspire	-0.1638581251974871
delivery	-0.16382221987574874
village	-0.16368072456581945
dawn	-0.16363253767866942
bears	-0.16362182242067072
remarks	-0.16359141589749362
injustices	-0.16318068303515482
justification	-0.16314087237840058
intellectual	-0.1630685485742831
Against	-0.16305820280408131
dictatorship	-0.16294428202970943
landlocked	-0.16289022277100804
managing	-0.16287687235462872
Chair	-0.16281704981199616
concluding	-0.16280774382210583
admit	-0.16275369797407377
undermined	-0.16272174698546052
Waldheim	-0.1626590834477907
currency	-0.1626322382056338
intensive	-0.16254225480444304
London	-0.16248428745793542
deeds	-0.16243057561304036
Iceland	-0.16235389231535316
capitalist	-0.1623179686487344
prestige	-0.16225289357499817
facilitating	-0.16224225524535546
equipped	-0.16223236132151367
criminals	-0.1621561584014621
deprivation	-0.16209711549538963
isolated	-0.1619441994369955
John	-0.16194310366762646
defense	-0.16189820882271547
torture	-0.16181611906965535
introduction	-0.16174416229556324
commendable	-0.16171088225784858
formed	-0.16163842060084654
thorough	-0.161490325292042
payments	-0.16143525552913224
clean	-0.1613098454054383
Americas	-0.16125530918065742
equipment	-0.16117086917667398
supreme	-0.16116243038880504
deteriorating	-0.1610644668726638
mercenaries	-0.16101383960497836
contains	-0.16078641673355104
alliances	-0.16068327115249395
destroying	-0.16063972856329337
requested	-0.16062859644833405
spending	-0.16046714873602982
struck	-0.16039976800064717
budgets	-0.16026840485784297
Johannesburg	-0.16019958671443477
drafting	-0.1601994413049461
arbitrary	-0.1601750793860624
fears	-0.16012402293256786
narcotics	-0.16000944925860827
villages	-0.16000195127927674
Further	-0.15996624317458752
Berlin	-0.1599519149257786
brief	-0.15987977622878916
subsidies	-0.15971838196835036
destabilizing	-0.15966563510608
Malaysia	-0.15941604527876066
bad	-0.15930360051796524
1988	-0.15921897582275102
complement	-0.15920871991835459
exposed	-0.1590592107230108
fairness	-0.15904281711881083
annexation	-0.1590412396327936
improvements	-0.15891052120198984
Centre	-0.15884586456126923
ownership	-0.15880694948754287
reintegration	-0.1587316434623664
advocates	-0.1586790197883948
net	-0.15853746301506935
Nairobi	-0.15853285667546868
dark	-0.15841706104255548
sophisticated	-0.15837330437134742
push	-0.15835726496777175
succeeding	-0.15821937959233331
displacement	-0.15818043273688467
Above	-0.1579938093109486
admitted	-0.15795112692750407
invest	-0.15790721997998095
responsive	-0.15784339942974257
categories	-0.1578174103167292
hurricanes	-0.1576961893791569
proven	-0.1576325991381032
mitigate	-0.1576279060002111
inherited	-0.15755602408020766
impasse	-0.15743708873227388
suitable	-0.15742771903046007
exacerbated	-0.15740957854236634
rid	-0.15735162013498663
reminded	-0.15719858188319955
Papua	-0.15710357103832598
creates	-0.1570246470587399
acquisition	-0.1569635199426199
seemed	-0.15693422062183782
paragraph	-0.15691465092186616
governed	-0.15687433247053578
told	-0.15673941215662898
Nepal	-0.1567077038913618
third-world	-0.15668286074493876
Where	-0.1565720102709406
finds	-0.15637910939473054
maximum	-0.15634836231501187
jeopardize	-0.15633926739724133
0.7	-0.15631362018097336
preparatory	-0.1562242237500829
intransigence	-0.15620712803377165
constructively	-0.15620610850007416
officers	-0.15617160811670688
concentrate	-0.15610059255366102
Solomon	-0.1560611308483099
macroeconomic	-0.15605276077889818
offering	-0.15602660152229753
characteristics	-0.15602131111577375
pluralism	-0.15579040994873417
hemisphere	-0.1557681367784857
satisfy	-0.15570636392849416
insufficient	-0.15565813967520878
carbon	-0.15564700535463175
continental	-0.15564688676462135
march	-0.1556154859780347
disappointment	-0.1556080991186734
blind	-0.15554613005669046
intensification	-0.15551283310173494
fashion	-0.15546339702943524
allows	-0.15538705721491242
died	-0.15536189916464593
anxiety	-0.15530654878223984
underline	-0.15517916764964393
spreading	-0.15511528736507307
drive	-0.15507132618144598
dire	-0.1550590523080076
toll	-0.15504619564319005
honest	-0.15493747189086732
South-South	-0.1548502175663146
assuming	-0.15479233773663514
accords	-0.15473927778340965
irreplaceable	-0.1546276946286741
vicious	-0.15462322277603083
manifestation	-0.15457092938484537
organizing	-0.15452572751588814
contradictions	-0.15443824943627943
Minsk	-0.15434855428305694
Holy	-0.15431502657191176
None	-0.15421911871884478
biodiversity	-0.15417355712101002
regarded	-0.15414787928408497
previously	-0.1541384883114205
exert	-0.1539305429587602
ends	-0.15374065132331072
code	-0.15370210776259752
detriment	-0.15369799236284876
delivered	-0.15369261959517602
closing	-0.15366596214139316
Next	-0.1536510785061086
Warsaw	-0.15362126686806402
producers	-0.1535758637402127
Cypriots	-0.15352046735562122
beliefs	-0.15344267306339973
virtue	-0.153407978932627
Kampuchean	-0.15335394612804926
2016	-0.15326654392302208
viewed	-0.15322299235545886
rendered	-0.15315722450609068
fruits	-0.15305656409054433
joins	-0.1528430358870195
gratified	-0.15278596282559226
consequently	-0.15276960234739242
abuses	-0.15276554511121793
Cambodian	-0.15275610595192593
stewardship	-0.15258686880805697
modernization	-0.1525568445038074
nuclear-weapon-free	-0.15236698255754794
Obama	-0.15228609300248275
p.	-0.15220118894438292
compelled	-0.15218195270183693
1979	-0.1521065600040381
anywhere	-0.1520455046708547
mandatory	-0.1519135625730037
Gambia	-0.15186652439606718
Lao	-0.1516613334838047
alongside	-0.151618035827403
woman	-0.15148666038436273
requirement	-0.15146557226837007
asking	-0.15137811965084916
brotherhood	-0.15133839381365047
condemning	-0.15133101057497025
dynamism	-0.1509981502512392
shelter	-0.15091277436785933
confrontations	-0.15077929443905755
satisfied	-0.1504354280157947
operate	-0.15037993318948292
room	-0.15030656012299415
getting	-0.15028152112581603
enlightened	-0.15023807445765464
Nobel	-0.15023236999104317
believed	-0.15018957394791918
socioeconomic	-0.15011614295996978
producing	-0.15010352975945412
owe	-0.15001522954654395
coup	-0.1499022506925527
exercised	-0.14966334767035425
Least	-0.14966319541418885
seized	-0.1493173965572791
difficulty	-0.14929804118044263
stay	-0.14919595987656442
Clearly	-0.14911891326948903
reiterated	-0.1491061696230381
Dialogue	-0.14893763216848588
marginalized	-0.1487761175381144
prevailed	-0.1487339078466094
keen	-0.14861380416278802
landmines	-0.14848723127476046
avoiding	-0.14816595103991523
testimony	-0.1481341024349003
pragmatic	-0.14810581409723042
ordinary	-0.1480514865711783
pave	-0.1480084096000289
Moldova	-0.14794089936058658
innovation	-0.1478481156099668
appreciates	-0.14775748870863592
challenged	-0.1477203000357234
team	-0.14758405274075623
Territories	-0.14752362368883626
founders	-0.14751806197009038
desirable	-0.14749470017287417
taught	-0.14739124635415962
notwithstanding	-0.14739107513235164
component	-0.14732944433558925
models	-0.1473030744279448
Meanwhile	-0.14726826911621327
gravity	-0.1472568398824093
openly	-0.14721629737114217
fabric	-0.14712249816203732
wealthy	-0.14707712942414145
protracted	-0.14698878545004876
neighbors	-0.14688098758049326
indicated	-0.14675009743955056
Transitional	-0.14672965866621582
unilaterally	-0.14671782533340208
mobilizing	-0.14670317685344264
acted	-0.14670144663994533
aggressor	-0.14664411531351818
subjects	-0.1465789919421137
sets	-0.14650789496213443
features	-0.1463079169589269
granting	-0.1462999398695713
relatively	-0.14629674541768747
Bretton	-0.14628827366885577
acquire	-0.146273357464649
indifferent	-0.14618179395490324
forgotten	-0.1461278657246415
stages	-0.14609202836398974
Bulgarian	-0.1458866938496471
1971	-0.14572322578519617
symbol	-0.14569734060631104
meant	-0.1456439321769842
turmoil	-0.14564311126433166
undeniable	-0.14562669726381172
Forces	-0.14559894453002123
2013	-0.14559097428863338
translated	-0.14544576822335398
farmers	-0.14543595319144054
continuously	-0.1453708469043621
Arabs	-0.14525748107341577
extremists	-0.14519571258411604
pandemic	-0.14516234879341267
corporations	-0.1451106296262704
Jan	-0.14508581760255063
deplore	-0.1450809565693604
individually	-0.14499133763042057
﻿I	-0.14497757391089552
designs	-0.14491424107100553
fathers	-0.1449064526520794
fitting	-0.14483635837604555
sexual	-0.1445602797679667
Tanzania	-0.1445148736370961
contrast	-0.1444708783940918
propaganda	-0.14441325447440354
substance	-0.14436017777073346
steadily	-0.14435585528971517
conducting	-0.1441838306715484
illegally	-0.14414884871226927
dismantling	-0.144090708133477
non-intervention	-0.144030466618562
Woods	-0.14399465192221733
thoughts	-0.14396975575036974
intense	-0.14394633630512213
supplies	-0.1438423428825764
stopped	-0.1438236708739633
inception	-0.14367758189699806
approval	-0.14366966455825908
components	-0.1436552630353785
escape	-0.14365405208583537
judge	-0.1436425214735424
perfect	-0.14361331623398488
City	-0.14361174841964244
neighboring	-0.14359827153487648
below	-0.14353947321019994
wanted	-0.14351474615594317
roads	-0.14347602372647408
ills	-0.14345210483225598
quarters	-0.1433058530228308
interim	-0.14324774920201042
unequivocally	-0.14322807364347884
perpetuate	-0.14311797197560444
governmental	-0.1429342225409246
prior	-0.14291134449305098
underdeveloped	-0.14284075629342913
neutral	-0.14282465913573192
resumed	-0.14267182414978052
visited	-0.14263144233516598
calm	-0.14224996048792374
students	-0.1422102388679944
supervision	-0.14196273035564733
invitation	-0.1419136297701409
indicate	-0.14186149287076558
1983	-0.1418332390028392
Independence	-0.14175970077226327
Mr	-0.14173339244951486
lift	-0.14169869262963833
package	-0.14162963609381146
arrived	-0.1415819558659364
distant	-0.14157626528984746
chronic	-0.14153748929566373
Albanians	-0.14149730180007697
refused	-0.14140920310543692
1972	-0.14138561335608144
flexible	-0.14138338931052885
aggressors	-0.14136784604382252
heinous	-0.1413602103506957
poorer	-0.1412797827057564
Beijing	-0.14123672585869074
options	-0.1412282690315707
tenure	-0.14117534195364106
thirds	-0.14113181385400003
Arab-Israeli	-0.14100830419340327
backdrop	-0.14087361987493063
31	-0.14074550844639172
Nagorny	-0.14073617654427717
Madagascar	-0.1406749982901254
Prevention	-0.14063267269520782
restraint	-0.14062401851166292
indifference	-0.14054587998533272
transportation	-0.14053896066606103
1989	-0.1405379533463053
middle	-0.14051945282634762
Comorian	-0.1405051388595726
temporary	-0.1403926790080755
doctrine	-0.14035411319828384
super-Power	-0.14033300047859593
obliged	-0.1403225675856715
shadow	-0.14024048446884294
prejudice	-0.14017647987263557
game	-0.1401677576531081
Prize	-0.14016455736598016
Greater	-0.14012066912321938
except	-0.1400986548417043
coordinate	-0.14005100120082908
treated	-0.14004510522721683
closed	-0.14003864217160275
338	-0.13989117943476523
systematically	-0.1398273543752152
informed	-0.13970085965630488
setbacks	-0.1394942547509754
well-	-0.139446613993311
laying	-0.13944334187553187
surrounding	-0.13941205937262993
upcoming	-0.13939555687980973
celebrating	-0.13930880006794125
Montenegro	-0.1392873040216223
praise	-0.13925979938276567
sum	-0.13922742558146922
figure	-0.13917328477194843
validity	-0.13913078896600925
association	-0.13910843559618713
demanded	-0.13906516470174315
tranquillity	-0.1389188603832218
geographic	-0.13882975522733512
compared	-0.13872992274644397
fell	-0.13872674471122004
grant	-0.1386721300787315
IAEA	-0.13864439926679784
Consensus	-0.13860632721675173
forest	-0.13855547818797176
likewise	-0.13855265318762444
unification	-0.13839406347492803
competitive	-0.13830201627995414
enhancement	-0.13821045781524896
elaboration	-0.13819794092209306
esteem	-0.13808168091573228
rejects	-0.13799233427310653
headquarters	-0.13798785492762067
Support	-0.13797483352663958
promptly	-0.1379337091566272
suggested	-0.1378294256385635
wait	-0.13775887848138182
interventions	-0.13770031802301935
rests	-0.13768548110730272
Recently	-0.13767371762541283
murder	-0.13755725552569045
billions	-0.13753563854113798
ensures	-0.13752479255664207
selfish	-0.13751879126479644
Kyrgyzstan	-0.1375175033873131
indiscriminate	-0.13751698768573858
shift	-0.13749352923522595
excluded	-0.1373719035984951
Golan	-0.13735059434194666
commensurate	-0.13729378732496506
revealed	-0.13727377822756429
disadvantaged	-0.13718862583137395
neutrality	-0.13698366986796967
elementary	-0.1369218384185039
displayed	-0.13690482270353332
aircraft	-0.13688325557734884
class	-0.13687092107318963
initiate	-0.13685851277519165
competent	-0.13668675970667973
avert	-0.13653912837142276
transformations	-0.13648182598511144
fairer	-0.13646414903268866
budgetary	-0.13614601223681552
Bolivian	-0.1361055224445772
precious	-0.13609118829428052
privileges	-0.13601040005987283
inspiration	-0.13599243494324062
landmark	-0.13596697012771614
compassion	-0.135960401287801
amounts	-0.135926223565826
recalled	-0.13586199812008698
Internet	-0.13582579779415335
formulation	-0.13582418908816296
introduce	-0.13578988467371397
2020	-0.13574100704341197
Program	-0.13556810756003176
Republics	-0.1355479402083423
reinforcing	-0.13553882746778612
1970	-0.13551892496551837
toward	-0.13551056249448915
uncertain	-0.13550557272403405
professional	-0.13549636587004382
disparities	-0.1354430453421246
erosion	-0.13540492447376704
vein	-0.13535831918501603
massacres	-0.13518368196991998
Brazilian	-0.13515885891021906
industries	-0.13512481528294956
two-State	-0.13503380501410076
accomplish	-0.13496127220755488
formidable	-0.13492492976060685
Throughout	-0.13491417872323586
masses	-0.13471574015336435
twenty-fifth	-0.1347078096399982
patterns	-0.1345821225490301
associate	-0.1345560163037204
cast	-0.1345409585473089
Quartet	-0.1344778043253204
simultaneously	-0.13439278936391777
Reform	-0.1343902442930708
heed	-0.134344720177056
showing	-0.13430801615017945
formulated	-0.13424381571924604
chapter	-0.13418324896085
wonder	-0.13406428126424375
mitigation	-0.1340412916956753
aftermath	-0.13404062941210135
afflicted	-0.13401748852943227
Nuclear-Test-Ban	-0.13394796891778282
Ebola	-0.13394203236592794
silent	-0.13392120960144738
Janeiro	-0.13388741370539087
dominated	-0.13387934141105612
chairmanship	-0.13380177995772863
wave	-0.13378314050182677
Ministerial	-0.1337696529312356
History	-0.13375492622752108
deficit	-0.133667405684276
intervene	-0.13337772621075397
loans	-0.1332480368136132
Niger	-0.13319268434027157
200	-0.13314706997883077
desperate	-0.13298093733557587
generosity	-0.13296880401659616
whenever	-0.13290668844919226
endanger	-0.13287779674172095
connected	-0.1328644115650061
affirmed	-0.1328437187852613
prolonged	-0.1328324248958346
discriminatory	-0.13276252467196967
reactionary	-0.13273002860124983
arduous	-0.13267079768591866
elderly	-0.13253381913574624
reductions	-0.13251363508414613
probably	-0.1325128795231727
shaping	-0.13249717961760388
pursuant	-0.13245524092420408
strides	-0.13244963481161232
pattern	-0.13239196331546396
barbaric	-0.13236252161232906
renounce	-0.1323343315060072
Lastly	-0.13233026654740124
offensive	-0.13231444864282216
Bush	-0.132297638747891
tens	-0.13217411641190657
unconditionally	-0.13212667803494307
concert	-0.1320877379658539
predictable	-0.13207726467761352
warfare	-0.13195529782222448
Crime	-0.13188249338695293
engaging	-0.1317255540638837
Prohibition	-0.13170266838721298
Chilean	-0.1316918525197557
banning	-0.13151504325278077
refuge	-0.13151025096956373
broken	-0.13143502184909317
Nevis	-0.13143007180171512
thirdly	-0.13141576835284235
hit	-0.1314127111536868
assets	-0.13137480030541537
reaffirming	-0.1313743353915758
ministers	-0.1312323842409833
tolerate	-0.13122662443377317
irrespective	-0.1312035249406089
purely	-0.131128070324883
anachronistic	-0.13108224514053693
frequent	-0.13081973184731177
Ms.	-0.1307569208315813
explore	-0.13063667479190405
Austrian	-0.1306319112397386
mistrust	-0.13060037179992448
pending	-0.13059940459978464
placing	-0.13057434248523664
manifested	-0.13056868590284587
hence	-0.13055913306614864
Algiers	-0.13054043229609777
crossroads	-0.1305176529426139
impacts	-0.13051677268628245
Mayotte	-0.1305094521846078
silence	-0.13042433215361982
falling	-0.13037453827319828
senseless	-0.13032926798767605
thirtieth	-0.13031699404144725
harsh	-0.13026018931493796
authentic	-0.13025601418104527
Communist	-0.13023985540277977
endorses	-0.1302375648077165
judiciary	-0.13023754520110029
lacking	-0.1301644624693382
biggest	-0.13014219349337325
urged	-0.13013219068111292
Revolutionary	-0.12994354876690292
bonds	-0.12992844739762743
merits	-0.12983676004552083
Jews	-0.12974386809303462
species	-0.12961979756813186
receiving	-0.12960297204691634
Stabilization	-0.1296004894833389
80	-0.12957414601328632
feature	-0.12956094877944968
impressive	-0.12952539425363746
Brussels	-0.1294474582808507
conceived	-0.1294369389351869
coordinating	-0.12943021233840682
demographic	-0.12937880396816892
1984	-0.12934940299246037
Military	-0.1293065235546342
reinforced	-0.1292711700919685
registered	-0.12925299544783977
driving	-0.129236803891845
hours	-0.12919133854624518
statesman	-0.12919012026221277
sees	-0.12917300040457355
complementary	-0.1291587554722913
wall	-0.1291256534958185
eve	-0.1291236843226901
peacekeepers	-0.12908763547208843
UNESCO	-0.12893185035089513
located	-0.1288586160750636
non-use	-0.12883952988975664
decrease	-0.1288127505972535
creditors	-0.1287420010465592
concessions	-0.1287014139627185
data	-0.12863540547498897
Along	-0.1285935780126072
accomplishments	-0.12859333571905618
charge	-0.12858049948998931
GDP	-0.1284990414100579
familiar	-0.12846524927724667
sharp	-0.12836803418327639
whatsoever	-0.12833860210749043
opposing	-0.12823182475198178
honor	-0.12818894710506565
celebration	-0.1281102455493179
Qatar	-0.12806100488729413
travel	-0.12805545316230127
promotes	-0.128003825439754
attempted	-0.12799040669839812
easing	-0.1278588498665291
entering	-0.12773114958691023
reminder	-0.12772373448165733
peacemaking	-0.12772191130406482
figures	-0.1277068369250225
undermines	-0.12760722506718528
regulation	-0.12748810711426142
resist	-0.1274575285642846
confined	-0.1274004406033414
drinking	-0.1273991459279243
relaxation	-0.12735037891666304
Who	-0.12734341316834122
she	-0.12730414009660088
Otherwise	-0.1271932597343154
modalities	-0.12717910645745825
1986	-0.12717892834678537
exerted	-0.12704011603052875
topic	-0.12696757652539487
arrangement	-0.12692730322703577
abolition	-0.12691072729024105
UNICEF	-0.1268470423289445
gaining	-0.12682977135252427
short-term	-0.12675497624534168
regulations	-0.1267283535192572
vain	-0.12671864251631587
integrate	-0.12671508115943628
sea-bed	-0.12668492824473415
untiring	-0.12655832159150424
Progress	-0.12655068794712185
transfers	-0.12652246575297155
imports	-0.12643836611812037
emancipation	-0.1264290946369554
colonialist	-0.1263279617189047
Regarding	-0.12629494673177258
visible	-0.12620573285885175
celebrated	-0.12620508435565908
enjoyment	-0.12616921424690122
Cairo	-0.12615422616572292
abandoned	-0.12613732089270543
accorded	-0.1261370319646575
pass	-0.1260690581615793
countless	-0.12606577033872987
moderation	-0.1260628193640778
post-war	-0.12595276789657467
prime	-0.12588981969003532
advent	-0.12588561755997438
assert	-0.12587568654757314
precedent	-0.12576099827204096
coupled	-0.12568298395644653
interrelated	-0.12550382053345938
desires	-0.12536473351756802
whereby	-0.12516424082826322
occurring	-0.12509589727956658
Norway	-0.1250943864787496
valiant	-0.12509075066644415
moves	-0.12508152414589976
unequal	-0.12503701210195564
expectation	-0.12484644967183603
Globalization	-0.12483062547919996
running	-0.12477013973844286
Malawi	-0.12476092050356992
impede	-0.12474965143692396
hosting	-0.12462118772641104
obtained	-0.12442677690030712
devastated	-0.12441478224093615
existed	-0.12438941152941123
evils	-0.12437909465012857
hostility	-0.12437491569278698
Maldives	-0.12436104937174404
trial	-0.12435653126046449
Saharan	-0.12430675143320337
Euro-Atlantic	-0.12429786726189238
Drug	-0.12429418087783377
Yugoslav	-0.12427803188854346
Canal	-0.12423355515408568
Population	-0.12422501319464281
Nothing	-0.12416359093573716
stimulate	-0.1241630453727746
meantime	-0.12414235601821313
accepting	-0.1241046920394158
coherence	-0.12393890198758187
strike	-0.12392680414515136
pivotal	-0.12388705531506301
peace-building	-0.1238612990275031
preceded	-0.12382817772799073
observer	-0.12380576194933282
procedure	-0.12372923086687311
preserved	-0.12371863288716217
good-neighbourliness	-0.12365714258492921
destabilize	-0.12356206009439001
fishing	-0.12342574681237241
Brahimi	-0.12341891323361182
invited	-0.12340202997705477
entails	-0.12336227506057819
avail	-0.12333665739726926
electricity	-0.12325536488787205
cornerstone	-0.12324756666139798
excuse	-0.1232433612373383
object	-0.12323285114581159
manifest	-0.12320392539460176
victories	-0.12317303423085654
pillar	-0.1231476405203201
appreciated	-0.12313201984882771
morning	-0.12305820990563587
location	-0.12297166998802012
efficiently	-0.1228988063145467
burdens	-0.12286960985933058
shortly	-0.12279851661195705
deliberately	-0.12279615334891436
Persons	-0.12276480549352184
Turning	-0.12274767403739119
motivated	-0.12265191773547512
indebted	-0.12254426743330696
Kurt	-0.12248845508860637
Netherlands	-0.12237339759809909
design	-0.12236389045315536
productivity	-0.12232673106311868
Ad	-0.1223121375196964
humane	-0.12227828495890129
stalemate	-0.12224868183409174
Envoy	-0.12224104864116814
alien	-0.12222061207230364
promised	-0.12219846657607528
favorable	-0.12219844189646893
Counter-Terrorism	-0.12215989000523331
ease	-0.1220711354327515
paradigm	-0.12203118237624888
statistics	-0.12201391744126683
intimidation	-0.12197875621753286
anti-personnel	-0.12197755014604149
Luxembourg	-0.12189334528243748
candidate	-0.12180710094849276
Interim	-0.12177801626408687
horrors	-0.12177042533273441
touch	-0.12167859677908906
fraught	-0.12162308986961022
investigation	-0.12153317043826102
outlook	-0.12150662167899277
evolving	-0.12149061805758805
Tunb	-0.12148948174774014
requiring	-0.12142151024197184
eighth	-0.121390278179175
nationals	-0.12132555828689776
command	-0.12130956951297882
backwardness	-0.12130349535292094
shaken	-0.12110090218177257
Maghreb	-0.12107767477356673
banking	-0.1209731102355763
viability	-0.12094335303286739
door	-0.12088674521132176
Koreas	-0.12087482572615323
reconcile	-0.12069912753824348
elapsed	-0.12069192945213501
supporters	-0.12067026827345392
incidents	-0.12064694445823951
untold	-0.12064391627519613
Mongolia	-0.1206209539969515
losing	-0.12061015725495698
LDCs	-0.12042706638601157
denounce	-0.12033116492953791
post-	-0.12024180934367112
proportion	-0.12020986055311146
inter-State	-0.12016969730259745
Department	-0.12009782887157185
breakthrough	-0.12008217945517585
controlled	-0.12007934747495107
signal	-0.12007626212857407
instances	-0.11982253582744282
Canadian	-0.11981754157470646
frustrated	-0.11980807414100111
uses	-0.11979270520490996
developmental	-0.11972456088292104
monitor	-0.11967472086390653
1976	-0.11961147507668383
prominent	-0.11957529887956363
contingent	-0.11956411921727696
dignified	-0.11930268493834785
arguments	-0.11929997736846293
Humanitarian	-0.11925473844167742
criticism	-0.11918175493725154
compact	-0.11915159975080955
react	-0.11910401721114847
stabilize	-0.11908067013796893
Egyptian	-0.11907929831630383
rapprochement	-0.11905983129277892
burning	-0.11903044699159952
variety	-0.11892317588140985
imagination	-0.11889607412933643
accede	-0.11886817441989672
possession	-0.11880831835663358
undergoing	-0.11878834043102933
blackmail	-0.1187701256209293
David	-0.11871429941295417
striking	-0.11857085356745722
alleviation	-0.11856609620472243
dear	-0.11849000592241507
falls	-0.11846658400627494
notes	-0.1184389252862922
adversely	-0.11840850771280631
compel	-0.11832206185654472
circle	-0.1182889173973312
conciliation	-0.11826789793605962
notable	-0.11826048312316313
Unless	-0.11823891290240206
invested	-0.11811451108432612
supportive	-0.11811430548541851
Brunei	-0.11809595493654758
vitality	-0.1180776472704964
mistakes	-0.11805611584511895
son	-0.11804171343380583
intensity	-0.11799478554714374
alive	-0.11796762308011562
piracy	-0.11796569218376075
discussing	-0.11790603209869653
determining	-0.11788558514211787
unstable	-0.11771724393194229
Baghdad	-0.11771259453470588
wage	-0.11767164644526061
transforming	-0.11765415303393797
dominant	-0.11761044191966467
recommended	-0.11755449250364461
perception	-0.11748445474201635
proclaim	-0.11739300347676933
narcotic	-0.11730488091471611
delighted	-0.11728486785707491
attacked	-0.11727831900672438
multifaceted	-0.11724507227652936
hundred	-0.11720135952083446
tend	-0.11719421748624544
Red	-0.11707128794297152
remedy	-0.11706299554549306
sub-Saharan	-0.11700957530189648
Indo-China	-0.11698393785649804
constituted	-0.11693408588039583
sending	-0.11689860463647117
NEPAD	-0.11687166452643404
Protection	-0.11686622820510446
wounds	-0.11668571444271025
resurgence	-0.11666634263351552
vulnerabilities	-0.11666512308946479
deeper	-0.11653120140751058
Pact	-0.11649528829169939
daunting	-0.11645436711496567
assessed	-0.11638701542695463
tackled	-0.11631917125522163
redress	-0.1163128602934954
weaken	-0.11621831320170034
arrogance	-0.11621308218892183
Paul	-0.116210170944967
Beyond	-0.11618364773934223
Moscow	-0.11613016397565175
preconditions	-0.1160899261645954
breaking	-0.11608960744940582
Abu	-0.11607652537168586
kill	-0.11605586171753884
capacity-building	-0.11604824301632162
crops	-0.1160023636935783
Hoc	-0.115966116894152
imagine	-0.11596064053411463
vigilance	-0.1159055463369144
units	-0.11587454544353878
enterprises	-0.11573186456237411
moratorium	-0.11572050794935378
assembly	-0.11570321938117105
tyranny	-0.11557128149665807
curb	-0.1155485918757368
endured	-0.11549963354266306
motion	-0.11547993889405712
prerequisites	-0.11547733998232244
compelling	-0.11546793042326803
towns	-0.1153862564388974
listen	-0.1153699749439007
Israeli-Palestinian	-0.11533988851283294
signature	-0.11495222286806699
belonging	-0.11485557731922437
appointed	-0.11478921503798487
unabated	-0.11473342772626212
executive	-0.11472713592533705
programs	-0.11468832003204181
accordingly	-0.11467910554786544
servicing	-0.1146647504675425
pluralistic	-0.11464960767795357
meets	-0.11463686955627952
charter	-0.11462583786179484
﻿	-0.11462095645012797
perseverance	-0.11459621796769516
undertook	-0.11457344954214893
bomb	-0.11457299720442532
fundamentally	-0.11456898586796876
intractable	-0.11455789130030773
attached	-0.11453053126850674
tactics	-0.11450646807442925
commends	-0.11443978367372873
1977	-0.11442814463440551
Supreme	-0.11441887275864558
enterprise	-0.11441796407299332
Lithuania	-0.11438371092302074
failing	-0.11428158376045616
Independent	-0.11425634856370491
colleague	-0.11423403275964068
parliament	-0.11422752694323386
doubts	-0.11418570414349362
superiority	-0.11403102351459005
varied	-0.11398890295627659
everybody	-0.11389743953755493
argument	-0.1138558643095119
Persian	-0.1138257837086749
Addis	-0.11380626852883963
sufferings	-0.1137442764298494
deadlock	-0.1137384088334226
convergence	-0.11360986946515561
assigned	-0.11360319032217746
article	-0.11358125322294275
accelerating	-0.11356998403652989
blatant	-0.11348893010034461
earthquake	-0.11346237005128298
enjoying	-0.11335576605528211
profits	-0.11333883531972272
cooperating	-0.11330507142671663
Lesotho	-0.11328470256309128
horizon	-0.11328033379527158
tendencies	-0.11326511521341152
abject	-0.11310360669233482
enthusiasm	-0.11309382238691108
says	-0.11305786698352721
stem	-0.1128199868333974
demobilization	-0.1127118387574794
catalyst	-0.11270637860001939
governments	-0.11264994525246651
capitalism	-0.11264703133169032
earliest	-0.11258576665553928
Darussalam	-0.11256753195034495
story	-0.11255197207653292
Ababa	-0.1125316303617772
sit	-0.1125161879130567
manoeuvres	-0.11249254687775252
1985	-0.11244485003706318
Plenary	-0.11233828229870436
tense	-0.11232337359464521
agendas	-0.11229598764168304
Respect	-0.11222681071261498
USSR	-0.11221555469420316
scarce	-0.11213374460925635
Three	-0.11205521681869123
unleashed	-0.11205179388874469
joy	-0.11204541846064253
good-neighbourly	-0.11202509347723812
mistake	-0.11199093652588989
rebel	-0.11195879167602876
2017	-0.11192576048930931
Equally	-0.11190465923513043
maturity	-0.11184975783637092
sons	-0.11183996906971543
aligned	-0.11154472789783032
Principality	-0.11150160261803431
Efforts	-0.1114705929753966
manufacture	-0.11145077001534172
method	-0.11138886465835955
waiting	-0.11131286601287085
assisted	-0.11129226721586287
Never	-0.11123733735597068
demonstrating	-0.11122980463851699
90	-0.11122072413292744
twenty-	-0.111180495182202
studies	-0.11111855141067853
aegis	-0.11105077704582925
lower	-0.11100766661914387
interfere	-0.1109873691941599
Intergovernmental	-0.11094438518889228
reflecting	-0.11094111369639761
recorded	-0.11092130058308357
long-	-0.11091247010325024
house	-0.11083464883844732
groupings	-0.11076016630474333
allocated	-0.11073361434314677
brilliant	-0.11059015234857993
Guterres	-0.11051996655038328
sufficiently	-0.11051427555464574
massacre	-0.11051223484678122
approaching	-0.11046118208347218
relentless	-0.11044172713080948
secret	-0.11044134319924917
expressions	-0.11042889256428985
assessments	-0.11041712455284396
Joseph	-0.11041565665357848
explain	-0.1104117022976879
addresses	-0.11040181690177583
Market	-0.11037416016573273
applying	-0.11020475837271766
hinder	-0.11019769350645209
operating	-0.11018016390025875
disappointed	-0.11012573568663701
adapted	-0.11011781567779663
committing	-0.11008972336739012
fire	-0.11001320289589775
indefinitely	-0.1099537765712361
summer	-0.10993067306727408
alleged	-0.10989110334774743
utilization	-0.10983328561314298
inseparable	-0.10978594105683243
pertaining	-0.10974610663091915
channels	-0.1096982422950408
coexist	-0.10963479987233622
repatriation	-0.1095996690779652
Nagorno	-0.10952849202648172
expects	-0.10947548962234709
choices	-0.10946698771082912
western	-0.10943128655812799
blow	-0.10936403537999786
importantly	-0.10933081826890392
Faced	-0.1093166367804301
freed	-0.10931577243021705
quote	-0.1092062692335492
cordial	-0.10919636829540831
council	-0.10912272321727415
Headquarters	-0.10911558893816985
Peter	-0.10905986409791005
payment	-0.10895293108472233
backing	-0.10884654682853537
extends	-0.10883886606346575
blame	-0.10879118153198976
avoided	-0.10876480919256043
morality	-0.10867422988146415
accused	-0.10865057617957405
fraternity	-0.10861702000659852
bridges	-0.10859489923250812
present-day	-0.1085824055424655
dramatically	-0.10855339531968336
grasp	-0.10822569341668928
Tribunal	-0.108193294773741
disorder	-0.10819261023886241
deepen	-0.10808874518128722
confirms	-0.10804608496397203
Document	-0.1080019609051802
XV	-0.1079711115635283
digital	-0.10794039812349897
sixty-fifth	-0.1079029969039251
Colonial	-0.10788884087954771
politicians	-0.10787083436979897
fit	-0.10766701121072342
Five	-0.10764511435658788
shameful	-0.10761162041607421
proposing	-0.10759334857313232
counter-terrorism	-0.10756010193139269
easier	-0.10754599030303191
qualitative	-0.10752695266097692
principled	-0.1075195666140176
35	-0.10750880643201949
Whether	-0.10745882372351702
substitute	-0.10742028565362186
Child	-0.10741490089101959
miles	-0.10738866986975845
shores	-0.10731896769793561
Permanent	-0.10708715475867914
abhorrent	-0.10708492775544422
compatible	-0.10706210442615048
imminent	-0.10697436370163368
Agriculture	-0.10696951169976325
violating	-0.10693520216510104
brave	-0.1068830064841337
moments	-0.10679564846116066
Uganda	-0.10673033517977316
permitted	-0.10668740579390389
kilometres	-0.10668374901311867
theory	-0.10656021825362164
duly	-0.1065410537384598
upheavals	-0.10647325562137318
upheld	-0.10639255860130702
formulate	-0.1063702190994356
remote	-0.10634583513901924
attend	-0.1063275326591182
sponsored	-0.10627921612696703
waging	-0.10626018343269919
fortunate	-0.106244089310334
mobilized	-0.10621612644660178
treat	-0.10612488197747874
Hurricane	-0.10608869388766426
Discrimination	-0.106074314026991
perform	-0.10603978064038369
Then	-0.10599748748624715
volume	-0.10597741975297732
Chemical	-0.10592018577461063
hail	-0.10588220057114796
evaluation	-0.10585269065409689
dominate	-0.10576860855318923
re-establish	-0.10573247355114333
Ali	-0.10571648976394285
Paraguay	-0.10567774220334124
begins	-0.10553734962607807
lifted	-0.10552279357015355
vigilant	-0.10548152180739474
Cultural	-0.10547740611963145
escalating	-0.1054234703348875
seeds	-0.10541478237339763
adjustments	-0.10529990441743665
consent	-0.10529668737038084
incompatible	-0.10528990892059027
chances	-0.10524955632412471
Can	-0.1051836405243162
Nauru	-0.10518339941858738
G-20	-0.1051515931409019
periods	-0.10514588538248548
Mauritania	-0.10513969409257963
enables	-0.10513886212218108
geography	-0.10511526924878213
epidemic	-0.10500754877105219
lasted	-0.10495988545812455
formulas	-0.10494746995516334
Granting	-0.1049143282505812
released	-0.10487980572337621
neighbourliness	-0.10484163138284702
await	-0.10483626095293724
possibly	-0.10481913214405757
practically	-0.10478869268042663
frank	-0.10477795804901947
pact	-0.104747719797436
whereas	-0.1046411810980675
read	-0.10458815000995424
unreservedly	-0.10445866706830831
halting	-0.10440841882681812
flag	-0.10430877675683256
devise	-0.10430439254805823
accumulated	-0.10427712466019319
Byelorussian	-0.10426942098433711
persecution	-0.10413544479187503
Notwithstanding	-0.1040239175925169
bombing	-0.10400216529213392
roles	-0.10397076973051601
exercising	-0.10388631318836586
multidimensional	-0.10384826086459367
Zone	-0.10380089502112198
disintegration	-0.10379921909656308
controls	-0.1037325942102391
GATT	-0.10373224907641229
signatories	-0.10367540265154428
compensation	-0.10366633049067989
immune	-0.10365579081076529
artificial	-0.10362951511671807
sincerity	-0.10361628551737084
pertinent	-0.10353495644770667
explosion	-0.10350540318999987
published	-0.1035047896819051
secondary	-0.10348026791328016
guarantor	-0.10347795828587197
distinct	-0.10343784938512705
holocaust	-0.10342437441789548
faster	-0.1034039503433109
detailed	-0.1033678163008573
frameworks	-0.1032890996147295
hostages	-0.10321597095923364
profit	-0.10321430232517997
revision	-0.10320094569879129
hospitals	-0.10318976685195015
Smith	-0.10315347559527444
brutality	-0.10307053874406676
sixty-third	-0.10304461192440066
honourable	-0.10300462560318413
Sweden	-0.1029791141504387
equilibrium	-0.10292731321120353
earned	-0.10289892635765978
irresponsible	-0.10289555703020635
Upper	-0.10286967175629343
ninth	-0.10285112423302362
characteristic	-0.10284966357643324
Prince	-0.10281650554557059
hour	-0.10263112499028235
swiftly	-0.10260152846688345
ecosystems	-0.10255916000833422
continually	-0.10254310898248259
industrialization	-0.10254071560631375
merit	-0.10247253177934897
Stockholm	-0.10243198994524713
Executive	-0.10239875087810675
dying	-0.10234065161554329
perceived	-0.10230176856458438
suggestions	-0.10229951885823041
summits	-0.10227972574317487
Fourthly	-0.10225672043677936
Laos	-0.10220190848626488
players	-0.10216782342704514
immigration	-0.102158321573079
socialism	-0.10207157357582669
lawful	-0.10199498196991544
sort	-0.1019225973332703
refuses	-0.10192059137268474
Are	-0.10188621978558016
vigour	-0.10184601408643112
missile	-0.10182229238804023
weaknesses	-0.10181320455065984
sooner	-0.10179361926719488
benefited	-0.10175417111956446
drop	-0.10174613961099
compounded	-0.10174197821324468
agency	-0.10165322704859947
interconnected	-0.10164807318896728
punishment	-0.10164718985431645
Mother	-0.10152787862380698
defended	-0.10147561904465863
Zambia	-0.10137156475548613
fronts	-0.1013514401671377
written	-0.10128149959862226
greet	-0.10127415193654572
accommodation	-0.10119251253975385
glad	-0.10112626992471123
endure	-0.10108430762249529
Revolution	-0.10097297813797049
maternal	-0.1009603238986237
participatory	-0.10096030616666846
subscribe	-0.10090080168659407
Elimination	-0.10089832083208486
mandated	-0.10087259455051768
leaves	-0.10081995353173155
Caucasus	-0.10076016615036912
percentage	-0.10072823430873812
abilities	-0.10069661842604763
Armed	-0.1006920949944029
cherish	-0.10068751549444485
non	-0.10067707949754355
happens	-0.1006441325229664
plague	-0.10055128379622694
illusion	-0.10050785377338559
Based	-0.1004781976493244
saved	-0.10041668666435181
announcement	-0.1003861309251425
traffickers	-0.10037758450418799
unswerving	-0.10034574396716892
spring	-0.10033274323506298
sorrow	-0.100298904808761
deplorable	-0.10024199270414741
Stability	-0.1001932574809084
stems	-0.10016459049452353
consumer	-0.10015925186811302
transformative	-0.1001360991287007
stockpiles	-0.10011404698079673
accumulation	-0.10008873118405569
investing	-0.10008647302139495
exactly	-0.10002563188685086
shed	-0.09996789640594335
1948	-0.09986745829788601
ad	-0.09983618768844196
concentrated	-0.0998267010416653
fewer	-0.09982551767492687
display	-0.09981864973245909
limiting	-0.09981186222647045
vitally	-0.09969159623721324
hurricane	-0.09962865934886317
categorically	-0.09962635638217376
stark	-0.0995509288698459
Bureau	-0.09954447720122828
sixty-sixth	-0.09949074975996353
eventual	-0.09945120366285115
Camp	-0.09944939443197487
endless	-0.09942324724769834
runs	-0.09932482730128343
Non-	-0.0991975204090145
Tajikistan	-0.09918804348272378
Serbs	-0.09911081464690878
candidacy	-0.09907155550648461
walls	-0.0989700811790858
detail	-0.09896300265145448
timetable	-0.09895351530790313
suppression	-0.09888359355164907
encountered	-0.09886354953883798
fast	-0.09881261970353213
facilitated	-0.09876772396850071
fisheries	-0.0987404514820712
measured	-0.0987252501923406
lowest	-0.09868814460360897
visits	-0.09865954706030466
depth	-0.0986361973935112
fifty-ninth	-0.09862172492007752
anarchy	-0.0985830131304639
Senegal	-0.09857339403547861
proposes	-0.09856480467721904
300	-0.09851502382415714
selective	-0.09848735148065851
fervent	-0.09845299489606742
impartial	-0.09845120167852027
Volta	-0.09844922453449971
prompted	-0.09840630282818383
Far	-0.09833353821414723
Kiribati	-0.09832619749758155
applicable	-0.09830380314099872
restructure	-0.09824113389742885
backed	-0.09821471698446277
embodies	-0.09819992068292185
arisen	-0.09819084192669325
Kitts	-0.09818758608853473
enforce	-0.09818666701816567
Order	-0.09815390613446068
naval	-0.09811495979613989
acceded	-0.09810918824133293
self-reliance	-0.098043969984513
worsened	-0.0980132814301779
appalling	-0.09801300746439061
proclamation	-0.09797259316167682
five-year	-0.09794780096625134
vibrant	-0.09788595485368465
revenue	-0.09786442113582881
caught	-0.09778221572774883
multi-ethnic	-0.09768946667364926
attended	-0.09766485620440826
stresses	-0.09763593321288941
costly	-0.0975698515286009
Civil	-0.09755155596638865
reported	-0.09751512571451906
horror	-0.09749469203360576
suspicion	-0.09746941328158405
publicly	-0.09746706731065548
Al-Khalifa	-0.09745569386588346
enacted	-0.09742068632017717
renunciation	-0.09735964324033565
sisterly	-0.09732621784580878
paths	-0.09728181995241342
investors	-0.09727696413441805
unfolding	-0.09727519558572385
500	-0.0972494005930035
Asia-Pacific	-0.09724553379393946
turbulent	-0.09724283412320782
Report	-0.09716523404239447
English	-0.09713272637289003
Strengthening	-0.09711652370648902
Serbian	-0.09709105481458839
reconsider	-0.09708496595857377
1373	-0.09708187971126712
weakness	-0.09706987983286774
contributor	-0.09705927741079715
entail	-0.09705578133324269
drastic	-0.09698442215701351
distress	-0.09686205868349242
indicates	-0.09682542506376322
import	-0.09680924738463162
puts	-0.09679181851052265
torn	-0.09678428091954515
allocation	-0.09677778287662606
creativity	-0.09677741107447874
Permit	-0.0967729617240452
denying	-0.0967004873929395
yoke	-0.09668367122060133
segments	-0.09668269986604484
accomplishment	-0.09657734237575019
secured	-0.09653532219531187
stance	-0.09651968377832766
regulate	-0.0965059534322241
conflicting	-0.09647594367179267
proves	-0.09645474132858768
livelihood	-0.09642175785432558
Tokyo	-0.09642169396641266
atomic	-0.09637892842770147
liberated	-0.09634676445387289
hesitate	-0.09634491651523404
arsenal	-0.09633522701279805
block	-0.09632561614069404
separation	-0.0963242072231827
livelihoods	-0.09629365885663907
51	-0.09625136220850139
afflicting	-0.09623945322895973
hungry	-0.09623122261787109
Philippines	-0.0962270119118841
republic	-0.0961886188109871
test-ban	-0.09615221436527427
fragility	-0.09612156594822337
female	-0.09611061667018056
gaps	-0.09601098422618044
withdrawn	-0.09599813469667501
Royal	-0.09597958014885706
carries	-0.09592251309544722
customs	-0.095906612368093
conflagration	-0.09589462313134685
indication	-0.09585322056867879
ineffective	-0.09581814105643277
neo-colonialism	-0.09574441058307802
MDG	-0.0957199198433027
militant	-0.09564253549424649
Apart	-0.09562701310586422
punish	-0.09560882326952001
deploy	-0.09556265735299609
gravely	-0.09554363908703681
endemic	-0.09553518886736317
mindful	-0.0955117379483006
unrest	-0.09550615112731177
hostage	-0.09548821682356494
fairly	-0.09546847119632519
imperatives	-0.09545081290122655
Operation	-0.09543559822951306
Fascist	-0.09541362419647759
Pope	-0.09534198248824269
debtor	-0.09528237675941614
wholeheartedly	-0.09527687627640499
opposite	-0.09524457435608519
crowned	-0.09522616280652588
commemorate	-0.09522355019970125
assurance	-0.0952182625770744
certainty	-0.09520620201833668
Too	-0.09519679419609671
sixty-first	-0.09515265530101534
annually	-0.09514420567408094
reaffirmation	-0.09513687632746115
speeches	-0.09509871353007729
intent	-0.0950956213251082
headed	-0.09509332258760765
inaction	-0.09508597752006212
tenets	-0.0950343729613401
fanaticism	-0.09500835770460779
floor	-0.09500482038576764
swift	-0.09498018346154904
citizenship	-0.09493482688893187
breach	-0.09489351163851927
forged	-0.0948732564612645
hardship	-0.09482940787913607
risen	-0.09481314012085836
afflict	-0.09478589429698031
holy	-0.09470455781551938
Obviously	-0.09462548020239635
Ten	-0.09453938574359018
selfishness	-0.09453758381310967
contradiction	-0.09448623503482388
geared	-0.09448392593982845
strengthens	-0.09443378787236668
Goal	-0.0943513159265956
weakened	-0.09430522238216266
Al	-0.0942982404261981
rivalries	-0.0942591595158972
subsequently	-0.09416366876506112
patient	-0.09415792568307926
explained	-0.09411184925984836
chose	-0.09408497287795659
la	-0.0940530243745154
uncertainties	-0.09401721989521267
urban	-0.09401432385624488
Kashmir	-0.09401105620376562
gather	-0.09396942300324265
Savimbi	-0.09393777132862359
finances	-0.09383333725895905
doomed	-0.09379731759187664
nuclear-free	-0.09378605470949192
colonies	-0.09375167882359098
overlook	-0.09370672348759596
indignation	-0.09363807363242253
regrettably	-0.09363435195981522
parameters	-0.09361562855195486
scenario	-0.09360329832143453
build-up	-0.09355778029320445
proceeding	-0.09351594120875469
reign	-0.09348172372460346
dynamics	-0.0934188853646703
Financial	-0.09337635022108151
transcend	-0.09332843094713475
zero	-0.09326174235422077
clash	-0.09316676203325887
adjust	-0.09312542828259959
aroused	-0.09305899847974292
deem	-0.09305077299871763
protocol	-0.09301897666359331
Whatever	-0.0929919380100642
potentially	-0.0929363384997501
Control	-0.09289900435961031
epidemics	-0.09286916998643537
combination	-0.09282587125699245
beautiful	-0.09281002749363762
indirectly	-0.0927680770493129
protagonists	-0.09273672972822926
convince	-0.09270491409742619
compatriots	-0.0926635988302871
Principles	-0.0925727726287565
precise	-0.09257271247943465
officially	-0.0925238862499026
irrational	-0.09245146957497796
vis-à-vis	-0.09232340089879136
combatants	-0.09230684817898231
learning	-0.0923022420926272
Beirut	-0.09224881159548838
fascism	-0.09223423998820601
Americans	-0.09223213122444977
unit	-0.09221786131763257
Earlier	-0.09214532320912332
intensifying	-0.09212475442066007
1970s	-0.09209882334750275
charged	-0.09208918443321078
ignoring	-0.09200909347624589
Should	-0.09198121137262115
persevere	-0.09197093065607072
nonaligned	-0.09196896691703467
availability	-0.09195793299480359
wished	-0.09189553026176629
Will	-0.09186709260257936
races	-0.09186162999405692
Monaco	-0.09184924117629942
basically	-0.09182031510288312
Resolution	-0.09181252307315323
deteriorated	-0.09179674722672668
dismantle	-0.09178693781537892
guilty	-0.09177234288305146
ceased	-0.09173784579604453
Yes	-0.09172639444193124
precondition	-0.09171047219551136
reminds	-0.09170177660331054
hoc	-0.09166211627300112
Eight	-0.09162615434723992
pays	-0.0915545238604937
grim	-0.09154543114661078
corner	-0.09151517452518447
XXV	-0.09150520231894416
doors	-0.09149268613940996
supremacy	-0.0914700494009738
accident	-0.09143743291847503
personality	-0.09141668577939742
appropriately	-0.09132592984137435
embraced	-0.0913026342532964
barely	-0.0912987667456396
provocation	-0.09129751439670897
financed	-0.09128889191148508
informal	-0.09124196941473202
derived	-0.09120282941399806
Antarctica	-0.09118634245134187
virtues	-0.09111713463431055
opinions	-0.09110924939165582
feasible	-0.09110288532637374
missing	-0.09110080639802162
voted	-0.09109699948519488
asset	-0.09108880144514794
streets	-0.09105473032842673
departure	-0.0910250558545252
destinies	-0.09096642552538098
alleviating	-0.09094149510763753
Vice-President	-0.09091720972092666
regulatory	-0.09089209042081889
judgement	-0.09088381403852827
sixty-fourth	-0.09086705778468822
Freedom	-0.09086531972915901
permanently	-0.09084893713106315
Italian	-0.09082873876669412
Peacekeeping	-0.09082765616939538
heightened	-0.09074176398799048
Mrs.	-0.09073102676930951
ODA	-0.09073028646995508
Time	-0.09072618035325596
coercion	-0.09072130492027979
orientation	-0.09071049831152891
contributors	-0.0907080631579044
Education	-0.09068955436981561
neighbourhood	-0.09067002622013073
Zionism	-0.09065782541203711
Treki	-0.09063832369437616
yielded	-0.09063111968755942
adapting	-0.09062638923274542
subversion	-0.09061743717109155
tide	-0.09057307995804156
non-State	-0.0904745887718595
annihilation	-0.09046319690864205
Romania	-0.09043150839324506
Escoto	-0.0904239426639547
hegemonism	-0.09041529729596154
Still	-0.0903766158417212
observation	-0.09034973596571484
Tunisia	-0.09034745634463166
Bosnian	-0.09033467170287111
Free	-0.09025298105067042
lengthy	-0.09016707008243047
eloquent	-0.09013665403954164
Until	-0.09012476857510476
Mutual	-0.09007782761942842
evidenced	-0.08994231881631141
agents	-0.08989448891232436
seemingly	-0.08988005484084527
ruling	-0.0898663967408738
Everyone	-0.08985694725291705
supposed	-0.08984280342407774
somewhat	-0.08980450705326447
channel	-0.08979793235405145
elusive	-0.08975939061264858
stockpiling	-0.08975368379956007
comments	-0.0897347383187995
Jean	-0.08971223554130006
racists	-0.08970647354302778
nationally	-0.08969712399166502
warned	-0.08968188054144585
tuberculosis	-0.08967647670837793
manufactured	-0.08963449756952549
participant	-0.08960686925422529
hamper	-0.08960504723312174
rebels	-0.08957528930360802
shocked	-0.08957214328266105
undergone	-0.08956100470963133
Czechoslovakia	-0.0895579143489645
chief	-0.08955389030975436
Irish	-0.08953159067492285
liberal	-0.08952658557533615
declining	-0.08947789495055612
balances	-0.0894252590633947
arrest	-0.08936361667509549
examination	-0.08935935134041577
praiseworthy	-0.0893579265774218
neglect	-0.08927458040447088
committees	-0.08923713350209883
starvation	-0.08921870515100438
incorporated	-0.08921174148696864
containing	-0.08918583923306994
appeared	-0.08916512077282482
Brockmann	-0.08915458882097754
sanitation	-0.0891473045850531
Federated	-0.08912953978432774
spend	-0.08912941033088496
mounting	-0.08911532814894405
traditionally	-0.08910100270252633
passage	-0.0890986634276164
dangerously	-0.08909631535987929
man-made	-0.08907788339459173
expelled	-0.08905461888911298
anguish	-0.0890294824533254
undertakings	-0.08899074841139276
ecosystem	-0.08898166705006752
inviolability	-0.08896752477250273
greed	-0.08893101967512972
diplomats	-0.08893010381905098
1960	-0.08889868044108387
Puerto	-0.08889296625494643
accounts	-0.08884723447020985
self-defence	-0.08883639504478467
unsustainable	-0.08882993919881033
volatile	-0.08881427753043088
assurances	-0.08876260931044219
opens	-0.08876004379842066
xenophobia	-0.08872779329759845
complementarity	-0.0885854146105738
fails	-0.08856193789837126
distrust	-0.08855025015942128
socially	-0.08854046857126718
Strategic	-0.08842834634130685
generating	-0.08841475431306726
guns	-0.08837978440369602
Several	-0.08837945080770576
smuggling	-0.0883686421488306
bombs	-0.08834807070910168
revive	-0.08830835744297387
havoc	-0.08827177092428552
smooth	-0.08826960747753927
100,000	-0.08826865407156086
weather	-0.08826801279526297
Neither	-0.08824048984327834
stemming	-0.08820216378338189
flourish	-0.08807163122887249
basin	-0.08801464996648505
differentiated	-0.0879970998610085
eye	-0.08799116002932893
emphasizes	-0.08797819900593887
incident	-0.08794528351961417
evaluate	-0.08791805748150085
filled	-0.08790478824631882
stabilizing	-0.08788362248676236
jeopardizing	-0.08786209438653833
ICC	-0.08784833507152062
Apartheid	-0.08777647383651425
obsolete	-0.0877724851388215
candidature	-0.08776925463954117
compromises	-0.08776405660486229
Armenians	-0.0877498733751222
advisory	-0.08774091852626127
Army	-0.08772826971788322
peace-	-0.08767660579250838
moreover	-0.08766702881106447
vocation	-0.08764372236956608
progressively	-0.08760547198088683
disappointing	-0.08758868262029107
absurd	-0.08753074176939364
Cold	-0.08751343213907782
token	-0.08744517752615971
preceding	-0.08743839830352203
bank	-0.08743452631598024
helps	-0.08737644994885281
restricted	-0.08735052761368838
distributed	-0.08731666877762374
distressing	-0.08729324616450485
momentous	-0.08727402411479156
raging	-0.08725243259482286
defeated	-0.0872175597136618
delayed	-0.08718984688908613
thrust	-0.08717893114339953
totalitarian	-0.08716432054790964
complemented	-0.08713462350531366
futile	-0.08711018877609261
statehood	-0.08710176504817811
cry	-0.08710153255463346
feed	-0.08699684039677914
recipient	-0.08698724147043609
combine	-0.08692528781287714
liberties	-0.08684520421203823
concentration	-0.0868186914237407
devices	-0.08681481864716685
Thailand	-0.08676431280308271
diminished	-0.08669252879971148
casualties	-0.08666864371600921
juridical	-0.0866669721695807
Oslo	-0.08662932457479706
returning	-0.08661160237142
spectre	-0.08658660774789645
thirty-fifth	-0.08643743950985495
removing	-0.08641244542264977
broad-based	-0.08633547635209089
suffers	-0.08623508656592012
eleventh	-0.08622696705268933
1514	-0.08619489446257002
landscape	-0.08614246935412391
holistic	-0.08612014871670481
coca	-0.08611205938744108
Day	-0.08611086336221488
divert	-0.08608062176551001
House	-0.08607565779986592
Conflict	-0.08603081896317524
eradicated	-0.08602175957843863
resorting	-0.0860047371051907
identifying	-0.08599131733842041
Certainly	-0.08598538871040563
plagued	-0.08598131137217441
River	-0.08597557591949952
denounced	-0.08594966726579988
derive	-0.08592831071821234
cardinal	-0.08591069154800803
television	-0.08589954705137877
forging	-0.08589862950439824
provinces	-0.0858768937688798
Recovery	-0.08587061316995798
usual	-0.08583842315721447
primacy	-0.08582505104970525
in-depth	-0.08581896582716639
standpoint	-0.08578020920549928
reviewed	-0.08577716267445264
voluntarily	-0.08564321678918711
responsibly	-0.08564148890968701
proactive	-0.0856129014308068
disappeared	-0.08560699948657526
Tariffs	-0.08559776151288608
deadline	-0.08559686935593458
motives	-0.08548063430195525
historically	-0.08547649840363211
minimize	-0.08547027534381689
employed	-0.08533738048247196
OAS	-0.08530507436906716
Chernobyl	-0.08530248851082112
medium	-0.08525355889999628
grief	-0.08517577543753799
contempt	-0.08515976325253352
stocks	-0.08513264019971553
Concerning	-0.0850812956378549
Kuwaiti	-0.08505367120100081
dare	-0.0850049783953998
retain	-0.08495518845612843
non-communicable	-0.0849393463113728
plenary	-0.08490037066107173
surprise	-0.08488682403822223
drafted	-0.08481210013328754
advocating	-0.08475746913621651
formally	-0.0846954519372137
navigation	-0.08460568226772898
distance	-0.08457260617954632
pandemics	-0.08455469732528441
Comrade	-0.0845068295687749
powerless	-0.08448978965963046
qualified	-0.08448959583596126
comprehensively	-0.08445637626859726
wounded	-0.08444679294906188
overdue	-0.08442078253583256
fifty-sixth	-0.08441027489865738
Accords	-0.08438023656013255
exploration	-0.08427189674177754
sixty-	-0.08409648494840759
hitherto	-0.08406810090182756
marking	-0.08405412953076283
moderate	-0.0839585101129848
houses	-0.08392165504852202
periodic	-0.08392018294004219
plunged	-0.0838801366024116
regularly	-0.0838452663901941
arbitration	-0.08384455050579426
federal	-0.0838382757776263
mothers	-0.08381871532748038
functional	-0.08377142056729367
UNIFIL	-0.08375952868531056
Fortunately	-0.08375864714826692
paper	-0.08375254361727856
disappear	-0.08373611213173567
slowly	-0.08373609557932826
revitalized	-0.0837134935700959
administering	-0.08370079300072897
Civilizations	-0.08363116160886601
Accord	-0.08357227305042739
sixty-seventh	-0.0835396643621725
votes	-0.08347121879297072
Talks	-0.0834421956003777
fertile	-0.08344164756193082
length	-0.08336767568893025
businesses	-0.08335835493053834
definitively	-0.08324475132239888
Dayton	-0.08323740119094548
frame	-0.08320323951793523
fleets	-0.08319077188607503
unnecessary	-0.08314842040352946
150	-0.08313004561682141
deals	-0.08311446250519673
norm	-0.0830790330814064
schemes	-0.08304886412108965
Do	-0.08301096562333239
wide-ranging	-0.08300372222669755
Deputy	-0.08300233488920668
spectrum	-0.08298109741787912
sixty-ninth	-0.08288361919519728
unbridled	-0.08286937676100077
plots	-0.08285748633219128
bolster	-0.08285565885593842
fleeing	-0.08284101093687488
disturbed	-0.08283052969665221
thoroughly	-0.08281824848351771
rejecting	-0.08278994561731925
sectarian	-0.08277415925148236
respectful	-0.08268399777436403
empty	-0.08265404300706165
militarily	-0.08264624843786177
fifty-first	-0.08263847044871168
delivering	-0.08260059902929189
voting	-0.08259240124121
richest	-0.08258375329172733
diversification	-0.08256927317183133
Miguel	-0.08255576522396094
square	-0.08254404726703804
Sheikh	-0.08253318578986464
Al-Nasser	-0.08249088145787166
underscored	-0.08247359640178878
weakest	-0.08245180567388513
outdated	-0.08241992315284494
tropical	-0.08239468373354343
infrastructures	-0.08239020810818999
portion	-0.08235448931732066
heartened	-0.0823505209178519
richer	-0.08233954512795116
fulfill	-0.08232324768984738
SSR	-0.08230033166505693
agrees	-0.08229756454367083
establishes	-0.08228221268746555
alarm	-0.08227812801047282
Istanbul	-0.08226234538632624
Kavan	-0.08224846048392187
SADC	-0.08223899707063251
father	-0.08222936217126578
Relations	-0.08222909266989802
regrets	-0.08219145228183142
weakening	-0.08218731432166262
helm	-0.08217358218331394
Timor-Leste	-0.08217079765558681
broadly	-0.08216302679439522
supporter	-0.08213840476195322
champion	-0.08213395803017451
Ministry	-0.08211885577610763
revenues	-0.08206871424090845
neighbourly	-0.08203188904124889
faithfully	-0.08202577625626309
comfort	-0.08201420529768967
598	-0.08197495578067382
illusions	-0.08193819220571052
Andorran	-0.08190403001907082
disabilities	-0.0819004053201614
utilize	-0.08189405928566004
psychological	-0.08188404736092122
Ottawa	-0.08186790660919852
statesmen	-0.08184624615092827
legitimately	-0.0818003359945315
oriented	-0.08178207235741598
exclude	-0.08178095541360673
bloc	-0.08171257368570245
boundary	-0.08170661816706014
Liberian	-0.0816814061975293
gases	-0.08165548445549085
calamities	-0.0816547320729452
horrific	-0.08161293127007992
dictated	-0.08160346113940951
mixed	-0.08158133983049676
deserved	-0.08157058765204485
dollar	-0.08153868992392573
unchanged	-0.08152636647659621
insistence	-0.08150196010599883
havens	-0.08149244954685875
focal	-0.08148711964184774
illustrious	-0.08143473027095653
laudable	-0.08141279010921916
envisage	-0.08140213534064575
evolved	-0.08136032647263201
master	-0.0813427295790333
co-operative	-0.08133806893289973
twice	-0.08126204166217797
elaborate	-0.08118996623881657
Almost	-0.08118645669939602
Strip	-0.08117505617095286
Razali	-0.08108773692960619
Scientific	-0.08107091681572737
attract	-0.08100359988988928
armies	-0.08097965589672136
Heights	-0.08096027196693455
curbing	-0.08092896884702734
equitably	-0.08090117276920752
penalty	-0.08088456354316745
awaiting	-0.08086972410467096
speculation	-0.08084919192743735
efficacy	-0.080844853032622
Han	-0.08083161046953621
MERCOSUR	-0.08081144612166241
revitalizing	-0.08080150403666099
integrating	-0.08079908708233802
humiliation	-0.08079515823236336
mother	-0.08074411119560361
interpretation	-0.08073426581053329
output	-0.08073243228260372
brink	-0.08072323107859086
fifty-second	-0.08070285259752066
Bissau	-0.08069735334101166
dilemma	-0.0806921237120204
overthrow	-0.0806917008358162
afraid	-0.08065491538670656
competitiveness	-0.08065132463233847
deficits	-0.08064138914882221
Hague	-0.08063617724010091
plunder	-0.08057905834557447
Eliasson	-0.08055222223033347
tons	-0.08054126399262655
evolve	-0.0805118844121027
corresponding	-0.08050624236005742
alternatives	-0.08050388893994963
grand	-0.08050253706157247
quick	-0.08048907346770019
conceal	-0.08048133307711759
monopoly	-0.08047924125159356
trained	-0.08047873221970361
affirmation	-0.08042939176693727
images	-0.08040999303455551
aiming	-0.08040336055837144
understands	-0.0803602140342965
liberate	-0.0803343476577043
ever-increasing	-0.08031794279220072
invaded	-0.08029247337271954
Havana	-0.08026711974906629
doubled	-0.08023435529407098
Conventions	-0.08021089407172606
incentives	-0.08019979158739451
similarly	-0.08018283488371077
Hunte	-0.08015843133935797
rescue	-0.08014321330011576
bipolar	-0.08009487722026544
commissions	-0.08003646129326904
train	-0.0800235358731367
saving	-0.08002041703689003
corners	-0.07999879403754447
tolerated	-0.0799798907370125
l993	-0.07997395468374612
sixty-eighth	-0.07996913053040718
furthermore	-0.07996328938105164
abiding	-0.07993142277763512
endowed	-0.0799244857315543
Buenos	-0.07989610312702422
Aires	-0.07989610312702422
disruption	-0.07987573541884142
tested	-0.07987116110600329
â€	-0.07984029236308311
Though	-0.07982479903208149
jeopardized	-0.07981333302345951
sixty-second	-0.0797029905008543
impression	-0.07962313958221266
medium-sized	-0.079588249086647
colonization	-0.07958197042335509
post-cold-war	-0.07948663167118128
talent	-0.07939279583657119
exploiting	-0.07936724632952105
eager	-0.07931155678166749
covering	-0.07927812478888711
disappearance	-0.07923742485566948
overriding	-0.07922625500985582
fifty-third	-0.07917434783918871
Hungarian	-0.07917374992699872
warring	-0.07916948424449959
deteriorate	-0.07912602511916379
oppressive	-0.0790939973512717
Ping	-0.07900425808276895
meagre	-0.07895136133602175
topics	-0.07889857874486164
requests	-0.0788951446230411
scheme	-0.07888478451666074
Reagan	-0.0788845470862905
Salim	-0.07886292958682009
reciprocal	-0.078835369563738
definitely	-0.07881299232649852
province	-0.07872511550416819
uncontrolled	-0.07871170545264795
shortage	-0.07870292992003902
Illicit	-0.07860524868765584
respectively	-0.07855717108246382
Combat	-0.07844971384848967
advice	-0.07836821306658653
west	-0.07836185536915986
rose	-0.07835348209023933
medicine	-0.07833122037648926
remembered	-0.07829594352443568
Process	-0.07828392659214883
forty-sixth	-0.07828195601617714
ravaged	-0.0782531434857153
paradox	-0.07824745753704751
shocks	-0.07824680276825821
earthquakes	-0.07821216996847352
stipulated	-0.0781884774301635
encompass	-0.07818357194106586
utilized	-0.07815547600263748
dwell	-0.07809968976839902
resilient	-0.0780564687228391
resorted	-0.07803974221274917
Highness	-0.07802213430755717
endeavors	-0.07800596720481438
forcefully	-0.07799407810765985
skilful	-0.07797922455953385
morally	-0.07797791683242926
Yesterday	-0.07796374735632136
memorandum	-0.07792434519138787
characterize	-0.07791564055925952
endeavor	-0.07791137361277287
groundwork	-0.0779054770605808
Measures	-0.07788715414640972
forty-ninth	-0.07785636014792201
smallest	-0.07783374961774067
assault	-0.07782975061384013
night	-0.07781619194167387
campaigns	-0.07779709965817348
superPowers	-0.07775502363772653
beacon	-0.0777019481975204
arises	-0.0776905286312048
coincides	-0.07764708128096585
introducing	-0.07764402564880642
energetic	-0.07763723560784085
Drugs	-0.07763715977879644
partition	-0.0776028609222732
violates	-0.07759548858776721
Kosova	-0.07753545026042864
Christian	-0.07752309395492842
cherished	-0.07749139210429357
wishing	-0.07743183086633648
urging	-0.0773949121303671
convictions	-0.07738533051681616
east	-0.07723395783938687
relates	-0.07723110612068784
speedily	-0.07717983083611703
﻿It	-0.07716701707543892
mostly	-0.0771282752587794
compromised	-0.07703574868834819
climatic	-0.07703308014898476
Migration	-0.07701987084297503
venture	-0.07697813464223066
odious	-0.07696221140615005
III	-0.07695191952673879
radically	-0.07692864254974188
cultivation	-0.0769285291609677
endorsement	-0.07683169135981378
adhered	-0.07682770052863212
virus	-0.07682635597978779
tied	-0.0768170640393657
doctrines	-0.07680737408969851
grew	-0.07678672443278163
Arusha	-0.07676056421636258
endangering	-0.07673925656289529
Bali	-0.07669601747406994
maneuvers	-0.07667155998545074
catastrophes	-0.07665185939594468
Baltic	-0.07660018763238428
fifty-seventh	-0.07658040532799519
nineteenth	-0.07641849603520462
Al-Quds	-0.07633306413944052
facto	-0.07632610971072504
enlarged	-0.07632406605368212
prosper	-0.07632286148227044
separated	-0.07629767126440824
Guatemalan	-0.07626695504871504
handling	-0.07624781862760197
acceleration	-0.0762390504310953
Suppression	-0.07623125752184669
disproportionate	-0.07615914712362984
vested	-0.07615436716092604
judged	-0.07614352828456461
broadening	-0.07611865255210151
Durban	-0.0761116037866733
wrote	-0.07603422135223538
protest	-0.07601294629067049
remnants	-0.07597832504093835
broaden	-0.07589825757602868
organizational	-0.07587745709320791
Speaking	-0.07581169025070819
Twelve	-0.07573763503312504
destination	-0.07571693597527478
reviewing	-0.0757029585223345
ó	-0.07566678720382417
watch	-0.07565489189677878
controlling	-0.0756381292347926
forty-seventh	-0.07562308789054728
Al-Qaida	-0.07561975953845884
verifiable	-0.07559388552098047
composed	-0.07556742829802138
harmonizing	-0.07556255358213647
execution	-0.07554672621902067
settlers	-0.07554582690056748
Defence	-0.07552459455029721
Colombo	-0.07550556427471956
outline	-0.07548486270793664
aggravation	-0.07547634334827431
avenues	-0.07547572592042616
empower	-0.07545184163865178
exercises	-0.07543369818203076
voiced	-0.07542547898586295
forty-fifth	-0.07541580360118094
producer	-0.07541185050626042
authorized	-0.07538615100190081
sudden	-0.07534883492465094
self-interest	-0.07533956763647516
exile	-0.07531269628419741
slave	-0.07524773030244288
fervently	-0.07521979436237898
masters	-0.07521236093028043
killings	-0.07519189596802882
relying	-0.07513197306684237
origins	-0.07509171378073888
perspectives	-0.0750824811936852
visionary	-0.07507449135488821
Ethiopian	-0.07501122007177952
impartiality	-0.07501061624606159
Eritrean	-0.0750060512795963
repressive	-0.07497565351636022
ozone	-0.0749691231720019
acutely	-0.07496888904579334
punished	-0.07495019488843616
bright	-0.07492835847897165
affront	-0.07491420655686834
clique	-0.07489689308320649
Thomson	-0.0748529464004858
looked	-0.07482430742084052
relate	-0.07481950592906061
haven	-0.07479167224035102
disrupt	-0.07479016962081812
fill	-0.07478927324524327
forty-third	-0.0747713955888625
Again	-0.0747636174226516
discord	-0.07473973697009195
broadest	-0.0747332641680391
Danish	-0.07471497995435585
preferential	-0.07471316344499015
depletion	-0.07471177324263968
covered	-0.07467843823067712
deforestation	-0.07464386812342497
inhumane	-0.07463007875251561
gratifying	-0.07456846785449704
devised	-0.07454701291623829
45	-0.0745267537390403
discipline	-0.07451904813148473
hate	-0.0744693542636844
consciousness	-0.07444610508008828
mining	-0.07437333066008081
ill	-0.07434260156566895
reservations	-0.07432704252291902
age-old	-0.07427523825924028
inconceivable	-0.07420432472871599
defy	-0.07419805989845159
Lesser	-0.07413044847191809
migrant	-0.07411288381817165
Julian	-0.07404313187576926
persuade	-0.07402796243080173
gesture	-0.07400586070911148
ominous	-0.07399367684784453
Liechtenstein	-0.0739687752000986
Use	-0.07395717203970736
disparity	-0.07392864643536266
cross-border	-0.07391047529913324
thousand	-0.07389354704192762
vestiges	-0.07389052318686298
non-nuclear	-0.07386479212804259
describe	-0.07382738052780287
savings	-0.07381970281402504
Inter-American	-0.07381596933408527
provocations	-0.07381451137747103
presupposes	-0.07377296912509287
disabled	-0.0737709023407067
route	-0.07375026673314805
discourse	-0.07370536951145541
stating	-0.07369736596305392
decreased	-0.07365680149802278
prevents	-0.07356315107413008
underlined	-0.07352506782593476
Taking	-0.07349705193148628
barbarous	-0.07349609993539356
perfectly	-0.07348869903802573
sacrificed	-0.07348123723401222
culminated	-0.07342287764146953
emanating	-0.07341160253390125
consists	-0.0732960549166201
sadly	-0.07328512324242445
nutrition	-0.0732716836691904
page	-0.07324528343030895
bleak	-0.0732339988956668
destitution	-0.07323241776260124
deprive	-0.07316523632671805
feet	-0.07313230657287832
wind	-0.07312784957632136
hardships	-0.07312753916575625
Ismail	-0.07312156160327386
blueprint	-0.07310430133815664
boys	-0.07308740589777805
South-Eastern	-0.07308729940062311
sale	-0.07307879378530832
suited	-0.07306297764934622
Four	-0.07305774745910693
economics	-0.07304720388346751
layer	-0.07304124318728414
painfully	-0.07301632703863446
distort	-0.07301173298755834
fluctuations	-0.07299398941988695
congratulates	-0.07296883570610857
trouble	-0.07292970268857499
readily	-0.07290802638557892
peace-making	-0.07290562824638026
thirty-eighth	-0.07289459486396076
nobody	-0.07288533366010774
asylum	-0.07284993640065322
boost	-0.07275933951361441
infant	-0.07274254102718677
patriotic	-0.07274061016119573
colour	-0.07273711428089831
widen	-0.07271405424482094
argue	-0.07270679025332248
fifty-eighth	-0.07269949514430991
Institute	-0.07269212024530068
suppress	-0.0726871547169973
resettlement	-0.07268132194062428
amply	-0.07268048974572487
Cancún	-0.0726726470618826
Iraqis	-0.07265576303863627
reversed	-0.07265540834923155
Blue	-0.07262609201145172
fifty-fifth	-0.07258617660053872
civic	-0.07258254134921911
courageously	-0.0725461112361971
matched	-0.07251186359670066
underscores	-0.07246232716925016
worrying	-0.07244689113027457
affordable	-0.07230200036390161
Nordic	-0.07228218639476885
ample	-0.07227536914805821
Opertti	-0.07227211386123349
Tuvalu	-0.0722437313642323
premise	-0.0722373663865397
1,000	-0.07223732990604652
deter	-0.072232603880341
36	-0.0722122770904895
usher	-0.07221036583315495
Proliferation	-0.07219392906580428
speaks	-0.07217443488663355
participates	-0.07215086440478606
Black	-0.07213859825852922
studied	-0.07211798285688352
surprising	-0.07210501396088037
confusion	-0.0721050047165512
non-racial	-0.07210168732520639
Ian	-0.07202807850186659
drastically	-0.07199727395820528
damaged	-0.07199117762034485
attendant	-0.07197391087781395
tantamount	-0.07195392648417526
clarity	-0.0719507005887589
forty-eighth	-0.07188999600014806
tariff	-0.07187673380700942
unrealistic	-0.07186775776269791
definite	-0.07184831280934649
inspiring	-0.07184080861660198
aforementioned	-0.07183880632029288
clashes	-0.0718365251504304
Moroccan	-0.07182952666569943
examined	-0.07181713408249725
grows	-0.07180955165245853
état	-0.07180533097537851
blocked	-0.07172891760472004
apparently	-0.07165635235656878
Abdulaziz	-0.071614522324149
logistical	-0.07154349336650583
savage	-0.07149913064334347
fuels	-0.07149527914408763
Palau	-0.07146809222253611
ravages	-0.07143686044366242
Coalition	-0.07139062702223409
closest	-0.07137435165718985
Syrians	-0.07136964016633326
details	-0.07135006224245702
Europeans	-0.07131477326218541
hampered	-0.07130725800147346
co-ordination	-0.07130667821473997
weaponry	-0.07129944137033513
superpowers	-0.07126660313347465
Green	-0.07125746859994524
unilateralism	-0.07123967946527526
winds	-0.07123941888405202
ably	-0.07123000241368929
meaningless	-0.07121201285232291
enrich	-0.07119840451373577
plant	-0.0711782942796051
aspires	-0.07112795665361532
sentiments	-0.07111868453318987
furthering	-0.0711144689047158
Good	-0.0711069758710631
revival	-0.07110327774182289
engine	-0.07106512339930258
Sixth	-0.07104140072083232
favours	-0.07102397303393539
agreeing	-0.07099865081786026
fuelled	-0.07098950137755601
sites	-0.07097159727298664
Bonn	-0.07095658517228294
signatory	-0.0709415794552022
shock	-0.07089118971506493
enrichment	-0.07085385563007489
environmentally	-0.07081191017902326
bin	-0.07080694694984936
safeguarded	-0.07079642596473797
discharging	-0.0707145384342671
fine	-0.07070498236557857
Southeast	-0.07068688591100612
directions	-0.07067538333033924
Rio+20	-0.07064170687295364
breakdown	-0.07063259080296405
spiral	-0.07060018735812784
everyday	-0.07058750036365023
varying	-0.07055872478635322
ethics	-0.07054860297895234
delaying	-0.07052550218348809
polarization	-0.07052469307442415
rivers	-0.07050707153809521
foresight	-0.0704960387766195
Region	-0.07047480843560822
Fifth	-0.07046555079901977
chart	-0.07044497959224698
prefer	-0.07043959810229135
Sadly	-0.07043896117773922
Georgian	-0.07042411413298631
preoccupation	-0.07039401894443492
reserve	-0.07034154886602638
incomplete	-0.07032863441873248
rare	-0.07031464662547454
Khmer	-0.07030552983518318
Rico	-0.07027028848606806
podium	-0.07023981470865878
horrendous	-0.07023106848466237
neo-colonialist	-0.07020029941244772
comprising	-0.07015342722039364
bilaterally	-0.07015153175964532
soul	-0.07010175195030052
provocative	-0.07007623483339341
advantageous	-0.07006010692987884
scientists	-0.07003987675606589
inextricably	-0.07002670171279086
Vieira	-0.07001963277741065
contradictory	-0.07001869311229135
elaborated	-0.0699909535513276
indirect	-0.06995760533647018
sustaining	-0.06995556595005822
waves	-0.06995415261429345
hide	-0.06992061123933707
coast	-0.06989664724181424
paralysis	-0.06987777786261719
degrees	-0.06980188945509422
aggravate	-0.06973490653109303
diminish	-0.06969016839209961
Millions	-0.06968853159731223
CTBT	-0.06962295799486735
over-all	-0.0696188319340839
journalists	-0.06961263291528094
Japanese	-0.06958292351591706
award	-0.06957620052798007
mentioning	-0.06956396247313483
debated	-0.06953619933077117
ISIL	-0.06951917668196898
protocols	-0.06949750772142652
revised	-0.06946972990098728
pernicious	-0.06943757328177806
courts	-0.06938484761198412
republics	-0.06938388779091302
assassination	-0.06937593653245293
sterile	-0.06936277573261404
differing	-0.06935927990182449
knowing	-0.06933955584572774
shortages	-0.06933605737456609
sorely	-0.06928328136125868
Indonesian	-0.06927390374249652
reparations	-0.06925009156192374
sabotage	-0.06924170421984929
hegemonic	-0.06923876640008038
Cross	-0.06918560439597905
earn	-0.06917256650134196
comment	-0.0691688331663193
influential	-0.06913336036420117
creditor	-0.06910721541036922
200,000	-0.06908945368967817
Building	-0.06908296651673329
32	-0.06907419103637934
Ashe	-0.06905523390942833
self-sufficiency	-0.06904432324499056
troop	-0.06903298632918933
desperately	-0.06902670645681167
Operations	-0.06902117727902878
Olympic	-0.06901511652662004
consumers	-0.06897958998199383
performed	-0.06895311845436647
influenced	-0.06890795983719579
regained	-0.06888561908606264
endangered	-0.06888089989678794
Antarctic	-0.0688712753387876
seventy-first	-0.06883917986284831
crushing	-0.06880134011636654
winning	-0.06879786893647404
Sahraoui	-0.06878448310395918
passive	-0.06872525097437515
reliance	-0.06870297256684747
successor	-0.06869222240289728
fulfillment	-0.06864727177699667
focuses	-0.06864691941717285
Threats	-0.06860884802985133
Sao	-0.06858542770959589
claiming	-0.06856129665345471
propitious	-0.06856046754063205
Seung-soo	-0.06850455568404698
repeating	-0.06849797847102711
objectively	-0.06849652337229206
thirty-fourth	-0.06849645646942083
upheaval	-0.06848160460747785
equivalent	-0.06848027748052726
distortions	-0.06847056306990544
Integrated	-0.06841904066512483
Amaral	-0.06839278496473915
recurrence	-0.0683868691701186
thirty-first	-0.06837458851454267
sorts	-0.06835517869551629
pause	-0.06834839385910353
reveal	-0.06832234724737575
Games	-0.06830455265687736
preliminary	-0.06830390155919189
simultaneous	-0.06829849197967268
fait	-0.06828711431717585
Environmental	-0.06825904849962133
isolate	-0.06825394258084283
identities	-0.06824932481463113
flee	-0.06823142609093555
imposes	-0.06821572417878781
António	-0.06820544535136014
immigrants	-0.06820493247729352
surplus	-0.06814920199055331
Outcome	-0.06814538297278103
System	-0.06813956283257094
inadmissible	-0.0681252330362079
shattered	-0.06809194999938872
someone	-0.06808570958724
twenty-ninth	-0.06803018058619577
anxious	-0.06801065698167053
themes	-0.0680096072389247
detrimental	-0.06800223422110449
senior	-0.06796697327986029
ramifications	-0.06795189994600159
relentlessly	-0.06794689294595499
True	-0.06793972984632592
deterrence	-0.06787926002769139
Sergio	-0.06783459906499217
radicalization	-0.06783278473351202
practised	-0.06776185495541102
grip	-0.06774942881460466
conquest	-0.06772278311835132
ranging	-0.06771103736940817
Multilateralism	-0.06765064686216306
distorted	-0.06763854618186121
postponed	-0.06762597097027966
unavoidable	-0.06762594446094261
Deiss	-0.06762121896253775
conferred	-0.06757889695934904
University	-0.06755684066871459
Trinidad	-0.06753611283462561
affirms	-0.06751465394817896
rebellion	-0.06743749084248912
indications	-0.06741983763055807
stopping	-0.06740704716489347
accompli	-0.06740278918760477
sums	-0.06734908599788617
chain	-0.06730816118104778
temptation	-0.06718724130105723
firmness	-0.06717241849411784
turbulence	-0.06710925261486704
pretexts	-0.06710255009608371
Abkhazia	-0.06707102231041634
sugar	-0.06705516546234104
Her	-0.06704275228
afforded	-0.06700049970437763
Da	-0.06697547304871818
languages	-0.0669539710453552
forcing	-0.06689435927649433
cold-war	-0.06687699911494245
commemoration	-0.06687674699063664
reveals	-0.06687164524383052
barbarism	-0.06684138803708148
Belgian	-0.06682533797355027
trillion	-0.06681264766823355
incapable	-0.06680385085857242
sow	-0.06679506301965284
modernize	-0.06678154028825906
input	-0.06675470000733043
Embassy	-0.06675435148008578
steer	-0.06675121938658565
cruelty	-0.06674389468126143
fortunately	-0.0667371342979682
G-8	-0.06673640031717899
shaped	-0.06668363221465244
cite	-0.06668279253320543
Mello	-0.06667248428635798
understandable	-0.0666545148478108
forty-fourth	-0.06664255118132421
Patriotic	-0.06663936986477904
wasted	-0.06662968880145444
damaging	-0.06661515202990227
Wall	-0.0666112746585851
graduation	-0.06658950441938741
stationed	-0.06658011562374125
dictate	-0.06656989097158562
Sudanese	-0.06656090375458205
realm	-0.06654739557525578
trials	-0.06650745150710544
imperfect	-0.06650113237816928
fragmentation	-0.06649808133947743
thwart	-0.06649690759049462
Experience	-0.06649573900599381
bombings	-0.06647160749800939
remiss	-0.0664452935096465
acknowledgement	-0.06643507107650866
lethal	-0.0664335588386127
instrumental	-0.06639879430769761
frequency	-0.06637967962387607
noteworthy	-0.06636051650182484
Haya	-0.06635885484249694
unfulfilled	-0.06635165778985125
defensive	-0.06634723700150333
vanguard	-0.06634068408938537
fifty-fourth	-0.0663337212954169
talents	-0.06629362403847347
amongst	-0.06627873928069548
Additionally	-0.06623813312931816
intertwined	-0.0662212494906355
harder	-0.06621677026248961
vacuum	-0.0661633638042731
Certain	-0.0661604885362596
Growth	-0.06615874335986427
illustrated	-0.06615320808339964
injured	-0.0661519624668313
denuclearization	-0.06608223113799351
XXIX	-0.06605791897618378
suggests	-0.06605444140277521
trampled	-0.06605376152422053
1.5	-0.06605283834038583
motivation	-0.06603553833270058
analyse	-0.06603456701071786
contingents	-0.06602658426753583
ray	-0.06602624655979603
Tome	-0.06602175383178009
objectivity	-0.06601130270268625
declaring	-0.06600943985512907
emphasizing	-0.06599894684803025
explosions	-0.06597533977970091
Advisory	-0.06596981342214285
rejoice	-0.06596713606502136
clearer	-0.06596217096060579
Helmets	-0.0659566072320189
generously	-0.06594777991783805
regionally	-0.0659451468243906
Principe	-0.065929502621533
droughts	-0.06591573603437358
forcibly	-0.0658692355298548
Tonga	-0.06581814242554593
guard	-0.06581573366970407
harness	-0.065790398934498
unjustifiable	-0.0657738852883877
targeting	-0.06572197233471563
Aware	-0.06571298187239503
loved	-0.06569501182794067
premises	-0.06566356607161293
Andean	-0.0656546172088001
Tobago	-0.06565154812086976
presenting	-0.06563420487076468
Labour	-0.06562883379309979
Reconciliation	-0.06558186569539007
diktat	-0.06558132784451567
situated	-0.06556404986690981
VI	-0.06556323878539479
persistently	-0.06555380565327264
health-care	-0.06554580986692274
pursues	-0.0655363124474117
alter	-0.06547922945943942
newest	-0.06546075463639095
interfering	-0.06546001810726926
humanism	-0.0654383337125145
cross	-0.06543382539694717
accommodate	-0.06543298817631417
Freitas	-0.06539777746639341
career	-0.0653868080861456
Poor	-0.06537562279583929
﻿Allow	-0.06536018394673002
approve	-0.06535544648507365
Quite	-0.06533491165539689
register	-0.06526598466970288
Jamahiriya	-0.06526044652730079
Amazon	-0.0652507161716406
perilous	-0.06523849092785243
candidates	-0.06521728957794448
achievable	-0.06520882451065599
allegations	-0.06518196725180796
highlights	-0.0651621764870225
wrought	-0.06515977809213643
inequities	-0.06513420805594647
caution	-0.06513225330161047
preferred	-0.06511468206032985
frustrations	-0.06510424099928237
Colombian	-0.06509552885433134
Contact	-0.0650953252882599
stepped	-0.06508883090045905
Lima	-0.06508635629540896
site	-0.0650803286797211
Looking	-0.06505978041560144
esh	-0.06504539565195716
tolerant	-0.06503962812914077
unjustified	-0.06501806882281114
full-fledged	-0.06501478679439028
nationalist	-0.06501350036222008
exacerbate	-0.06497103619368876
unspeakable	-0.06496230022723588
glorious	-0.06489201628187191
voters	-0.06488999540414188
nationalities	-0.06487451844537828
Undoubtedly	-0.06485722262741958
SALT	-0.06479488368346374
benefiting	-0.06478339914164541
Twenty	-0.06478104107109926
uneven	-0.06477065826779894
reiterating	-0.06476984130577261
exodus	-0.06475487662422784
frontier	-0.06473792956362842
dismantled	-0.06473482184081857
impoverished	-0.06467971699204371
Naturally	-0.06466979538838308
touched	-0.06466442999795764
banner	-0.06464235698019268
Arabian	-0.06464129440524224
dividing	-0.06461892833741989
Violence	-0.06458331327171155
rigorous	-0.064543236052059
Cotonou	-0.06453771780170542
ports	-0.06453004954884026
affluent	-0.0644797483520245
temperature	-0.06442660620505271
preferences	-0.06441109974791427
hoping	-0.06440473581294076
prison	-0.06438353830321983
judgment	-0.0643763960313787
enriched	-0.06436651628880348
deficiencies	-0.0643419608936128
listened	-0.0642822747373632
identification	-0.06427125640268348
Racial	-0.06426377357472492
complicity	-0.06424993974762233
match	-0.06423526554383788
scarcity	-0.06421994800692876
Biological	-0.06416937544872031
Mongolian	-0.06416865973066375
sponsors	-0.06411022925649557
incidence	-0.06409271600071226
Seven	-0.06408100431477942
cancellation	-0.06406381880741895
flames	-0.0640492697035032
faiths	-0.06395510267052343
neglected	-0.06395248150349257
fifty-	-0.0639184674186762
restrictive	-0.06391419895738389
designated	-0.06391142024005309
perpetuation	-0.06390399623233445
coverage	-0.06390338085757072
Effective	-0.06390036654444879
Official	-0.06387755265360905
Negotiations	-0.06386012788820895
jeopardy	-0.06385574974080649
requisite	-0.06383670360263252
fixed	-0.06382086407037228
usurped	-0.06381840347526706
dozens	-0.06380137343826336
personalities	-0.06376430261768211
puppet	-0.06375446732302438
Production	-0.06373807768905543
brutally	-0.06370062817472343
George	-0.0636844338927944
surface	-0.06367601185639415
Gurirab	-0.06366023758369861
recovering	-0.06364110667316912
betterment	-0.06363802936384197
Rashed	-0.06362656102446719
obtaining	-0.06360977669076676
suspension	-0.06358902028622722
sixteenth	-0.0635772368989443
universities	-0.0635716927483563
know-how	-0.0635550770719935
vehicle	-0.0634910088413453
concord	-0.06345367281565831
wisely	-0.06345132823513057
lessening	-0.06340314257942815
hesitation	-0.06340048223598714
opted	-0.06339610841285659
teachers	-0.06335890855935196
re-establishment	-0.06333065547431183
discharged	-0.06332506209232884
indisputable	-0.0632861869411837
onerous	-0.06326943915377364
linking	-0.06324017087219277
coping	-0.06323013893741672
void	-0.0632127513691244
generalized	-0.06318611716804888
consequent	-0.0631711818425359
odds	-0.06311735442943524
incalculable	-0.06308322995401092
nuclear-	-0.06305298085267232
unbearable	-0.06304919773338849
f	-0.0630108725469318
IGAD	-0.06300139930993183
institutionalized	-0.06298072907480688
stubborn	-0.06296570470539879
cutting	-0.06292046608006
forty-first	-0.06290665065367819
recommendation	-0.0628274188277991
raison	-0.06282104609020345
win-win	-0.06281759061907895
70/1	-0.06279825905623038
1960s	-0.06279622424449151
knew	-0.06279431459192021
repetition	-0.0627724155168683
Information	-0.06277200370506522
cowardly	-0.06277167572644791
Industrial	-0.06276786772516946
dioxide	-0.06276616836926611
attributes	-0.06275983015815682
rulers	-0.06275077558647404
2018	-0.06274995646903044
storms	-0.06273523930189612
termination	-0.06270859193140303
sea-level	-0.06267483963192581
Burundian	-0.06267105901950788
Covenant	-0.0626660961380517
explicitly	-0.06266038048799001
rendering	-0.06265132442489477
forty-second	-0.06264570824634011
reputation	-0.06262572656546363
tracks	-0.06261147009904816
empire	-0.06256884109909476
expulsion	-0.06256834092744266
believing	-0.06255681743494441
compete	-0.06253679888905019
Destruction	-0.0625341971146419
strives	-0.06251732434268774
endangers	-0.06251508526009016
irrelevant	-0.06251047627215787
Nagorno-Karabakh	-0.0625101360718975
normalcy	-0.062486882058940575
substances	-0.062452318677111845
associations	-0.06245079069023869
freedom-loving	-0.06243299579269105
illustrate	-0.06241894564661294
refusing	-0.06241201462058845
controversy	-0.062411654242908586
guise	-0.06240744782265412
Indigenous	-0.06238284920501733
assertion	-0.06238227814660851
dispatch	-0.062365219216388275
unpredictable	-0.06234977550902038
Holkeri	-0.06233261875520779
investigate	-0.062301585111291614
34	-0.06228341952768594
criterion	-0.062268386506128696
demarcation	-0.06225145144922065
breaches	-0.062222359585548226
imaginative	-0.06217692146679649
fostered	-0.06217022699563325
argued	-0.06214848614029302
applauds	-0.06210975575786679
Udovenko	-0.0620868853949254
accusations	-0.06207680964462939
shocking	-0.06207477844465796
65	-0.06206171671447045
unlawful	-0.06205444490573686
underlines	-0.062010641026593455
Sam	-0.06200286905184386
brighter	-0.06196670770424605
horizons	-0.06196615636456871
provoked	-0.0619588536355004
Road	-0.061947057683328914
associates	-0.06192508699835365
paved	-0.0619229333004059
recruitment	-0.06191605217161624
workable	-0.061913842012710135
POLISARIO	-0.06191270251391393
emergencies	-0.06191058457519026
insurmountable	-0.061883854845075
expert	-0.06187588332020365
fish	-0.06187362717229937
plea	-0.06184851391329216
high-	-0.06183142964007467
concessional	-0.061778094136434474
Vanuatu	-0.06173674253157196
entrenched	-0.06172368884870212
Insanally	-0.06169836211746113
Delhi	-0.06166660139781377
enthusiastically	-0.061635591919395626
attachment	-0.06162475733292482
seventy-second	-0.06161631463071591
panel	-0.0615803041877597
squarely	-0.06156740442539271
backward	-0.06155307159555294
manipulation	-0.06153791858348977
Lykketoft	-0.06152314484620031
possesses	-0.06150001668785174
mountains	-0.061487385073678597
monopolies	-0.0614486590326844
consensual	-0.061443579755319055
commended	-0.06143325699949853
independently	-0.0614262565550186
accepts	-0.06136444054036024
survived	-0.06135434907416556
Canadians	-0.061317653799823665
much-needed	-0.06130808612154313
sensitivity	-0.06129648613666809
continuity	-0.06129358237503183
prevalence	-0.06127073091772177
Peaceful	-0.06125838658728001
pool	-0.06125558322344788
imported	-0.06123454958414872
raises	-0.0612176397031906
eternal	-0.061215363472831484
Friends	-0.06120531147429967
notice	-0.06119973649505401
laundering	-0.06118160648567258
inconsistent	-0.06114683147593755
spots	-0.06112854466178956
impoverishment	-0.06109958145457005
harmonize	-0.061095881526463426
drew	-0.06109078515394794
riches	-0.061067638213777135
democratize	-0.06103759023323087
worlds	-0.061017860225289974
renewing	-0.06100698939577845
center	-0.060922960400751944
indefinite	-0.06091108151274345
empowered	-0.060887857837087785
Mankind	-0.06086728719001202
money-laundering	-0.06079563381596116
Youth	-0.06079105115872581
oldest	-0.06076424185912179
Nassir	-0.06075719268870344
myriad	-0.06067634086968235
recovered	-0.06066510085894123
encompasses	-0.060628481700811476
battlefield	-0.06061134698296986
helpful	-0.06059339502368955
coercive	-0.06058849304771395
grants	-0.06058696530434707
frozen	-0.06057687152724753
turns	-0.060567846121901775
bigger	-0.060558223300778986
Emergency	-0.060545574813428836
militias	-0.06051681276941609
arrears	-0.06051555392004493
Kerim	-0.06051462142740148
disagreements	-0.0605084153045534
Caracas	-0.060498300289381975
toxic	-0.060476109018792745
Cancun	-0.06046990969479579
militarization	-0.06045824314622804
renews	-0.06044617293639292
mentality	-0.06044112216413523
Important	-0.06041911650665966
overlooked	-0.06041559679406757
twin	-0.060379296486023415
obstruct	-0.060343802083205875
multicultural	-0.060339707947430384
reluctance	-0.06032247496845373
unknown	-0.06030244801718195
horrible	-0.06029024339294406
subversive	-0.060278437955463345
equals	-0.0602699320769589
convincing	-0.060268201244842674
Board	-0.060255703861334727
inescapable	-0.060252911591123545
flight	-0.060237277916622936
Currently	-0.06022278161619435
predecessors	-0.0602193606259101
exerting	-0.06017998630129776
dividends	-0.06017767509349866
unpunished	-0.060163405478165705
dedicate	-0.060151132736788196
under-development	-0.06014244161769405
assembled	-0.060137830308600614
underestimate	-0.060114060414552924
2,000	-0.06010350523587713
eloquently	-0.06008840779093452
Constitutional	-0.060078030332871575
completing	-0.0600549475980707
Conflicts	-0.0600383292741472
arrival	-0.06003806062936832
critically	-0.05999848288373903
thirty-sixth	-0.059958379840950725
Educational	-0.05994757695584898
abundant	-0.05994052328217639
instituted	-0.059936326089641744
reactions	-0.059934733885018986
diminishing	-0.05991610602765786
defenceless	-0.05990900298224865
deep-rooted	-0.059907655543076456
secretariat	-0.05990306904860603
Gibraltar	-0.059900344974307865
complacency	-0.05988769034482954
Spring	-0.059868952891024924
echo	-0.05985389168939409
ruins	-0.05984272036914685
rules-based	-0.05984121102858472
800	-0.059778445248624267
High-Level	-0.05977484438756881
contemplate	-0.059692357107800374
linkage	-0.059681794375977815
Vuk	-0.05966541992532341
exceed	-0.059656231814461384
employ	-0.059633586610674284
dropped	-0.05962486347253541
Swiss	-0.05960865256057303
broke	-0.05959097754660932
prudent	-0.05958874238355397
nightmare	-0.05958853074188083
incentive	-0.059578079368700305
memories	-0.05957633849126575
innumerable	-0.05956674651283533
sadness	-0.05955381392869981
recurrent	-0.059552494378420175
embracing	-0.05954176385920148
competing	-0.05952438927993058
conjunction	-0.05952317949336623
Preparatory	-0.05950668231426602
parity	-0.05945196512818912
peril	-0.059371053567752366
plants	-0.05935967629624685
illustration	-0.05935090421253153
recommend	-0.05930842295988811
exhausted	-0.05929058835225054
henceforth	-0.059286863609815804
disagreement	-0.05927461979750311
low-lying	-0.05926641096817851
barrier	-0.05926135299652808
Nation	-0.05925633746777513
400	-0.05923934374300359
differ	-0.059219522271428356
OECD	-0.0591842315031343
mercy	-0.05917887322989579
consecutive	-0.05916661927954303
protests	-0.0591546691227622
declined	-0.05911346560290171
occurs	-0.059091372564697035
ammunition	-0.05907795815838847
ally	-0.05904436236107613
Lagos	-0.05902633637214719
admirable	-0.05901292057573149
transferred	-0.05901237956113412
rampant	-0.0590024809723431
rigid	-0.059001523831199165
weaker	-0.05900008334277518
scrupulously	-0.058982515435431135
Ahmed	-0.05896652774435969
fault	-0.058938377849478835
realistically	-0.05893808690812537
tribal	-0.05893541826006023
Reconstruction	-0.05892826186434299
sell	-0.05892412864879353
anger	-0.05890664462533186
choosing	-0.05889682434232706
manufacturing	-0.058865522166392244
teaches	-0.05885673969182399
deplores	-0.05882843000578361
unreserved	-0.05881981437013454
U	-0.058817076966879336
separatist	-0.05881591477732892
Burma	-0.058815361778663644
Or	-0.05880751032801811
Castro	-0.05878953278753588
strengths	-0.05876220858986189
besetting	-0.05875734412920194
murdered	-0.05875359514194673
attest	-0.058744812840376304
texts	-0.058712176733986536
petroleum	-0.05869723841604026
installations	-0.05867970427663845
subsistence	-0.058676928344401635
Debt	-0.05865809329410993
lending	-0.058602857233977436
facility	-0.0585994120111484
Events	-0.05859822835773503
negatively	-0.058573340479935766
capitals	-0.05856010623855126
river	-0.05855566792617587
Sihanouk	-0.058552041874401994
nurture	-0.0585484930221075
draws	-0.05854113876947255
thrive	-0.058540740432915954
formulating	-0.05853897033675997
cuts	-0.058521206269651724
sine	-0.058509210265886485
Rohingya	-0.05850480313558357
duplication	-0.05850380300114945
routes	-0.0584943856062542
subjugation	-0.058494357660561394
forming	-0.05849340623489274
Seychelles	-0.058488263006789526
anticipated	-0.05847462075030333
arrogant	-0.058463627022755656
plundering	-0.05841780163881412
walk	-0.05837842619464004
exacerbation	-0.05835668990696551
federation	-0.058347435715998326
occupies	-0.05832178724781856
Right	-0.05830566285814949
originally	-0.058303790741168926
Kutesa	-0.05829053278295914
reprehensible	-0.05828769638868963
1969	-0.05827636851182712
inter-ethnic	-0.0582590697022565
600	-0.05825130161472211
prey	-0.05824453719374287
42	-0.05821934985377835
entirety	-0.058212105745861914
Establishment	-0.05821159111209082
Salisbury	-0.05820537737953516
native	-0.05819308420613288
imply	-0.05818486551064914
energetically	-0.05816891549559139
please	-0.05814786604410398
volatility	-0.058141078472543906
unquestionably	-0.058115611085556164
surprised	-0.05801334175383956
striven	-0.05799974368201374
strikes	-0.05799301342642279
reply	-0.057974939370640584
Mechanism	-0.05796941735925436
UN	-0.057960155874471966
halted	-0.057946793262218604
separatism	-0.057919777969321296
hasten	-0.057910720428658684
index	-0.05790228053340043
unemployed	-0.057902127612559674
banana	-0.05789433194671832
UNHCR	-0.057888057863269164
fissile	-0.05788775263111336
telling	-0.05787379588206728
Clinton	-0.057854368802842636
dictates	-0.0578311873441805
mineral	-0.05782361555328129
Brazzaville	-0.05779544597134941
medium-	-0.0577720123370384
forward-looking	-0.05777036494672824
minimal	-0.05776842824744336
august	-0.057734292490005605
ardent	-0.05772597918720882
albeit	-0.05769429473834535
Peninsula	-0.05768962065258718
credits	-0.057676310138190176
ensuing	-0.0576226928003815
posts	-0.05760394036776505
frustrate	-0.05760035539607611
luxury	-0.05758446626438409
constituent	-0.057530916181874614
ever-growing	-0.05751604007868537
salvation	-0.05750216254118902
observing	-0.057500245227383937
messages	-0.057494866033842254
impediments	-0.05748423879525057
understandings	-0.057474701477467485
Combating	-0.05741800043150304
sharply	-0.05741428662054658
stories	-0.05737812580219948
conform	-0.05733522741552111
structured	-0.05732633118757438
assumes	-0.057305424187160774
ten	-0.057302214658189445
repayment	-0.05728400484278573
explicit	-0.05727366552623198
carnage	-0.05727337549270674
authoritative	-0.05726214032948673
hidden	-0.057253387785170015
uranium	-0.05722416789507189
anti-	-0.05718177190057234
transactions	-0.05716951152154017
ballot	-0.05716234761299198
gravest	-0.05716143428409292
protects	-0.05715381642878048
socio-political	-0.05714714226366608
twenty-eighth	-0.05713102540713242
prohibit	-0.05713045051037362
shame	-0.05711721934799926
staunch	-0.05711063964759133
diversify	-0.05707792105236016
Caputo	-0.057074762297154163
nonetheless	-0.05704457839738617
Essy	-0.05701375963248663
fierce	-0.057005790265960816
fourthly	-0.05699168556573972
corrupt	-0.056979713947243
overt	-0.05696184447740378
Optional	-0.056922326551932724
murderous	-0.056904209092767034
Vincent	-0.05690029888850519
adjacent	-0.05689289883754105
remedies	-0.05687957509470315
contract	-0.056876339332814836
homeless	-0.05681962258885909
harmonization	-0.056808018600673034
modernity	-0.05679534348587263
sanctity	-0.056783031115849696
emphatically	-0.05678162538721524
lacks	-0.05678036459642064
provisional	-0.056763972289107505
recalling	-0.05675497210212544
Tyrol	-0.05673400454411954
subcontinent	-0.05672879705395467
Madam	-0.05671265673969878
provincial	-0.05668361970162674
articulated	-0.05667894611252902
proving	-0.056675506398455526
relieve	-0.05666669290318131
therein	-0.05666327954296969
heal	-0.056644250542326566
Jose	-0.05663644993096688
partly	-0.05662348539220532
adding	-0.05662182107449149
wastes	-0.056619276071451584
Please	-0.0566015471068286
Nonetheless	-0.05658358199273691
hot	-0.05657087791149104
attending	-0.05656643262444282
array	-0.05655000949149594
environments	-0.056509308083025546
inadmissibility	-0.05649278425712823
abolished	-0.056490197561759506
accessible	-0.05648413054388039
explains	-0.05647886827761395
tribunal	-0.05641818105682658
strain	-0.05641708828682839
interlinked	-0.05640252272622497
keenly	-0.05637423974335732
conception	-0.05634298554336774
umbrella	-0.05634271750896469
Representatives	-0.05631689076975697
attacking	-0.05630645522153378
paving	-0.05623748268965685
peculiar	-0.05623034661967823
poet	-0.056216237740016106
correctly	-0.05621542019382281
attributed	-0.05620833495903885
receives	-0.05619590627419446
illegitimate	-0.056186564328878696
Didier	-0.056186182297654055
arriving	-0.056146785770103846
defuse	-0.0561463166157172
acknowledges	-0.05607646814187495
Jakarta	-0.056053878570094674
systemic	-0.056050933039180205
allocate	-0.05602839834459024
creed	-0.05602276834803166
Hussein	-0.05602167084571555
endeavouring	-0.056019525664259745
complied	-0.05598651934982694
victorious	-0.05597694763992838
excesses	-0.05597649061224628
anti-imperialist	-0.05596296189833733
qua	-0.055900510977162296
Musa	-0.05587384833248599
Have	-0.05587132345328981
thirty-seventh	-0.055868424328623746
Solidarity	-0.05586757841779937
frightening	-0.05586523049377897
re-election	-0.0558527775849743
intransigent	-0.05584696152461986
social-imperialists	-0.0558379781734119
Consistent	-0.055835279020641754
decreasing	-0.05583005528215509
literacy	-0.0557911429546939
anchored	-0.055780967620880126
Lakhdar	-0.05575962073444183
38	-0.055750311819712184
Polish	-0.0557327207800035
incorporate	-0.055716155700307905
initiating	-0.05571241939738927
pray	-0.055656319275950196
nationality	-0.05564147153319306
produces	-0.05563313568816874
delays	-0.05561894044098518
Reduction	-0.05561472581795505
Abbas	-0.05561168595398077
Ganev	-0.05560955697599908
comparable	-0.05560208890198963
elect	-0.055597496430378694
tragically	-0.055563992906717465
excellence	-0.055539298410259307
sponsor	-0.055531088193035934
attracted	-0.055502130081941804
Stockpiling	-0.055478109921581545
SecretaryGeneral	-0.05545779219534534
immoral	-0.05544365943931116
hindered	-0.05540950910471202
invariably	-0.05538697328265842
Basin	-0.05537490183821577
blocking	-0.055363275337837775
embraces	-0.05534913801886245
unfavourable	-0.05530830477268126
mediator	-0.055305686016010006
pragmatism	-0.055302909675782386
usually	-0.05529994364685456
diversified	-0.05529267778205897
consultative	-0.05517097611302516
33	-0.055161925099239936
submission	-0.05515758492678248
shoulders	-0.05509450277958835
augur	-0.05508094281394829
owners	-0.055072270642742206
jungle	-0.05505874988834737
multitude	-0.05504783101837538
Conventional	-0.05504024308471749
retreat	-0.05502110592094646
breeding	-0.05501768317085008
armament	-0.05501065956115846
[...]
